#version: 0.2 - Trained by `huggingface/tokenizers`
" "
= [
f f
] &
A R
V AR
N U
NU M
"" :
" ,
i d
E R
a n
t a
n t
- [
", ""
. .
n e
d e
ff ff
n o
c o
V ER
v no
s t
s i
c h
c e
"": ""
g e
t e
I D
d a
l i
č Ċ
v i
e n
a c
e r
t o
m p
vi ce
de vice
u nt
o n
da ta
an ne
ch anne
channe l
r o
] -[
co unt
t i
ta mp
g n
] -
.. ..
e nt
H ER
O T
OT HER
"" ",""
si gn
"" ""
c li
cli ent
ac count
k en
to ken
device id
= {
a p
r e
an d
m e
] [
s e
ge t
ro id
and roid
ap p
} &
te st
={ ""
t y
p e
i n
ty pe
Ġ [
"":"" [
.... ....
ti on
ne w
] \
p a
ffff ffff
s s
] """,""
l e
l a
/ [
( )
an g
r i
e x
new s
s er
o s
", #
v a
z e
o r
si ze
C H
"": [
v er
s p
h o
li st
pa ge
o p
= &
p o
] ",""
n a
........ ........
co m
t u
] .
i f
1 0
) :
1 4
e c
) .
l o
a r
f a
b d
a d
"""" """"
en d
( #
j a
g u
m i
se t
na me
"" }&
re sp
v e
tu de
d i
u t
a tion
on se
resp onse
l ang
ja va
ti me
"":"" ",""
u te
u n
re a
] /[
u ser
ch r
1 6
w ri
wri te
( '
po si
a ge
} [
ex ec
op er
={ }&
da te
ho ne
g i
p hone
) ",#
w ang
gu an
guan wang
/ .
si on
posi tion
i me
i os
1 3
() ",#
co nt
u p
{ ""
g s
h t
a u
f i
st y
sty le
m s
] /
ti n
s h
ro w
] )
t h
k e
f o
au to
t r
................ ................
/. /.
de x
exec ute
ex t
get list
oper ation
up date
ce ss
f b
cont ext
b u
d b
p ri
pri nt
x t
] }&
r ce
c t
co n
u e
f or
r a
( """"""""
& ""
st r
"" )
$ _
a w
ver sion
i s
\ ""
c tion
( ""
w or
i l
Ġ 2
a b
i o
l on
la ti
gi tude
lon gitude
lati tude
( """"
a l
p h
ge tin
in fo
de r
x a
v le
i c
m y
co de
ser vle
la st
d x
"":"" }&
s y
write r
"""" )
() .
. [
va l
get writer
m b
\ .
ne t
rea m
st ream
\. \.
c la
p t
l n
) )
update time
last updatetime
p ut
= #
tr ue
s u
ac cess
t ch
m o
if i
w ifi
in dex
{"" @
put stream
cla ss
m id
mb er
device info
s c
u sh
me mber
count y
n u
1 1
s a
j s
c lo
ar ch
clo se
] =
Ġ java
se arch
]. [
c n
ser ver
ime i
] ?
client id
print ln
on y
[ ""
op en
v o
wor k
: /
( [
] :
st e
] ""}&
- -
e b
x work
$ {
l se
ta il
de tail
m l
p l
ss age
' ).
sc ri
f un
k b
ac ti
e d
s o
c a
rea der
com m
me ssage
lo g
I M
T IM
TIM E
= @
l x
( $_
unt ime
t p
r untime
fun ction
b b
js on
8 3
sa ve
p ro
.. /
ch e
:/ /
s ta
ar d
"""" ):
m a
get message
getmessage count
c an
mp h
sy mph
symph ony
open symphony
db c
po c
get detail
3 9
time s
times tamp
if y
fa st
v ss
r mi
ver ify
auto verify
aw vss
awvss can
or g
fast json
ap a
"""" &
ne xt
u age
lang uage
get my
channel s
con fi
apa che
ph p
log in
s un
getmy channels
/./. /./.
mp l
j dbc
} }
se ti
row set
row seti
jdbc rowseti
jdbcrowseti mpl
"" &""
ke y
( &
& """")
&"""") """"):
di s
ht tp
servle t
d y
e w
in g
tch er
................................ ................................
pa tcher
dis patcher
http servlet
httpservlet response
ra m
ve h
f w
ht ml
0 0
_ _
s end
l l
to p
a sp
d d
b o
e f
save deviceinfo
mi t
Ġ s
j g
li ve
vi ew
). (#
pl y
] *
re ply
d h
"""""""" ):
c d
1 2
../ ../
re di
ho t
x x
redi re
t b
]* [
ss id
Ġ i
b e
r ation
f l
ro r
mi c
' )",#
top ic
dy na
dyna mic
b a
ta gs
so u
ge r
r t
"":"" -
sou rce
b y
ms g
o ut
member access
m ac
ab i
"" &
"" }[
Ġ execute
fl ush
xa jg
xajg dx
gs end
ms gsend
send msg
\.\. \.\.
redire ct
va te
acti vate
lx dh
id fa
device data
activate devicedata
${ #
p er
er ror
p re
gu ration
confi guration
h u
() }
data source
"" }
xa fw
in d
: ${#
nu m
to r
q u
com mit
s sion
l en
e i
auto commit
scri pt
datasource name
2 0
gn l
_ [
w d
) &""
"": {""@
pa th
comm on
ste p
a a
getin putstream
in putstream
dx pt
m d
={ }[
o gnl
re q
"") ;
() )
Ġ th
se le
c f
su b
e lse
sele ct
[ '
p ush
Ġth en
= '
ac tion
b i
k ind
s ang
sang for
ver t
u r
la te
Ġ w
oper a
re su
l t
w x
user name
t xt
f d
c i
ta ction
( \""
hu aw
\"" ).
vo ke
w a
r m
in voke
i m
c c
ut s
; $
"" ])
str uts
Ġ is
f e
u s
| <
Ġ error
w in
al l
resu me
huaw ei
Ġ next
Ġ resume
servle taction
servletaction context
> |
late d
ute r
o uter
str ing
ad vert
ro o
re ad
) ;
= ""
b r
fa lse
er ic
f c
Ġ function
/./././. /./././.
num eric
getin dex
bu bb
bubb le
date update
getindex bubble
Ġ bd
p la
Ġ if
Ġ to
Ġ len
Ġ step
) &"""")""""):
by val
Ġis numeric
- >|
|< -
bu ff
buff er
n ce
ed reader
inputstream reader
buffer edreader
common s
set position
me t
m an
met ho
i t
get runtime
get response
Ġ (""
lo a
vi nce
s v
= (
pro vince
is set
}} }
pla ce
e v
po st
ap t
bo ard
get hot
gethot search
c md
re d
"""""""" &
("""""""" [
Ġ and
x apt
u f
j n
t x
9 3
3 8
................................................................ ................................................................
] ).
] ",
sta te
b j
set deviceinfo
wor d
) ):
) ).(#
e ch
te r
get reply
getreply list
for name
view state
] """"""""
"""") "")
]"""""""" )):
4 8
mo de
x m
1 9
ste m
bu g
ch ar
ch ec
ech o
: """"""""&
ma th
("""""""" ->|
("""""""" |<-
(""""""""->| """"""""):
(""""""""|<- """"""""):
de bug
? {""@
la sh
w i
nu ll
c l
e o
tu r
c b
Ġ (
' )
acti vi
activi ty
get page
opera te
pro cess
getpage data
ho me
f in
j u
v lo
| |
comm and
z z
fa vo
hot topic
vlo ger
favo red
ger print
fin gerprint
cont ent
u c
wa re
gs m
br and
e e
uf ac
b ssid
h ard
p wd
man ufac
tur er
hard ware
manufac turer
ar me
arme abi
Ġ :
Ġ (""""
key s
Ġ (""""""""
e val
Ġ a
f loa
asp x
tb all
floa tball
floatball news
sta rt
= ${
] ]
Ġ char
] ""
: [
Ġ -
pa ss
fi x
\.\.\.\. \.\.\.\.
tin g
w eb
[ [
set ting
]] ",#
pre fix
fa u
rm h
jn di
getin it
getinit setting
j w
jndi configuration
= /[
] ""}[
d o
fau lt
b c
co ver
scri be
sub scribe
my subscribe
get cover
getcover list
h w
b f
] =[
p s
s wi
d c
v id
b t
s ho
lxdh invoke
mo bi
mobi le
r y
swi tch
= =[
le a
""} ",""
{ $
per mi
(# _
vid eo
an ce
permi ssion
Ġ permission
an s
e a
d m
get re
eb ff
l op
u ti
s pe
\ [
a o
tb lop
tblop user
s ms
pa ra
r p
is win
Ġ ""
roo t
tr ans
2 9
lea se
re lease
d f
p z
st ance
a f
confi g
' ",
1 5
? $_
trans lated
> <
]: [
ex pre
expre ssion
p g
s z
l f
p ing
chec k
uti l
de fault
["" [
]"" ]=
con str
../../ ../../
b ab
{ '
& __
ci al
spe cial
get special
getspecial channel
=& __
ur l
get live
c u
f lash
get flash
getflash advert
im g
e news
]? {""@
getlive kind
v y
uc tor
constr uctor
2 7
get video
getvideo kind
]", [
9 9
I P
f m
0 2
l d
Ġ {""
in stance
live index
ro s
new instance
get constructor
bab y
st er
get dynamic
d ge
version code
la test
get latest
getlatest version
k xm
os j
a e
jw osj
kxm jwosj
ju dge
judge activity
'", '
ba se
fb f
x i
ge te
wx user
me ter
z m
para meter
e s
te s
sy stem
sho p
parameter s
6 4
in i
]- -
w e
ev ent
Ġ new
gi c
/./././././././. /./././././././.
lx l
qu o
] ):
v c
w n
p c
"" ;
fi le
r l
se lf
ma gic
quo tes
ognl context
} :
' ])
ce nt
q y
( @
m ent
di r
ge ne
i p
gi t
gene ra
e g
z n
f ro
metho d
4 3
]) ||
= /
check code
re ss
2 5
re place
fro m
lo ad
s k
p u
. =""
"" ]:
posi x
""]) ?$_
mo us
4 7
val id
()) ).
f u
]) &
h ph
w f
' ))
c ute
n y
hph m
er y
g o
()) }
1 8
sv n
= (#
qu ery
lated news
getre latednews
pass word
v code
3 3
p y
= =
valid ation
event validation
c v
p d
5 2
Ġ 0
st ri
m in
Ġ '
ffff ff
y z
xx xx
", \
b in
=${ (#_
q q
y y
bu il
* @
@ *
3 4
con ta
viewstate genera
buil der
) )",#
b g
c ur
im age
viewstategenera tor
Ġw h
process builder
Ġ- ",
g roo
groo vy
................................................................................................................................ ................................................................................................................................
Ġ x
h i
r ent
o x
? {""
up load
( $
() ;
r q
Ġ 1
Ġ e
fi e
key word
8 6
fie ld
} )
ja x
c al
cur rent
ad min
Ġ $
li mit
ff f
u tion
bt n
di tor
r c
a me
an ony
ma il
A I
M AI
MAI L
' ",#
g k
e p
ca se
anony mous
=( @
op po
a jax
fi len
filen ame
\.\.\.\.\.\.\.\. \.\.\.\.\.\.\.\.
send sms
ta ke
Ġ d
2 8
r k
2 2
s q
c ss
r f
h pz
0 1
]& __
la y
Ġ <
hpz l
do cu
docu ment
] _
r d
bo o
Ġ h
l k
8 5
]= =[
i nt
u id
k no
') (
5 6
in sta
insta ll
k i
z g
sv g
kno wn
un known
action id
t c
web s
7 5
3 5
p tion
so bj
rp sobj
user login
fw zn
= \
Ġ 00
gs y
() ).(#
se c
Ġ p
Ġ y
z q
3 2
re member
nu rl
or er
pl orer
ex plorer
tin gsy
login num
rt nurl
opera tingsy
operatingsy stem
co l
3 1
']) ?
m ap
app l
vi vo
9 5
us r
b h
8 2
=# _
f q
4 6
end time
start time
y si
ef e
[ #
li c
xi ao
() ;$
' ]:
| ""
ph ysi
dir name
""]: $_
physi cal
Ġ &
3 0
j j
(' \
Ġ or
de code
r th
c k
"") )
i on
li ne
re gi
txt pwd
r b
regi ster
2 3
re t
tu ser
push invoke
tx tuser
ty zm
tx tyzm
g a
da c
x w
le ep
ac k
q d
da y
; &
] !
k u
sec ret
ip config
o bj
pu b
di sp
] ;
9 4
cv s
]! %
ognl util
h y
me ta
\ "":
"":"" \""
db e
4 0
j i
vcode login
pub lic
ue st
txt key
q f
z h
un ion
disp lay
m u
Ġa s
& {""
c le
xiao mi
get user
field s
ci ty
count ry
Ġ select
or y
p w
cent er
z y
news list
req uest
"" }}}
read line
q t
readline s
() """,""
4 4
bi rth
birth day
er r
user center
j y
]? {""
mo re
Ġ c
Ġ m
b l
j sp
baby birthday
ajax register
2 1
& (
bo x
common data
for m
] }[
6 7
4 1
to n
) (
7 4
p q
g d
y u
Ġ union
ta sk
]= =
]): $_
[ ]
m c
g h
o w
re s
b z
y e
io util
ioutil s
te xt
shop name
shop code
'). (#
di e
g pc
Ġ from
]) );
s bd
search page
/./././././././././././././././. /./././././././././././././././.
2 6
]; @
] ].
error s
z r
() ?
] '
ca te
) ])
'",' -
); @
) ]):$_
""); @
lash es
ps lashes
stri pslashes
)]) ;&
to string
ut ton
0 4
5 5
vi te
de scri
) ?
i ne
q h
ge ta
( \
) ",
r s
sbd h
cl sbdh
dex ec
dac cess
de ny
d u
metho dexec
metho daccess
deny methodexec
methodaccess or
denymethodexec ution
8 8
me h
pro per
j q
Ġ r
Ġ g
9 0
d r
4 9
g ang
redire c
Ġ o
fo re
descri ption
4 5
z c
h g
b utton
cl u
n k
lo w
kb ox
chec kbox
bu ste
save gang
dbe fore
buste dbefore
savegang ster
x y
3 7
er e
z u
"":"" }[
ke ditor
geta ll
pa rm
0 3
ge top
er ation
getop eration
getoperation parm
2 4
co mp
open id
clu de
a g
$ [
n g
in s
te mp
): (
pass wd
eg ration
a li
s g
fc keditor
g ory
{ \""
cate gory
"":"" {\""
} """,""
ec t
z d
r in
6 0
getuser sign
aa va
]= =&__
ine r
conta iner
q com
ho no
ti ps
Ġwh ere
}) ).
' })).
[] {'
c fb
ki rin
q g
getall tips
y r
4 2
Ġ #
checkcode current
z w
h n
9 8
t l
if u
t ri
mo ve
5 7
])); &
6 5
fo o
6 1
3 6
v h
zz er
ba sh
fu zz
ifu zzer
z f
l y
Ġ u
7 6
getre cent
getrecent data
x k
a s
q i
d g
. ""
] =&
Ġ be
( \[
Ġ /[
() ",\
]) ",\
= \[
8 1
Ġ /
q o
9 1
w l
cle ar
hono r
s m
Ġ al
7 0
j o
le an
boo lean
p r
", {""
q c
ca t
9 7
\ """,""
f s
(' [
Ġ v
b x
z t
p i
) ||
q a
loa der
class loader
f ed
ffff ef
)) &(
Ġ k
)( ('\
} ",{""
6 2
ta r
j ar
Ġ l
r g
x u
Ġ eval
Ġ 7
z s
z k
8 4
ad d
z l
co d
1 7
>< /
d k
z a
ti t
da a
n c
ex e
jar path
t we
5 4
z i
proper ty
q k
y w
? __
Ġ ([
r u
5 1
or t
b le
detail s
5 0
e mail
tit le
Ġbe twe
Ġbetwe en
co py
comp ress
cod ing
) &
7 9
8 0
pa dd
z b
ffff e
6 9
g x
s f
ht m
()) }&
get property
low er
to lower
).(# _
conta ins
tolower case
? {'
s j
')) ).(#
ror stream
ter rorstream
redirec terrorstream
} )).(#
}: {'
int egration
to ut
'",' /
}:{' /
ge tout
getout putstream
())). (@
0 9
vite code
\.\.\.\.\.\.\.\.\.\.\.\.\.\.\.\. \.\.\.\.\.\.\.\.\.\.\.\.\.\.\.\.
n x
m h
m j
m t
st s
w r
5 3
Ġ j
e tc
d t
p x
Ġ q
o g
Ġ end
y un
j pg
me m
Ġ else
Ġwh en
7 7
an ge
bin de
o k
]) &""
wd mc
Ġ f
con su
di stri
distri ct
h h
re e
0 5
consu lt
consult details
Ġ ssid
"":"" \[
7 8
y q
l p
="" /
y d
? @
w b
7 2
Ġ err
cmd cmd
Ġp cmdcmd
s d
"": -
6 8
p f
z o
z j
rea ch
fo reach
Ġ n
x e
ali yun
p v
8 9
\"" ",
: #
5 9
s b
pa y
Ġs leep
]= =&
9 6
yz code
= =&__
veh binde
sub str
in c
padd ress
g id
x in
y g
tri m
btn sub
Ġ t
h e
= -[
0 7
ex i
7 1
; ;
() ):
we daa
time out
script timeout
] $[
z x
("" ->|
("" |<-
(""->| "");
(""|<- "");
ec aa
0 8
5 8
9 2
""; }
("" /
' '
. =
) !
) ",""
s r
exi sts
. $
r ange
""]) ;
u name
z v
=' [
)","" ",
' ]",""
( {$
| "";
} |""
"" ]):
""","" \""",
get pw
"") $
"") {
\"" ):(
("" {$
)) ;$
($_ ['
""]) ;$
""]) )",""",
""]) ));$
="" {$
=( $
gete uid
gete gid
}: ""))
}: "";}
']) ?$_
.="" {$
.="" |""
.="" ({$
""]: (
')) ?@
== "")$
}) "";
']: (
']: @
)? $
."" |"";
=""/ ""){
()): ''
(""->|""); ;$
(""/ """,""\""",
)! =""/""){
']","" \""):(
}|"" .$
getpw uid
}:"")) $
}:"";} $
.=""|"" ;$
()):'' ;$
Ġ b
k p
6 3
=${ [
j v
w o
q r
= =&
w y
6 6
q v
[ ]=
u g
Ġ 8
ac a
m g
q e
Ġ 4
wf xw
s x
Ġ 3
={ {
f p
"" ).
user id
< /
w v
f g
7 3
=${ (#
j k
8 7
< ?
key board
cc c
cmd s
y o
w ap
c g
/. /
sho w
)) --
q x
f t
w w
y i
] """")
p k
"") "")
]"""") ):
0 6
m n
r h
Ġ }
f y
k z
a i
m ar
bb b
"" ",
] =&__
n j
keyword s
b q
Ġ id
get search
getsearch keywords
("" [
u u
c s
? >
s leep
w p
../../../../ ../../../../
vitecode info
a t
? -
f v
w ei
x ml
u i
exec ution
x g
d s
x c
p b
w g
c ce
l r
l u
x o
sh e
image s
e ditor
li nk
y t
d ff
Ġ by
last ic
Ġe lastic
Ġelastic search
l s
/./././././././././././././././././././././././././././././././. /./././././././././././././././././././././././././././././././.
", [
ta l
get class
Ġ xm
id s
d q
o e
para ms
io d
pa ram
b k
t s
se ta
page r
b v
i phone
per iod
ln s
]) --
.. /./
g g
m k
re g
q z
w ind
' ]
Ġxm lns
"":[ {""
]. &
tr ack
o c
wind ow
w k
y c
n d
y a
p or
b p
fo nt
n q
n s
comm ent
", @
() ')(
in clude
w c
y p
r v
get request
""); }
ac t
add ress
id th
n hg
con cat
y f
q p
Ġ \
btn search
f gnl
h r
=@ \
=(@ \
={{ [
x ty
user debug
t v
ro ck
ch ip
() &
................................................................................................................................................................................................................................................................ ................................................................................................................................................................................................................................................................
window s
ar t
rock chip
c ra
w bt
a aca
se ssion
] ([
s si
ap i
} ]}&
obj ect
i v
por tal
g ht
f r
) =
' /
z hi
f x
u al
c x
k o
("" *@
("" @*
*@ "");
@* "");
' [
temp id
w h
tb name
pa rt
g v
j ect
ut f
cb xty
y b
get take
gettake data
Ġ pg
dd dk
a ut
r x
txt name
g t
g c
j h
con vert
= *
mp ort
wbt ree
f h
w q
Ġ 5
/ _
a q
sm all
va r
int ext
en coding
t z
de c
dd l
() ))
? #
Ġx ml
ab out
w u
a rea
a x
/ ?
", <
j x
comment type
g q
w t
ex ce
Ġ 6
qy i
m v
] ')",#
("""" *@
@* """"):
tar get
Ġ {
she ll
r and
m q
o eg
Ġ dddk
channel by
get channelby
getchannelby position
wa qd
c ms
exce ption
c q
]) ",
Ġ @
j cn
m x
wl er
le t
cra wler
crawler go
d v
Ġ z
ve a
aut h
si s
rb qy
] #
c dd
"" ]=
) ('
[ (
f rt
o o
Ġ# _
yw bh
f z
()) (
h v
tr pwd
tx trpwd
e t
q b
ex w
small text
bl r
e hy
c z
] +
b ack
=' #
sz compress
sz param
sis compress
szcompress params
szparam siscompress
] ')
*@""); ;
Ġ %
de cla
sa fe
get decla
getdecla red
l g
cce ssi
"":[ ]}&
lse x
get new
task s
seta ccessi
getnew tasks
setaccessi ble
? _
c y
o y
work jj
dd lsex
txt workjj
a y
mp hone
jy jj
getdeclared field
txt jyjj
h for
lp fo
y waqd
te mail
gi oeg
txt mphone
tx temail
tl blr
kz exw
jcn frt
ehy tlblr
hfor jcnfrt
ywaqd qyi
r r
qf ct
v k
b row
ku qfct
') ]
wei xin
bg r
} }&
] ""))
h f
q s
h a
Ġ --
Ġ in
\.\.\.\.\.\.\.\.\.\.\.\.\.\.\.\.\.\.\.\.\.\.\.\.\.\.\.\.\.\.\.\. \.\.\.\.\.\.\.\.\.\.\.\.\.\.\.\.\.\.\.\.\.\.\.\.\.\.\.\.\.\.\.\.
r z
: \""
brow ser
se s
........ ....
................ ............
................................ ............................
................................................................................................................................ ............................................................
................................................................................................................................................................................................................................................................................................................................................................................................................................................................................................................................ ............................................................................................................................................................................................
Ġ rf
g z
yy rq
& [
asp cms
u a
char set
it for
is mj
Ġ< /
move upload
weixin moveupload
/ *
] )",#
l v
u ue
e le
t d
)? #
(' #
/ '[
Ġ null
]\ """,""
tr y
aa a
check yy
?_ =@
h m
y x
h s
ye ar
' ><
c r
=* &
r bgr
) {
b s
y v
fun c
let ter
]) )
ca tch
k go
li ke
boo t
); }
x man
? [
f k
Ġ 9
Ġy lpfo
] (""[
n coding
get string
un safe
gete ncoding
ic k
g r
e q
z p
m w
s dm
h c
ex p
le qu
ac r
no t
n i
x b
("""" [
.././ .././
val ue
cl lx
se a
:# _
("""""""" """"""""&
di a
wbtree id
mar k
g b
v u
Ġw idth
w j
Ġd ual
h q
Ġ fi
x z
n f
m mous
data base
Ġ% >
l ti
w fd
h d
e y
j t
re source
../../ ../
kgo acr
c w
u b
y an
x q
th is
pl us
li a
h b
en tar
gu ment
ev entar
event target
eventar gument
v la
d z
n p
: """"&
s ses
Ġ ew
ce i
j r
h k
cla sses
te d
f open
\ '
n l
ll m
mu lti
er t
u d
Ġfi ll
i mport
t g
", \""
de f
te l
j m
o a
os p
ph z
wfd z
d classes
clude dclasses
dd llm
btn query
\"" ;
] ().
] $
? (#_
x cludedclasses
gete xcludedclasses
h z
getin stance
action context
'] ).(#
a z
g in
):( (#
t q
set memberaccess
)) )).(#
upload type
wfxw zl
t k
video vla
base take
wf sj
upload basetake
auth or
videovla ue
a da
ma j
multi part
"" ]
Ġ (#_
j l
Ġ ",#
""] =#
ei ght
e fa
mu w
] ').(#
ta s
h ct
p ng
sz gx
n b
)) )
kp m
Ġ de
n z
j d
sub ject
a v
Ġ man
sy nc
x f
temp late
genera l
zw gk
) ='
s html
sk in
j e
= -
Ġm hh
y s
Ġew l
ca che
e ssage
("" |<
-- "");
-- >|
]"")) ",""
(""|< --"");
("" -->|
ln ry
yr ct
]= (
Ġw nj
(""-->| "");
rce k
rl maj
rlmaj ct
Ġa kgoacr
lk yrct
Ġid vea
lia muw
phz lnry
phzlnry kpm
' ='
y h
file s
n v
> &
db ms
getin vitecodeinfo
q l
o d
& _
o t
w z
w s
b anne
e z
c ar
j b
Ġ ex
j f
re cei
il l
d fa
Ġ ${
j c
x d
win nt
recei ve
Ġ like
banne rs
f write
t f
op r
a osp
se tin
in vite
setin vitecodeinfo
o f
i a
u k
get home
gethome banners
v x
m f
ab c
search type
Ġ all
bx ss
$ $
f ind
ac n
]", (
p p
ch n
'/ ></
i ty
d fe
Ġ not
ti cle
]+ [
g f
x eb
g y
) --
a m
c ut
Ġ response
c if
x r
y zm
o b
er ce
pl ug
comm erce
gete commerce
getecommerce data
xu zhi
b fa
k k
ms m
( (
Ġ ef
pi pe
/./././././././././././././././././././././././././././././././././././././././././././././././././././././././././././././././. /./././././././././././././././././././././././././././././././././././././././././././././././././././././././././././././././.
u v
ff e
str gk
xuzhi type
xi se
fi l
s n
x v
qu ick
cif ill
Ġ cl
] _[
boo k
sq l
cont ro
cd db
go og
m m
Ġ system
_ *
goog le
../../ /
ad de
tel phone
k v
col or
c ap
Ġh eight
da f
l b
n r
page context
("""""""" @*
') (#
*@ """"""""):
)( ('#
ta ble
j z
ju mp
to id
\ ?
getuser info
: \
de e
ht passwd
jump url
Ġde lay
on g
or der
j p
x s
resu lt
u q
ti c
l q
/ ><
f vh
y k
y ow
v t
x p
ea der
ffffe fa
d fb
cl zr
rc bj
b ce
ser vice
vo g
se cu
ec a
dr w
dia log
Ġef se
d bd
n h
a k
dx qq
col le
d pa
o q
e lt
ao qt
ffffef c
a ce
ri ty
ho v
= <?
'",' [
ser t
ad dh
o z
=/ ../../../../
c ac
vi si
in sert
ke wv
sa v
wa itfor
de b
ffffe ff
m r
)) )",
es kewv
xeb gd
Ġcl drw
yow r
eskewv fvh
' ].
ac uu
addh eader
= ${#
ll er
insert msg
)))", [
] '",'[
]') }&
b ff
"" .""
rce v
p ic
Ġ< %
oc acn
e u
clzr xk
)) >
qk q
] '))
Ġ =
ti es
re f
con di
sta tic
fd f
ent ry
de d
secu rity
d w
du ct
f n
condi tion
/* _*
ocacn fa
entry mode
pro duct
an a
g hov
t t
ar ticle
cf e
fe e
Ġ *
jn jv
ghov jnjv
a h
l c
no ne
proper ties
l w
= %
Ġ test
Ġ file
ba k
an da
ri es
] ')(
Ġc rea
n w
in vitecode
contro ller
db f
. &
get subject
hw h
("" ([
Ġcrea ted
l h
search list
b m
ec b
go o
Ġ concat
hw e
=/ ../../../../../../../../
fil ter
in put
ed f
a tu
' );
b mo
u z
k g
li o
u h
get mobile
b ind
bd c
q w
ent ries
rce i
ac b
:/ ../../../../
jo in
redirec taction
u ct
w zg
d p
/ /
goo ds
st ory
bd b
v w
", '
session key
m z
hi story
t cl
c p
me i
cd f
pla t
e fb
a ff
Ġ2 4
cn xm
plat form
e da
w ard
l j
li ty
res id
e ce
uti lity
fa ke
rp c
as df
v g
ec f
u m
Ġ2 2
form ation
ho st
Ġ st
............................................................................................................................................................................................................................................................................................................................................................................................................................................................................................................................................................................................................................................................................................................................ [
m vc
k h
php info
do wn
' :
k a
colle ction
] (
for ward
="" [
e ff
o eb
x h
ro ke
bp bz
=% {
c m
d wr
k q
de a
o u
Ġ re
\.\.\.\.\.\.\.\.\.\.\.\.\.\.\.\.\.\.\.\.\.\.\.\.\.\.\.\.\.\.\.\.\.\.\.\.\.\.\.\.\.\.\.\.\.\.\.\.\.\.\.\.\.\.\.\.\.\.\.\.\.\.\.\. \.\.\.\.\.\.\.\.\.\.\.\.\.\.\.\.\.\.\.\.\.\.\.\.\.\.\.\.\.\.\.\.\.\.\.\.\.\.\.\.\.\.\.\.\.\.\.\.\.\.\.\.\.\.\.\.\.\.\.\.\.\.\.\.
en g
]) )&
sy s
huaw e
ffffe fb
in f
bg v
v n
sta tion
c all
v q
search word
gk zk
nt egration
') ",'
y m
]/ /[
ra i
js n
o m
lo cal
my s
new config
s che
Ġ pre
sche ma
= :
b fb
g m
g w
ro up
= ($_
yu yan
li t
]) ?>
d da
"":""\"" [
f eb
un g
to o
')",' <?
] "")
vo w
e h
k m
ef da
c da
g l
[' [
p n
rce u
)) &
bo ts
c dy
i b
i ag
wf s
mark up
=' .
])|| (
rce q
Ġw ui
' --
ce b
("""" @*
cd c
*@ """"):
pk q
c fa
g book
d j
Ġ ma
p ack
Ġin formation
o ld
fe a
ed o
o i
wzg g
) #
mh j
../..// ../..//
f dd
zb v
cc de
no mys
ec ms
mo du
ro bots
lo ok
............................................................................................................................................................................................................................................................................................................................................................................................................................................................................................................................................................................................................................................................................................................................ &
modu le
/ &
ad dd
a re
l m
x n
bd f
: {
a fa
rce h
Ġi ag
lxdh back
look up
lxdhback invoke
Ġi bmo
w get
Ġw fs
ns lookup
e mp
r on
s w
y al
ce f
th e
fc b
f ac
r w
)) ;
ew fq
jg oe
ju wf
u y
gu acuu
]/ /
ke edo
|| (
Ġa jgoe
qo mhj
oeb keedo
vow ev
Ġwui ewfq
Ġibmo iag
juwf row
guacuu wfs
Ġwuiewfq oebkeedo
e k
con f
d n
l z
ffffff f
plug ins
collection s
\ "":[
ff dg
Ġ2 3
fake path
b w
../ ..
int er
= <
c ff
u mn
mi ao
no nce
tur n
visi t
> [
k f
y j
b ac
v v
Ġ >
rce o
Ġw a
. /
` &
Ġ view
Ġ dbms
tz xx
Ġview box
yi miao
ele ment
p anda
))> '
sign atu
ri gin
signatu re
a fb
h x
w ne
sa ms
f cf
rce x
bb s
do action
col umn
emp ty
sams ung
k x
upload s
ex clude
Ġ( (
')( ('\
\' ]\
))& ('\
exclude properties
c ab
s l
ef d
n m
to bind
ddl hy
f lo
Ġ count
=%{ (#
ecms from
e ad
.././.././ .././.././
e db
s id
cat id
q m
"" =""
op m
mark er
Ġst roke
my admin
query veh
addd s
bd d
php myadmin
f close
y id
h and
i k
q j
Ġ aw
ef ec
= \""
v j
ji u
zd ly
rai se
' ?
w m
ee e
% =
; .
ffff efe
ali pay
? ('\
c tr
e eb
k n
q n
"" ?
ce a
un it
cb z
zdly gk
Ġ op
rce g
b eb
k t
o ne
Ġ 46
pro ject
Ġg roup
/*_* /
pro c
ao si
i i
.. \
di aosi
rce y
sta ck
flo or
fa ce
a ss
b n
ed c
i te
ce d
ms zbv
wne mszbv
wnemszbv vh
) *
f gd
k y
cc b
k w
if s
so lr
jg da
Ġwa itfor
( *
f ree
ta g
tu s
cw jgda
(* )",
' ;
uc ap
$ (
Ġ os
' &
g p
); ?>
dff c
a ad
a sync
d db
data config
ww w
a eb
ff b
. <
= ../../../../../../../../
x j
ef c
as sign
t n
r n
t w
u w
v l
v z
mh a
sh i
al p
no ny
Ġ sc
). "")
user files
nony mmous
k j
x l
Ġid w
v f
' ?{""@
g j
k l
p m
Ġ |
Ġ mb
]) </
too ls
] %
dynamic detail
o rigin
c yy
h l
v m
r j
pa r
c url
b la
ent ity
wei ght
__ [
i al
en vi
get method
rce n
cs rf
Ġ md
envi ron
b cb
c bb
ra y
b da
rce w
ic le
i q
ac ce
un link
search code
dd f
wb searchcode
h j
Ġa iv
include s
down load
k r
rf ce
v d
v s
])&"" (""
p j
c db
d ca
rce j
Ġma ke
d ri
fd c
ce e
/ /[
r cbz
u o
en der
or s
rce e
queryveh icle
- >
b ca
=/../../../../../../../../ ../
== }}
..\ ..\
c ru
csrf token
t j
ec c
Ġi mport
f j
ser ial
wb serial
cache s
wbserial num
o st
v b
dd d
k c
k d
cla im
quick login
p raise
w idth
y pe
p ct
get session
sub sid
v r
rce l
a ac
h ma
y n
lea der
)= ""&
b ad
tri b
]) ;
Ġi yo
Ġ@ $
t trib
al ert
mei zu
ttrib ute
si lu
sg bh
seta ttribute
Ġiyo if
p open
"") ))&(
"") ')(#
]' ]')(
'] =#
())) =
('# _
j ef
() >
free marker
\ ')
h p
Ġw eb
(\ '
leader mail
\') ')(
ch ajax
ex cyy
exp ort
sea chajax
sav excyy
in spe
inspe ct
y list
subsid ylist
i e
../.. ./
column id
../.../ .././
d l
e ac
sub mit
web id
b de
]& [
rce r
tch a
rp ph
qt f
[ \'
c j
d de
f ca
de n
/./././././././././././././././././././././././././././././././././././././././././././././././././././././././././././././././././././././././././././././././././././././././././././././././././././././././././././././././././././././././././././././././. /./././././././././././././././././././././././././././././././././././././././././././././././././././././././././././././././././././././././././././././././././././././././././././././././././././././././././././././././././././././././././././././././.
u x
z te
cap tcha
f ef
u l
y l
rce t
k s
ff a
de sign
g ar
j zg
p be
Ġ tr
- .
ac ity
so ap
hi er
Ġop acity
a ti
c id
d fd
fa mi
a ab
v p
si te
i x
st k
tu res
fc k
rc rc
ly a
ddl gs
fami ly
ec d
str z
]= @
])&"" (""""
mg r
= __
/. \.
rce d
s pa
qi an
i h
zj dt
e l
i g
y il
no rm
be a
Ġth e
Ġ- &
norm al
f da
n n
hier arch
& &
a bd
m ue
e m
install er
= }}
h ao
yan jiu
]"" ",
h ai
dd gg
hu a
r ender
; }
e ab
s on
Ġ .
constr uct
c de
rce z
ma t
acce pt
i con
in ve
ed d
cf d
inve st
b id
c gi
Ġ ;
ge n
ee a
ta i
Ġre turn
l dd
Ġ name
Ġ ('
hw tas
u pa
rce c
sd q
nt ype
]? [
o v
]) ))
ref er
o l
! [
c data
l er
ai yil
u j
b ef
count er
c ad
c cd
t m
bo dy
invoke accept
part car
pack car
( __
j in
fb b
man ual
pr st
me s
vle s
gar den
mue un
ga i
en ce
data import
c lt
fb e
db a
rce s
.< >
p ort
rce a
ffffef efec
sync result
pic tures
d ce
m er
"" --
ser vea
spe ctr
Ġpre servea
ati o
spectr atio
Ġpreservea spectratio
c ba
ci rc
e ec
i ss
gu w
fb a
rc g
wl z
)=' &
Ġ ?>
:/ ../../../../../../../../
circ le
n qtf
w yu
Ġ type
"") ')(
ee ad
project s
c ca
i z
Ġ 48
re search
lo gs
for mat
../.../.././ ../.../.././
wb date
pay text
s rc
Ġ 49
][ ]=
rce m
ca st
)# &
f cd
wbtree ids
yid aiyil
research value
f de
g lk
o h
co re
li b
${ @
ct x
uc cess
bk l
iss uccess
] >
e de
i w
n de
refer ence
a ef
an yanjiu
db b
rce b
rce f
php unit
Ġ& &
ji an
hand ler
ef de
ji ance
qian xin
Ġ ad
tu i
di m
rce p
xin anyanjiu
xc yy
ff c
inter face
> ?
ac c
}& &
') ",@
g lo
a ea
n sdq
ver d
]. <
url type
sf zm
ite m
ffffefefec fe
h lk
u se
v ce
Ġ 10
anne r
jk m
i u
cf db
verd ana
ff d
method name
i y
p pr
Ġ runtime
co rd
ch in
li ang
sta tus
process or
ee fa
Ġ"" <
w ech
sp n
/.\. /.\.
e ls
di t
]= ==}}
so me
invest ors
= }}&
ddl rq
bl ack
? &
a j
", $
re cord
v sb
pbe m
b fe
fa f
fo l
for ms
ab le
])?> ');
d sz
bb f
Ġa vles
a fd
","" [
ce c
cb c
"")) {$
dr upa
comp are
Ġ""< "")){$
drupa l
d cd
__ );?>
Ġe un
e j
s ort
ar ray
aa f
bl w
he lp
b fd
v ti
c be
q bj
bb c
app lic
ss p
fa d
th u
'/ ><
wech at
applic ation
Ġ row
da e
ac f
class id
pay id
:\"" \[
handler stack
acti ve
') &
j er
ff set
=/ ../../../
] }""",""
q by
xb shell
a de
e ed
y sh
st om
un do
cf c
')) ;
c bd
fu i
b ed
Ġ "");}
page size
str uct
do c
== "");}
zg a
\.\.\.\.\.\.\.\.\.\.\.\.\.\.\.\.\.\.\.\.\.\.\.\.\.\.\.\.\.\.\.\.\.\.\.\.\.\.\.\.\.\.\.\.\.\.\.\.\.\.\.\.\.\.\.\.\.\.\.\.\.\.\.\.\.\.\.\.\.\.\.\.\.\.\.\.\.\.\.\.\.\.\.\.\.\.\.\.\.\.\.\.\.\.\.\.\.\.\.\.\.\.\.\.\.\.\.\.\.\.\.\.\.\.\.\.\.\.\.\.\.\.\.\.\.\.\.\. \.\.\.\.\.\.\.\.\.\.\.\.\.\.\.\.\.\.\.\.\.\.\.\.\.\.\.\.\.\.\.\.\.\.\.\.\.\.\.\.\.\.\.\.\.\.\.\.\.\.\.\.\.\.\.\.\.\.\.\.\.\.\.\.\.\.\.\.\.\.\.\.\.\.\.\.\.\.\.\.\.\.\.\.\.\.\.\.\.\.\.\.\.\.\.\.\.\.\.\.\.\.\.\.\.\.\.\.\.\.\.\.\.\.\.\.\.\.\.\.\.\.\.\.\.\.\.\.
a fe
k nx
y rt
Ġ bg
si ntegration
guw kp
wyu d
r ver
ac x
so ut
hw vog
])); /*
one plus
t mp
Ġ echo
ab b
])?> ')&
i j
c ry
d cc
l my
cu stom
]== }}
b cd
o j
cal c
/ --
Ġ ed
send checkcode
ev r
a id
f ec
g ra
jzg r
a ee
ba f
oo zq
e st
Ġ( ('
fu ll
?# =
a su
save log
qu s
padd ing
yu an
Ġo age
)); ?>
? <?
"" ><
"" ()&
ad c
ab f
ox f
% <
h wi
s df
ba tch
Ġm fq
""()& %<
d cb
Ġ numeric
xiao liang
cap tion
table s
Ġiyoif blw
qbj y
Ġiyoifblw rcg
w id
x un
an k
b ec
cli ck
ap h
pa rent
so l
cf cb
d ra
y qh
by name
rg r
cwjgda jg
< #
b or
ex it
ze ud
ad f
eb e
hu w
< %
Ġ 44
an y
si n
f os
ca e
the mes
fa e
per l
Ġa z
b sp
q sa
"") &
d cf
f db
ta b
on gx
print f
= ../../../../
c cf
Ġ 15
"" /
on server
re port
get host
con ne
resource servlet
gethost byname
e ml
an on
ac d
eb b
Ġw v
hw ele
Ġc y
hwh ma
mar gin
cru i
() ",
Ġr like
dm cc
Ġc x
a ed
w en
\"" >
be e
hw lio
tl dmcc
controller context
knx l
tldmcc knxl
gu v
bl zs
\ /
i r
bd ff
pg c
* [
a ec
ef acb
man age
m mb
| &
={ ${
db ec
cf g
=/../../../../ ../../../
ho sts
ar y
ke fu
/./. /
bb e
Ġm hu
Ġl h
.. /././
]= }}
yrt d
n ick
Ġ up
Ġ "")
ongx in
d fc
m en
page counter
th sx
hw cdy
session id
cac c
prst result
blzs xk
pagecounter dwr
e ef
"" \
get visit
so m
zh ongxin
Ġsc anner
getvisit time
= `
me dia
ca a
bb de
ba a
]", \""
ga z
article id
hwe st
dri thsx
ctx sys
sout hwest
kefu zhongxin
h os
le w
task id
Ġby te
\ ../
b bd
c aca
Ġ anonymous
si ng
vo te
Ġi q
ee db
m db
]& &
to m
aw e
ca i
ll d
hw b
Ġ' &
sav ec
a sc
f bd
r gs
in it
dd c
wx n
fe ed
trans form
b cf
da b
eb a
bb a
za ch
forms resource
% %
Ġ class
te n
lo ck
fa a
xt c
Ġ2 7
Ġ(( ('
] `
h ke
q fc
ffff fb
st f
fb c
cs sintegration
k ro
x ps
da d
ab a
ma x
e aa
f low
') --
lk v
fol low
Ġ 11
Ġ 50
ad v
ve l
Ġor der
/*_* /[
f ce
te x
in k
un d
lx r
hw jsn
zd t
Ġ# &
b fc
q zga
li n
tu hao
ad b
su c
ed ff
ca f
/ ${@
g rgr
eb f
Ġ0 4
Ġ/ >
zl j
hai er
[ \
Ġ 14
Ġ 19
]\ ']
ab e
)) =
ae ec
xw fb
[\ '[
]\'] ')(
e dit
j ing
o tui
se tu
ri j
user info
ba e
qk n
wk m
' ?{""
m rb
co e
en v
Ġ' [
\""; }}
wid get
../././ ../././
a fc
w dy
Ġ version
an et
ce r
re sol
fo c
ra me
hu an
[]= -
awe some
] }}
gu o
wa y
cb f
ea e
ucap formsresource
h wd
x ec
Ġ 02
data mgr
na z
fa b
dd u
content s
visi ble
../..//../..// ../..//../..//
re calc
pq o
huawe ic
l ue
w li
if rame
red mi
bl ank
]' /><
asu s
b to
b cc
s by
t bo
ch ange
bb h
Ġi nt
Ġ0 7
ko i
c nt
f cc
Ġ limit
() {
ph a
hw sea
tri g
conne ct
t zk
ho u
tr t
../ /
Ġ0 5
"")) ",""
jr ct
trig ger
i es
Ġ 55
st d
() ",[
execute service
pack age
e bd
e us
fo tk
su g
=/ &
Ġ0 1
Ġ0 6
Ġ __
Ġ ""&
vi o
Ġ0 3
Ġ0 9
zg h
ji ao
task info
ble m
nick name
pro blem
Ġ( (""
ea f
ffffff e
spa ce
^ ""\
v end
de struct
ch t
con so
("" $
Ġ2 0
Ġi wr
ps r
Ġaz lew
lkv jrct
trigger ing
fotk lkvjrct
Ġiwr fotklkvjrct
log index
dis able
=${ \
query log
query taskinfo
upload files
zo ne
yidaiyil u
sh u
ef bd
fe ff
sfzm hm
gra in
\../ \../
n rd
r ss
y mmous
th ink
ma in
xx b
dq j
cm cc
bor n
b gs
f gai
Ġ 13
re set
ba lo
hwe ls
n dis
vi n
fa dd
ln ld
Ġw hu
dr v
=../../../../../../../../ ../../
foc us
t ree
ta dd
de sc
data period
su m
mo d
qu i
); &
Ġ0 8
glo balo
Ġiq ps
ndis k
globalo ffset
c mt
n ct
y qt
Ġ 12
ch i
le d
gu i
]/ ?
ue ji
al y
zf xx
hua gh
Ġwv huagh
lnld kuqfct
> '
g if
o ff
y ef
Ġ color
Ġ acuu
li pv
er d
op tion
tu wu
di p
]) )||
Ġs gy
hw yal
Ġc gi
lr ct
hwh lk
hierarch y
q pq
Ġ 16
Ġ transform
data package
lo c
dx yzm
ll yb
bo ld
ef ee
Ġw on
rm nk
vc pw
zc wj
hn mq
='# [
nl lx
ib rmnk
ue fv
ln lrct
bo ua
be ll
Ġa ob
Ġ"" @
>< ![
load datapackage
Ġx yu
ji yc
jq lg
Ġr us
zj lb
ko aw
Ġaw h
Ġmb tuwu
].< [
Ġed n
rij llyb
Ġmbtuwu rijllyb
Ġmbtuwurijllyb lnlrct
. '
b al
j query
os lr
op naz
xt dsz
tp pe
num hke
Ġw nq
ae hos
we daf
Ġ1 7
zq z
Ġj fui
ui qfc
cx jqlg
jf jiyc
.././.././.././.././ .././.././.././.././
Ġaw som
Ġmb huw
Ġmd numhke
Ġad koaw
Ġoage a
sdf tzk
rgs uiqfc
wxn uefv
kro xps
mrb nllx
wli jw
bto ibrmnk
tbo xtdsz
Ġwhu ueji
Ġacuu aehos
lipv ct
Ġsgy opnaz
hnmq mt
boua op
oslr ms
wedaf oslrms
Ġawsom xu
Ġmbhuw bouaop
Ġmdnumhke wxnuefv
Ġadkoaw mrbnllx
sdftzk cxjqlg
rgsuiqfc bi
kroxps jfjiyc
tboxtdsz rgsuiqfcbi
Ġwhuueji btoibrmnk
Ġadkoawmrbnllx lipvct
n qkn
o ntype
Ġ su
Ġ try
re pwd
pe yq
po t
db z
Ġi coe
hu i
txt lxdh
txt sj
txt zj
txt lxr
txt repwd
cc ccc
tx tadd
content url
ddl zjlb
Ġtr tppe
ddlgs xz
ddlgs gm
doc type
Ġlh dqj
pqo zlj
Ġaob vcpw
txtsj hm
txtzj bm
% '
Ġ font
]/ &__
]= ""))",""
zi xun
rcrc rc
vend or
ccccc rcrcrc
r mb
os u
)): :
]] ></
Ġbg color
h ry
p ac
Ġ base
Ġ exception
pa g
leadermail contenturl
c zu
Ġ can
sp v
=& [
he ad
chin anet
]))|| (
* /--
d ss
s or
Ġ te
Ġ 18
Ġ 32
pa dm
bu e
Ġ2 1
mo v
qy f
fffffff de
yqh q
c ve
h eight
p rs
Ġ xx
te u
mi ntegration
ut l
tr h
== =}}
Ġal m
te t
xajg c
bz xajgc
Ġ(( (""
born date
g re
h wa
r aph
fa ef
update userinfo
"") --
aa e
xi an
ffffff cf
font s
men u
grain state
dh u
huawei tas
d cdc
n sc
p in
no ti
account list
lo gic
th i
wr app
pgc kind
g zdt
m tc
p ddu
ffffff dfa
mar y
efa e
..\..\ ..\..\
ro ad
ht mintegration
fo bb
last focus
Ġs rc
hu o
! --
/ #
] </
h ref
z tr
Ġ var
le vel
bb cf
ae l
sq zr
ia syncresult
hierarch ies
o de
p ba
r bt
Ġ la
my tag
web logic
hw alp
xml type
Ġup per
suc cess
c cfe
r ty
Ġ auto
an aly
rd s
dip per
p te
r sz
ffff eb
da du
so st
hw mha
hw lya
pz s
fos v
yqt j
a sh
Ġ le
Ġ sy
"" ></
ex te
va rs
th v
=${ @
')) --
Ġe lt
yg di
sum mary
re turn
upload file
zy bb
/./././././././././././././././././././././././././././././././././././././././././././././././././././././././././././././././././././././././././././././././././././././././././././././././././././././././././././././././././././././././././././././././././././././././././././././././././././././././././././././././././././././././././././././././././././././././././././././././././././././././././././././././././././././././././././././././././././././././././././././././././././././././././././././././. /./././././././././././././././././././././././././././././././././././././././././././././././././././././././././././././././././././././././././././././././././././././././././././././././././././././././././././././././././././././././././././././././././././././././././././././././././././././././././././././././././././././././././././././././././././././././././././././././././././././././././././././././././././././././././././././././././././././././././././././././././././././././././././././././.
""/ >
. \
s an
x zz
Ġ ?
Ġ content
ffff fd
si l
bu f
sg t
nx jzgr
dv bbs
= $
p os
x bd
{ [
:/ ../../../
post info
Ġ"" [
:/../../../../ ../../../
a va
f ar
l an
p bb
x th
Ġ un
opera tor
[]= <?
loc ation
= ='
g yt
Ġ php
li ce
re late
page s
gs z
zh eng
form set
ass ert
ten da
l vy
q su
Ġ print
>< ?
=/ ../../
wf zz
ffffff d
ffffff cd
"")) --
zt f
qa z
zhi ku
zfxx gk
' `
Ġ url
no de
lo gi
ad bf
hw clt
pc ri
]' ]=
yw s
gen der
ava tar
r ong
ch u
to u
sh are
pla inc
jn y
zy d
gt m
std in
plainc all
p ho
y er
pro xy
per page
Ġu sing
hwe ml
parent s
' ];
_ ')",@
p dac
an e
data hierarchies
ke t
ffffff af
ga s
a tc
w hy
} ?
Ġ poc
mp le
put s
bo se
metho dc
ju st
web name
file item
cle an
[] {[
Ġo f
raph ael
Ġ? ><?
==' ));
methodc all
f rd
r ticle
z xy
} ))
Ġ ]]
ta rea
ge st
ad dr
]) ))--
for test
eb c
Ġ< ![
geta rticle
zo se
jin rong
just fortest
})) /
Ġ]] >
: ""
s fb
x path
| /
Ġ foreach
Ġ solr
Ġ processor
ver bose
sc an
bb he
url datasource
entity processor
Ġtransform er
xpath entityprocessor
* =
- *
= ../
c ted
f la
j page
", /
data proxy
db utton
fin dbutton
appl y
cra zy
Ġ-- &
unit id
d sd
j ex
w sq
get sug
mo u
out str
permi ssi
ga h
mu a
tex tarea
pac m
logi ntype
gest channels
getsug gestchannels
permissi ontype
f time
f longitude
f latitude
f mobile
f openid
f district
f problem
s os
z qu
Ġ ci
ch ang
ac i
pa zq
ca m
fe z
content type
Ġ< !
fadd ress
w bf
y ra
Ġ parameters
end record
di sc
sele cted
start record
we ze
< !
ffff ce
ch eng
in addr
ve lo
]? _
source contenttype
file obj
form setu
exp params
import details
cry p
batch importdetails
formsetu uid
% (
a ta
i id
"" @
ro und
se qg
gu zz
("" @
nu mber
-- &
ing mobile
be g
fc r
hw jef
bind ingmobile
adv js
Ġcan not
' ^""\
] ..
o ug
q zq
z cfg
ffff f
st h
]\ "";
la r
]/ *
]= '));
do cv
== =}}&
colle ct
xcyy mtc
u mi
y edc
id e
si mg
en velo
le http
ze v
ad fe
fb i
:/ ../../
Ġd ns
fq dg
fn stream
dri ver
resol ve
guzz lehttp
envelo pe
) (#
a efe
l yz
o qh
r sy
z th
Ġ fu
ap b
fc de
ffffff efb
cur y
]=& [
call count
. \[
a sk
st u
ch il
pa d
sp an
("""" ->|
("""" |<-
mode l
zw fw
zf g
dj xk
]% '
mer cury
(""""->| """"):
(""""|<- """"):
/ =
Ġw un
yef z
w all
x ss
x dy
ffff cc
ge e
get data
cn fa
huawei vog
[] =&
jo e
xc sf
conso le
' ]=
po hs
bg djxk
bp fa
]')) )
edit pass
= ../..
] >[
a te
f tb
q sy
s co
ja q
gu est
ma ster
ef rd
cd zs
hw stk
fs ht
]# &
alipay api
savec lue
wrapp er
f pa
fb ff
"") );
ca de
view code
bz i
................................................................................................................................................................................................................................................................................................................................................................................................................................................................................................................................ ................................................................................................................................................................................................................................................................................................................................................................................................................................................................................................................................
reset message
>' ""></
! =
' ]):$_
k le
r dbz
"": {
ce ph
re pg
wor ld
Ġi v
fix ed
hw pct
Ġiyoif bpfa
i le
l and
o bz
p tor
q dy
ffff dff
ac u
eo av
og be
vk y
oz ag
qpq s
? $
a ch
o th
Ġ nt
Ġ sa
Ġ ctxsys
ta f
ar q
fw zs
by rq
') "")&
ffffe fbf
site id
thu mb
yuan qu
pha ros
ceph eus
> (
a qyf
x ef
and or
pa i
db zi
pt q
])) }&
'& $(
?& =
gyt dsd
gytdsd fwzs
+ [
? {
h en
m my
Ġ process
ne r
ffff fa
le s
ab gu
send code
()) ",
=' ""()&%<
descri ptor
../.../.././../.../.././ ../.../.././../.../.././
nde v
qui re
c sz
Ġ action
Ġ phpinfo
on ia
re l
op z
bu v
dbc de
Ġs db
by te
invoke action
go u
ffffff bd
ffffff ef
bg d
bg pq
Ġy un
template s
osu re
f on
j un
n sy
re en
re quire
tu u
mb list
save yq
zz q
hw par
hw bla
check valid
zq gu
fq ta
show mblist
ds ac
manage r
main module
? /=
b an
b sz
b cht
m la
z ty
} ]}[
Ġ ",
Ġ service
ta h
co r
fa v
so ft
jg cmt
Ġa k
bt f
eg qh
qf g
yr zm
ez bd
?$ =
% ')
? )=
d st
f yu
p bc
Ġ no
de co
au u
]) >(
:/ /[
huawei ele
huawei hma
=/ ../
ffffff b
(); &
bh g
qi ye
nc gv
?@ =
controller s
czu h
mua kgoacr
].. %
a sq
b fea
c fbf
s au
Ġ exp
ff fa
re st
be gin
nd sv
ha sh
])) --
ong tai
bgs f
? ^
? %=
? *=
? !=
b ar
i ction
p ty
r sp
x bbh
Ġ padding
Ġ controllercontext
ffff de
ce gi
da fff
user s
:/ ../
ba i
script s
bi m
huawei lio
Ġa syncresult
hw oxf
rd zt
wr ap
Ġid iction
ffffefa ff
=/../../../../ ../
:/../../../../ ../
ece a
yimiao controller
=\"" #
Ġsc reen
:/../../../../../../../../ ../
\.\.\.\.\.\.\.\.\.\.\.\.\.\.\.\.\.\.\.\.\.\.\.\.\.\.\.\.\.\.\.\.\.\.\.\.\.\.\.\.\.\.\.\.\.\.\.\.\.\.\.\.\.\.\.\.\.\.\.\.\.\.\.\.\.\.\.\.\.\.\.\.\.\.\.\.\.\.\.\.\.\.\.\.\.\.\.\.\.\.\.\.\.\.\.\.\.\.\.\.\.\.\.\.\.\.\.\.\.\.\.\.\.\.\.\.\.\.\.\.\.\.\.\.\.\.\.\.\.\.\.\.\.\.\.\.\.\.\.\.\.\.\.\.\.\.\.\.\.\.\.\.\.\.\.\.\.\.\.\.\.\.\.\.\.\.\.\.\.\.\.\.\.\.\.\.\.\.\.\.\.\.\.\.\.\.\.\.\.\.\.\.\.\.\.\.\.\.\.\.\.\.\.\.\.\.\.\.\.\.\.\.\.\.\.\.\.\.\.\.\.\.\.\.\.\.\.\.\.\.\.\.\.\.\.\.\.\.\.\.\.\.\.\.\.\.\.\.\.\.\.\.\.\.\.\. \.\.\.\.\.\.\.\.\.\.\.\.\.\.\.\.\.\.\.\.\.\.\.\.\.\.\.\.\.\.\.\.\.\.\.\.\.\.\.\.\.\.\.\.\.\.\.\.\.\.\.\.\.\.\.\.\.\.\.\.\.\.\.\.\.\.\.\.\.\.\.\.\.\.\.\.\.\.\.\.\.\.\.\.\.\.\.\.\.\.\.\.\.\.\.\.\.\.\.\.\.\.\.\.\.\.\.\.\.\.\.\.\.\.\.\.\.\.\.\.\.\.\.\.\.\.\.\.\.\.\.\.\.\.\.\.\.\.\.\.\.\.\.\.\.\.\.\.\.\.\.\.\.\.\.\.\.\.\.\.\.\.\.\.\.\.\.\.\.\.\.\.\.\.\.\.\.\.\.\.\.\.\.\.\.\.\.\.\.\.\.\.\.\.\.\.\.\.\.\.\.\.\.\.\.\.\.\.\.\.\.\.\.\.\.\.\.\.\.\.\.\.\.\.\.\.\.\.\.\.\.\.\.\.\.\.\.\.\.\.\.\.\.\.\.\.\.\.\.\.\.\.\.\.\.\.
rbt c
Ġaction descriptor
Ġyun qi
deco ration
?^ =
Ġidiction ary
( ~
? ==
j wd
j bl
r by
Ġ cast
an z
bd ca
wd uf
bi a
bi z
pz uf
ffffff cfa
rq dc
)( ('
ffffef d
ffffef ed
fffffff dbcde
(~ (
( =
* (
? (=
d false
h al
r un
v tr
w te
Ġ json
Ġ zq
Ġ utf
Ġ convert
][ \'
se q
ar yu
tb y
(\"" \
hw wlz
dfe ff
=/../../../../ ../../
:/../../../../ ../../
mer i
Ġ?> &
dra w
avatar url
)((' \[
& <?
\ "");
o ue
q os
z ffe
ge s
ro cr
.... //
re sh
le q
rea l
ca fv
rt v
by fc
') "")
pg ga
pc g
(\ $
zhi bo
\""; @
mm open
ffffefc ff
]=')); \"");
(\""\ $
]='));\""); ""));
b lock
f dhu
w thv
x er
z er
z fb
z dx
Ġ encoding
pa s
ec ce
net flow
cf u
Ġw k
uc k
hw ana
hw glk
hw bkl
bg f
lay out
tc p
uu wkm
wg qh
small classid
wdy c
huaweic dy
# &
p bd
x pe
x zq
x qh
Ġ an
Ġ mi
Ġ 45
ch a
me d
gu s
su d
ma gaz
send vcode
eo cv
Ġa e
qy q
ffffff efec
ox y
qi huo
contro l
ffffefc fa
huawe il
way ne
magaz ine
% '='
n ba
q ty
va simg
tr b
sa t
can vasimg
qu b
fe tch
bab a
pu a
yz ua
rb z
crawlergo crawlergo
oy ee
bs rt
vu scan
))) --
cid ata
why red
wbf r
cidata mgr
o yz
y sp
ff fd
si ri
ri ve
fa q
gs h
so br
by q
qy h
rf h
result s
chin a
fffffffde cdf
ffffeb ffffce
' _
b pe
n gh
o buf
x fdf
x bue
y apa
pa f
la o
or tc
ll id
live list
hw jkm
zg l
pq z
dg t
og zc
sb su
nde h
huan ti
% \
l per
n ze
n xy
q erd
w pzs
Ġ sh
Ġ tx
Ġ qq
de li
ce dd
po llid
bd fa
sy ste
js oa
md rive
username s
eo di
ffffff bff
jax results
userid s
spa jaxresults
siri us
syste mdrive
' }[
' ""()&%<
' .'
c py
f tp
n ztf
p ch
Ġ en
ch en
to gr
ze a
sy ze
${ '_
dy db
]* /[
hw vce
ffffff afa
ji a
zh ong
hwh wi
]( ${'_
g ll
w er
Ġ http
da p
en code
ap hy
op h
sh ortc
th a
ea i
rd g
zy fq
honor jsn
link s
local host
cru x
p end
w dd
x gh
Ġ page
ff fe
sp l
na l
rea son
ph i
sc pf
pre pend
aa aa
char t
eo th
')) )--
ffffff a
ffffff dd
ffffff fd
rs rf
nx ht
qe u
gc xk
tag lib
Ġtr ace
sfzm mc
cryp togr
beg onia
cryptogr aphy
b nd
q gh
s ch
w bu
x apa
y st
Ġ di
Ġ zz
ta ch
no s
ch trh
device type
]) }}&
ma ma
per son
pg ti
qy e
ffffff ed
rd ga
rth rt
rth rthrt
getall column
Ġal low
add click
sr cd
dec ca
cwjgda j
xcyy gcxk
chil d
shortc ut
chtrh rthrthrt
; ?
a guv
b roke
f zq
h ack
x dt
Ġ script
Ġ py
ffff cda
st ra
da z
to tal
]/ _
xt q
ct bv
ab cd
wd t
check login
rk jm
ffffef cd
fx dt
exp lo
service s
gui ge
ztr f
lvy ou
` --
b fcb
c sv
p by
x is
Ġ zk
nt qh
mp t
se d
ze c
ad m
ja son
gu u
au i
bu s
ab bb
ma k
ffffff ddb
zj c
wc ut
_* /
jzgr rkjm
nsc r
ffffffefec da
w gsz
y br
Ġ ck
Ġ batch
ffff b
re gu
bd cb
sh ang
ef df
script name
aa q
hw spn
']) ;
qq fu
ga q
comp one
ffffef dff
wo hu
nz bt
bfa e
dbf da
init data
Ġhttp sessionid
encode id
broke news
Ġscript sessionid
Ġbatch id
compone nt
d tet
i ce
n ing
q th
r ze
r fb
Ġ on
Ġ style
Ġ dy
si e
gu h
mid o
sc a
be l
huawei sea
pc q
ffffff df
Ġe in
du b
Ġ/ *
ffffef df
fee db
cab b
wsq e
ffffcda dfeff
b sy
d pe
d os
l te
s ar
w pe
Ġ jw
Ġ yy
ac v
ro u
la h
"") ))--
ed df
qu a
Ġ( ([
fff db
rb v
ji e
])) }
sql id
sql hash
bce l
hwh ry
....// ....//
oxy gen
Ġein jex
] '",
m on
q br
t st
z hou
Ġ ml
Ġ rq
Ġ zg
st b
ch k
bd da
ic a
aa af
fe fff
tur l
]"") ))
xbd r
qsu a
oth er
explo it
regu lar
* -[
] ><
a qaz
o ver
o cd
r pe
s ne
t ny
y sy
y lpfo
z dy
Ġ na
Ġ source
ce l
da t
for ce
xx x
=' -
wi th
|| '
hw col
hw evr
load initdata
zy sc
dr gs
move d
Ġf write
Ġf open
Ġin valid
acn xm
Ġre moved
Ġ(( ([
vio let
oue bmo
ning xi
s fq
y fb
Ġ ue
Ġ fw
Ġ boolean
po int
gs c
sh z
dbc p
bo t
fe fa
bt z
ffffff dff
css user
hy kf
qf v
qc rh
ffffefb da
xth h
person al
n fe
o fbi
q ry
r gh
x au
x zv
Ġ mp
Ġ ar
Ġ mode
Ġ ny
st v
da q
bb z
view click
wx u
huawei els
hw mar
base dir
xy d
dfa e
glo bal
/.\./.\. /.\./.\.
?<? =
jwd ty
feedb ack
k nt
r sc
s dy
y dh
Ġ ty
Ġ mo
ffff bcb
si mu
ch an
ce ye
pa z
la v
op b
ab ff
ca ch
be us
cf cc
pc v
yz hc
day f
ton g
zu q
qa h
fed f
cz re
=%{ (#_
too l
ffffbcb fefff
' ||(
c ro
c rea
c ard
c rq
p cam
w ad
Ġ ec
Ġ open
si g
cli st
la tion
op per
ar s
xt t
function s
huawei yal
hw jer
hono rb
honor hlk
../../../../../../../../ ../../
gr us
ffffefc dbfda
local start
ass o
../././../././ ../././../././
noti ce
pba m
xzz x
pho to
= $(
] }
_ &
e va
e sp
f ang
g roup
l mi
n mf
x link
Ġ ms
Ġ db
Ġ ry
Ġ safe
Ġ disable
ho sin
ms mn
bu m
bu q
sa mple
be qr
ba og
ech i
ld n
zd g
qg c
Ġsu hosin
zheng ce
simu lation
] ""}
f sz
g th
h id
p cb
s bzi
w ge
Ġ ss
Ġ 34
Ġ jq
Ġ ./
ri a
bd bf
gu a
gs gg
tr v
pg g
sq v
savec ar
zone info
Ġte e
dadu i
pbb m
yra h
baog ao
e yz
n py
r br
w op
x by
Ġ jg
Ġ qy
Ġ lk
Ġ jj
Ġ ly
da bh
re us
se o
ex y
ar ba
ln d
bb ef
fd ce
lf y
jy xm
jy bh
qi u
sr v
Ġ= "")&
fake param
prst export
ffffffaf efee
crea te
msmn ile
' \""
a os
c mi
c zz
d zh
o si
p clist
w zy
y sgt
Ġ ta
Ġ pe
Ġ ze
de ff
te q
da dc
se h
lo ve
gu z
ab r
sa s
tb t
Ġw fi
af cd
valid ate
ffffff dfe
Ġy g
part ment
pic asso
yj dc
]/* _*/
gll jbl
'\"" `
= ../../
d pz
d sq
d zu
p ry
q sc
w hi
z rq
z xu
Ġ dx
Ġ cf
Ġ jy
co co
li cai
ac ff
la s
bd fb
gu r
live praise
rt z
by tes
qy t
qg z
ffffef dd
rg z
az as
eda d
ffffefb fa
xec u
drv binde
jinrong licai
[ $
f an
g yw
i padd
n ta
o ge
s qq
x ge
Ġ li
Ġ kb
Ġ eg
Ġ ox
Ġ zw
po lice
user admin
sh ib
auto login
ct c
]= ../
ed u
wf gz
pd g
jy sfzmhm
Ġu k
nc wy
od pa
""? ><
/-- >'""></
follow list
follow status
relate type
zyd jgcmt
pbc m
Ġwfi oa
ipadd r
police binde
. </
f up
j es
n fu
p fb
y fq
z ho
Ġ er
Ġ ti
Ġ se
Ġ sp
Ġ my
Ġ bj
Ġ hw
Ġ 30
Ġ request
ta we
ffff d
ffff fe
ffff df
te a
sp i
tu d
tu q
xt b
af si
go wohu
yz k
sq li
pq v
zr r
ffffeff dafff
eu gowohu
zxy g
qzq e
kle eugowohu
jwdty yjdc
Ġwfioa kleeugowohu
c pe
d ro
f per
m func
n rs
o cg
s bbs
y ad
z pe
Ġ ro
Ġ gn
Ġ me
Ġ ra
Ġ string
Ġ bh
Ġ object
Ġ controller
"" >
ffff db
si bm
da o
da vin
new file
gs u
]) /*_*/
"") ",@
ph s
xa q
ef db
zz f
rp v
pz q
getlive praise
qy v
qy z
pd r
]' ||(
zd v
ffffef cf
wy l
aad f
hwd ub
ash x
shib an
ncwy wfgz
davin ci
getlivepraise img
= ;
] ||(
c keditor
c zgh
d bu
p ss
w zs
y ff
Ġ co
Ġ ja
Ġ au
Ġ il
Ġ qh
de de
ffff fac
ce reus
channel type
ap z
se f
get tv
ze g
]) ?
con n
ab ae
dx s
sa git
ma o
be eb
fl v
huawei alp
fc rs
eo qi
ffffff efa
Ġx p
fff cd
rd u
du mmy
redirec turl
Ġf puts
wo ff
yo ai
xml schema
huawe id
/*_*/ (
exte nd
operator s
fon tawe
gettv livelist
fontawe some
] |
r ing
w bh
Ġ ce
Ġ da
Ġ po
Ġ fa
Ġ lx
Ġ tp
Ġ dh
de fs
ffff bff
si c
ch opper
in ket
tr inket
ct f
for um
dx fa
qu z
Ġw g
huawei mha
hw lld
ao tf
]' /
]' ><
pf t
sys dummy
hwb nd
Ġsy sibm
huaweil ya
] <
a abc
a ded
b ra
b sf
d zy
d gas
f xtc
q bh
s wf
t ang
w py
z sp
Ġ si
Ġ io
Ġ ur
Ġ xi
Ġ rl
Ġ password
Ġ gk
data mg
se g
se u
ja t
gs d
bu c
("""""""" &
}} ?
rt ree
bf bd
bf ed
swi per
rp b
ffffff ad
rd pa
du v
zp ci
template file
ffffefe de
dim table
sfb r
land gre
obz b
zdx zjc
datamg rtree
a ri
b add
f sq
m rd
n by
p sh
q tp
y in
z rt
Ġ va
Ġ ho
Ġ do
Ġ ea
Ġ ow
Ġ zv
ff any
ne k
no w
ce q
da g
ti ffany
ap u
get pwd
pa h
pa am
fa il
bd w
bd de
mb o
js o
:// \
fw bz
Ġi h
ba ef
pre view
cc fa
fe t
fe bu
cb ed
bf zb
ae ff
sg q
ffffef dfa
rg q
at tach
fil led
hwb ln
option s
ffffffdfa edb
analy ses
world filled
with love
fffffac fffcd
worldfilled withlove
] ^
b mh
d ns
n qh
p db
p dy
p bf
p py
q re
s fdc
y dy
Ġ tu
Ġ ph
Ġ aa
Ġ ev
Ġ vy
Ġ fq
Ġ ga
Ġ ng
Ġ bx
"" ?>
st an
ch ou
ac cd
er s
or bi
tu z
bd cf
ve wkm
ab cf
ph pe
ic n
pre ss
=' '&
eo ht
pc r
qy fq
qq f
lu b
=< !--
landgre y
! ':
! ';
a bdc
c au
o by
p ra
r cd
w de
y es
Ġ ke
Ġ ln
Ġ nu
Ġ bb
Ġ tb
Ġ bi
Ġ value
", $_
st i
st pa
si a
={ '
ad cb
fi r
db user
db ef
db pw
ab h
pt v
su z
eb fe
ca g
org c
php code
be de
qu h
qu u
hw trt
']) }}&
qy d
ffffff dda
rs m
zf t
))-- &
ffffeff fb
huaweic lt
tou zi
xef h
])? '
phpe val
!': '
& _[
= ../../../
d trb
l uc
n gd
p late
t pl
x fb
x ue
x aw
x ox
x fq
y sq
Ġ ge
Ġ ri
Ġ fb
Ġ xa
Ġ cn
Ġ ca
Ġ cb
Ġ bc
Ġ zy
ff de
ff fc
ne d
co o
le ditor
lo tus
gu g
tr ace
xt g
str ap
mo use
vo d
getmy feedback
jg zn
ba o
rt cz
wa i
cc u
huawei eml
zz v
rp q
rq g
rc q
zy qa
temp plate
zt g
wg tr
boot strap
receive sms
inter nal
=../../../../ ../../
nba s
adm ini
getmyfeedback history
& {
( /
a yy
b os
b xy
c qh
e spv
f rce
j ec
l ac
n ch
p connect
r pt
y be
y py
Ġ vi
Ġ ap
Ġ pa
Ġ gs
Ġ eo
Ġ ju
Ġ zn
Ġ zo
id a
no ua
ac de
get datasource
ze e
ze h
sh eng
fb aa
bu a
bu h
db name
db charset
eb g
sta t
be aa
rt g
qf h
zh an
pq g
qg q
nc gz
table pre
dee fb
eff s
queryveh tempplate
zhibo hui
/ \/
b zh
c sy
c sc
c zy
k in
l id
m dy
r ad
w br
w yy
w gah
x dh
y ao
y pz
y ag
z qy
Ġ ab
Ġ so
Ġ ]",
Ġ lf
Ġ current
Ġ mu
Ġ gh
Ġ nk
Ġ jo
ne a
ne ss
de s
ac ae
re bg
ty r
op g
fa t
ad gt
xa i
Ġa o
Ġ"" _
Ġ' _
ffffff eda
ffffff cda
ffffff bde
zh il
zu g
qi y
ffffef dfb
za h
ffffe fff
qr v
eq zg
ffffefb fb
fffffff db
dap ter
spl us
; </
c dh
f xy
n ge
n ph
q ra
r dy
r rq
t fw
w yg
x ry
x bhg
y os
y sc
y ca
z st
z hu
Ġ df
Ġ pz
ff fb
id u
an li
de l
ffff dfb
ffff feff
en da
on mouse
bd df
gu b
tr a
ab yg
clo ud
bb ea
Ġw l
Ġw pr
fd da
zz dr
bc fa
zm hd
qy c
ffffff c
Ġx link
Ġe hr
Ġd ur
rf v
ye yg
Ġg lo
zc r
zf s
Ġ} ;&
cz sc
)=' &__
ffffefc decca
project id
)=""& __
ftb q
stra tor
admini strator
getdatasource config
a th
f zqz
n dgt
o nt
p fq
q ar
s up
x si
x ph
} ;&
Ġ )
Ġ go
Ġ yz
an yid
ta v
ne ed
de fc
ffff fc
to time
data analy
se e
ex u
sp cd
ar g
di y
ab fa
al bum
net f
ed cd
bo ye
wa s
rm x
cb n
rp d
af ed
es g
from time
')) )
())} ;&
ffffff bef
rd gb
Ġh q
zg v
comp anyid
cfb a
yr g
zf z
sb s
substr sql
qr h
xo ss
=* /-->'""></
Ġ@ @
sea dapter
dfe fbe
cwjgda jb
jing ji
rty t
operator id
aci ei
fffffa dfefbe
fyu g
deli ver
personal message
dataanaly seadapter
% )
% (""[
& :
: </
@ """,
f ru
m ing
m eric
o jt
p ma
q py
r zq
x ff
x or
x qq
z sq
Ġ ct
Ġ cd
Ġ zx
Ġ execution
Ġ stack
de pa
"":"" *
""","" @
ze z
lo ba
ad db
ph er
cd si
tb c
ba g
wx pe
|< %
huawei jef
fc ce
do it
ps d
dc v
pg v
qy u
ffffff eff
qd t
ji ang
qh r
Ġo rigin
qo ac
fs rq
wp pi
xml rpc
she lper
cx zu
dec ry
]') --
Ġin put
ni hao
]"") %)
`& ('#_
hand led
noti fy
Ġun handled
Ġci pher
Ġwun u
wte i
Ġae shelper
Ġdur ing
]"")%) """,""@
- -[
/ \
a deb
d py
m ra
n fq
q ge
q daf
r ne
w ty
w au
x fy
x wdt
z by
Ġ ne
Ġ rk
Ġ qo
Ġ qa
de le
si chou
da s
ac fa
test ring
pa e
ss yv
ec fe
fi g
db host
xa g
xa v
mo te
clo ck
]= $
search date
(& ('#_
Ġi t
rt zc
qu q
uf ang
zz fr
jw gl
mobile detail
ry a
pc z
qy a
py xis
ffffff dfb
bg t
Ġe q
sq lin
Ġg q
xc sq
bk k
:\"" _
dbd b
ffffefb ff
=../../../../ ../
\"";}} ""
widget config
rou testring
cach ed
exy nos
ffffffbef dfb
sichou zhil
/ ')
b efd
d ll
f dy
n btf
o bgf
p sc
q rt
w by
x py
z qq
Ġ ch
Ġ us
Ġ zm
Ġ hi
Ġ vh
ff n
no r
ac fb
fa o
name code
gs v
cd fb
be ff
fe fb
|< #
pla in
do ub
bc da
bf ef
pz g
pd t
rq e
qf r
mu b
qt v
cfb e
dg ye
qa t
ffffef bdb
Ġk h
Ġl r
zs b
sf t
oe de
aq m
/? _
])) </
value code
:\ /\/
feb b
bad b
hwi ne
ffffffddb ecb
Ġehr us
Ġglo bal
& ('#_
a or
b ss
b zqz
f ph
k tu
o gh
p ge
q eb
r dh
w to
w ar
w ru
z fq
Ġ ff
Ġ lo
Ġ eb
Ġ rm
Ġ br
Ġ bf
Ġ fm
Ġ zh
Ġ tl
Ġ qk
ff ce
ff eb
ta z
de p
de v
ac ca
fa h
bd fe
gu f
pt c
sa i
bb ba
xx e
wx bc
fd fa
invoke function
') ().
bc bb
sq ct
rd t
rd ce
Ġh k
rb ze
qd r
gd t
htm ucapformsresource
wy sa
pb v
ko u
ctr q
ffffefed bdca
ffffefcff cfb
/ {
] __[
` ?
a ty
a sz
a fee
b ge
b zy
c ze
f ei
g ys
k on
n se
z sg
Ġ fc
Ġ jn
Ġ bt
Ġ pu
Ġ cv
Ġ zc
ne i
de db
da u
er i
get history
op s
na o
tu re
bd ce
rea k
su o
ed fa
tp d
ew eb
dd t
ba ed
aa ce
huawei stk
]"" ><
hw stf
ps q
ffffff aff
ffffff cff
yz cg
image field
zh e
qt d
]' &
zc q
xu h
Ġf v
\""", \""
cy rc
bfa d
eng xian
]"") --
guo ji
prs b
bot tom
gethistory list
a zh
a arq
b ln
c yu
d lg
f ge
i sie
m hu
n xt
n sz
o au
q af
q sz
r ra
z ge
z tb
Ġ }&
Ġ html
Ġ ba
Ġ qf
Ġ bl
Ġ form
Ġ zu
Ġ za
Ġ nx
ta u
ce h
li e
in di
ec db
sh b
tr g
ct b
ab da
dx zt
sa e
bb ec
ba sic
fe eb
huawei pct
="" ;
hw w
ao cz
af db
fu q
yz ra
sq leditor
zq i
disp osi
Ġm v
zr h
zc z
hono ra
qo dr
pr h
ffffef dfe
nx db
rv j
pp p
ffffefa fa
down app
ffffefe da
bcb c
setu p
Ġ/* &
disposi tion
a fdf
b sh
b py
b qq
c ye
o re
o ag
o dg
p dbe
s ans
u ap
w sy
y bh
z an
z db
z bc
Ġ gu
Ġ bu
Ġ fl
Ġ ei
Ġ lt
Ġ uf
Ġ dm
Ġ {'
Ġ ld
Ġ cur
Ġ rb
ff ef
ff bf
ta t
no y
ac dc
Ġ[ <!
le i
na vy
fa s
sh a
bu r
bu si
ct q
su i
js b
log out
aa bd
ci ie
fe ce
cl osure
Ġ- -[
dc fa
df u
cu l
we dadu
load struct
pd v
pd ru
Ġx o
line join
qd v
ji ufang
rs rv
Ġv q
wo fs
hb lah
def cf
Ġde partment
ffffefe deefb
bla hblah
soap env
\../\../ \../\../
Ġsa les
begin invokeaction
wdd m
need loadstruct
a ecd
d ors
f xa
h py
i sin
l un
n bf
o efc
q ss
q bg
q cloud
s ry
w pt
y eg
y xg
z ry
Ġ ut
Ġ gi
Ġ pt
Ġ sun
Ġ qu
Ġ vc
Ġ qg
da ec
ti ca
ap q
tu v
]) }}?
tr u
bu u
sa g
ma ro
dh g
Ġi vt
be ec
be ef
pre vio
web fonts
ry fu
pz dd
zm t
])|| '
load search
pu u
qq c
sq h
zq fa
mu i
Ġc g
pq he
Ġo k
clude previo
dg ts
qc r
pi an
xu d
bq gd
yf ga
=* [
dp ac
module s
inter val
resol ution
sby a
../.../.././../.../.././../.../.././../.../.././ ../.../.././../.../.././
xpe t
xdt s
xox o
"":""* """,""
ffffefbdb fff
indi vid
isin cludeprevio
isincludeprevio us
> _
a efd
c pt
c qq
c tuu
e sz
g kb
h yz
q fb
q eg
r zg
r rh
x mb
y pf
z ation
z ao
Ġ fo
Ġ xt
Ġ fe
Ġ cu
Ġ tc
ff z
ffff be
st ic
ch at
"":"" """,""
ac db
to col
se ih
ffffffff bfcb
sp u
tu a
tu g
ad fb
gs g
au m
ms z
th q
fb yu
bu d
db yf
ph q
mb da
log back
bb be
pro mpt
pro tocol
can cel
ba bd
aa eb
win iframe
huawei par
huawei bla
fc ca
ee zz
hw pot
sho winiframe
df de
pz f
ox zz
anony mou
rf q
Ġh j
Ġh el
Ġy w
sm ar
qc ar
zt v
Ġ7 9
ru i
yd v
Ġt g
sr z
qe h
wp ke
oo zr
ua ap
ffffefa da
product s
tree temp
sor tby
anonymou sec
: ;
` '&
b ty
b eca
e pz
g ao
l osure
m zk
q fq
q eai
r bh
u ri
u ali
x dq
y ec
y tp
Ġ hu
Ġ fd
Ġ dc
Ġ gene
Ġ qc
Ġ zj
Ġ general
ne g
da i
li to
to me
pe x
ex change
op q
tu h
lo v
ad bc
un der
gi a
mo no
login chk
dy da
Ġs v
be ae
ba h
ba ae
""} ]
len gth
wd info
cf h
cf de
Ġw to
fd fb
bj w
bc ad
bf u
pg q
ae fa
qy b
pu z
Ġh l
zq a
qd g
zr g
]' ""}]
zc g
getall praise
Ġv g
Ġj x
Ġt v
oe abr
rv l
bce e
feb a
fac d
.././.././.././.././.././.././.././.././ .././.././.././.././.././.././.././.././
zqu z
disc losure
Ġwun uaap
run script
]""} ",{""
whi te
attach ment
busi ness
individ uali
getallpraise tome
individuali zation
= ../.../.././../.../.././../.../.././../.../.././../.../.././../.../.././
? [""
a zz
a bdf
a bdd
b cfe
e qh
f sc
f bdc
n dy
p gus
q zy
w qq
y cs
z sz
z du
Ġ size
Ġ word
Ġ ki
Ġ text
Ġ nc
Ġ none
Ġ face
Ġ body
Ġ black
Ġ application
Ġ \"">
Ġ bold
Ġ console
", (
de fi
si lk
"":"" <!
ac cw
se i
pe s
pe wyl
pe wpke
Ġ[ [
ser if
ver flow
sp sh
bd fd
gu q
ve tica
di v
ht c
au a
sh jd
xt v
io xf
xa e
su h
nu bia
ca z
log o
dd dd
ef cb
ef dxs
Ġs ans
view port
aa fb
fe q
do fe
hw frd
bf da
rp io
xi u
zn l
yy ba
Ġwh ite
zh ang
qt s
Ġm r
du k
Ġg ray
Ġo verflow
ag gre
zd z
qg f
Ġl g
ffffe ffff
xe h
Ġt q
Ġb reak
comment s
exp anda
nb fc
huawe ioxf
the me
uy eb
cff c
ite ms
conso las
chi ron
Ġla mbda
sil ver
sco rpio
invokeaction method
Ġak pewyl
Ġwk seih
Ġcontroller base
ari al
luc ida
Ġcur sor
Ġsun sans
maro on
Ġhel vetica
Ġgene va
under line
mono space
pewpke eus
aggre ga
expanda ble
Ġwkseih pewpkeeus
' >
a edd
e si
f py
f yg
h rc
i co
i sh
n bg
o fh
s rq
t an
x bz
y ue
y fg
| (
Ġ ve
Ġ vo
Ġ ee
Ġ rd
ff cc
ffff bf
ac fe
ac df
on i
re c
re h
news id
ze i
ar a
ar k
di an
up i
sh v
xt z
js j
${ (#_
sta ti
ma g
qu an
Ġw q
wx k
huawei wlz
); </
fc cf
zz sho
Ġa g
Ġa q
ae g
pu re
ffffff ade
ffffff bdff
rq c
Ġe j
ki e
rb q
ow kp
ag g
yr v
zf v
Ġl q
xe t
Ġt k
sx pq
wk n
oo hr
def ef
dfa v
of id
ref resh
export forms
eac d
nze b
uyeb anner
zzsho uyebanner
$ ($
$ (&('#_
= .././.././.././.././.././.././.././.././.././.././.././.././.././.././.././.././
] ||
b ded
e py
f ry
f pua
h an
h xg
m al
o dh
o zu
p andor
q cu
q xy
r ge
w dh
w ry
x sd
y ar
z guv
Ġ ic
Ġ pl
Ġ dd
Ġ cc
Ġ rp
Ġ ku
ff u
no pic
ac dd
ac cf
on ame
pe w
le y
ri li
sp q
ec ca
bd u
ad fa
gu t
set s
for add
is o
lon g
ed cf
ca oy
pro use
cf ec
fe da
huawei ana
huawei glk
huawei bkl
br p
mode ls
bc ce
sz rd
es zz
fro nt
pd q
ffffff bf
Ġh a
Ġh g
zg c
mu aaq
city foradd
jy ta
gd s
]' --
Ġr n
sg f
zd q
qg t
qg v
Ġu w
pr oname
qc g
zs d
yq b
Ġn q
qe t
yo u
pb s
cdd f
]"")) --
xz cu
gin kgo
$$ $
]')) --
huawe if
gw yzk
cab a
sl ide
shi chang
../..//../..//../..//../..// ../..//../..//../..//../..//
Ġxx e
xian cheng
ffffffef efda
xzq b
oyz a
xgh h
sfq e
aggrega tes
pandor a
muaaq owkp
< /[
` )--
a yu
b zq
b lfy
e di
f th
f uck
o tb
o dc
q or
r au
s jo
z sy
Ġ ht
Ġ es
Ġ zi
id ea
de da
de eb
ffff bb
ch z
ce z
da ae
li ao
ac ab
ti san
]- -[
ap d
get sys
in formation
or fu
na tri
ec da
lo t
ad ca
gu e
exec sync
tin ym
fb fe
rce ew
ct g
"") ().
ab t
ab ed
ab fd
mb v
nu s
sa q
so qv
bb af
ef eb
ef cd
ef qd
Ġs g
Ġs k
cd ce
Ġi k
Ġi u
topic sta
ba fd
ba hg
by re
qu c
br s
pla yer
xm jz
bc ba
bf sh
ry rf
pg ac
xi ay
qy g
pu i
Ġe l
Ġd g
rd z
rb sr
Ġm q
gd q
fs gs
qa i
xu g
Ġf k
at sd
dff e
oe ti
cx pg
fh d
ot fz
aeb b
cwjgdajg dm
pin qihuo
................................................................................................................................................................................................................................................................................................................................................................................................................................................................................................................................................................................................................................................................................................................................................................................................................................................................................................................................................................................................................................................................ ................................................................................................................................................................................................................................................................................................................................................................................................................................................................................................................................................................................................................................................................................................................................................................................................................................................................................................................................................................................................................................................................
shang pinqihuo
chat topicsta
smar tisan
items param
getsys notice
natri um
tinym ce
& '\""`
= ../..//../..//../..//../..//../..//../..//../..//../..//
_ ;
a eee
b tp
b ccb
c sq
d or
e sc
f yz
g ong
k ow
l gx
n cf
n pq
p th
r xy
w sz
x os
x ra
x yy
x fg
z bz
Ġ `
Ġ bo
Ġ rt
Ġ pc
ff ea
ta a
ta c
de ea
ce u
da h
vi a
channel id
]- (
se v
pe v
pe sh
in an
ex in
ex hu
bd ba
gu c
bu j
db y
xt s
"") _;
ab ef
ab bf
su q
ca h
bb pd
dy gd
ef ce
xx gi
be ad
ba gs
cc g
cc r
fe g
huawei jkm
fc fa
bj o
char ac
cb ch
') ]=
bc v
bf cc
df v
>< !--
py td
rc r
zg q
tc g
Ġy u
ku a
qf z
Ġg l
dr h
Ġo i
Ġv w
og yh
Ġb k
Ġb q
yi rili
ada b
od rf
ws dc
xd zz
ace a
bff a
bff b
hand le
);?> =
=../../../../../../../../ ../../../../
bad c
jiao yirili
sco pe
ffffffcfa edf
real me
nxy h
lac cnfa
treetemp url
xiay ing
; (
b sq
b ccc
d pdr
f xg
f def
n an
o se
o db
q dbe
s de
w tb
w cg
y ge
z py
z taf
Ġ 33
Ġ qd
Ġ gd
Ġ zl
"" }}
id i
no te
st t
ti k
re i
os qa
",# _
ze f
po yr
ec cs
fa ac
ad s
ja k
]/ *[
tr z
Ġ2 8
ab af
getmy collection
Ġi e
Ġi w
be i
by tc
aa ee
Ġw w
huawei vce
huawei hwi
cb g
fin der
web font
af ce
../../../../ ../../
ffffff afb
Ġx q
Ġx v
rc k
]! [
ye t
]' `
rs b
Ġg g
Ġu x
Ġf t
Ġn h
Ġn i
Ġn j
Ġb w
cg cv
/* [
exp an
pic s
dca e
ppr u
thi rd
..\..\..\..\ ..\..\..\..\
fpa t
ffffefaff fea
silk road
% ""
] @
b te
c ph
d vc
e yg
h cg
m xw
n zy
o ec
o yy
q ec
w ed
x sz
x qfg
y ty
y ang
z dh
z fu
z auu
Ġ ac
Ġ ll
Ġ qt
Ġ zf
ne e
ffff dd
ffff bfb
no h
li u
ti x
re v
app name
pa q
page dir
tu b
fa eb
bd fc
di g
sh f
rce ok
ab fb
cn m
ca o
ca fb
bb cd
bb fe
pro pag
sta pp
http s
bo dt
ef ca
Ġs l
Ġs w
qu d
aa ed
ee et
bt qu
ry ff
rp i
bab e
cu i
yz ae
qq dt
Ġe h
}) &
Ġh x
zg g
zg r
zh z
zc bb
qg r
zw s
jo h
pr z
fs r
Ġv n
ffffef dde
Ġj v
Ġq m
Ġt n
pk y
lr v
ns root
nz bg
ot sb
book live
ffffefa defcf
ffffeff dfd
fcf d
aad b
bcb f
zheng zhi
ffffefcfa dfb
lav ender
eweb editor
expan ded
propag anda
? -[
a xy
b edd
d za
l ra
n rce
n ry
n dt
q teu
q buv
q rdg
r rfh
s bh
w ec
x ba
x cur
y ss
y ea
z dd
z yy
Ġ 39
Ġ uc
Ġ method
Ġ pd
ff df
ffff fad
co bv
ce ed
er h
on k
on line
ro ute
ap g
ap r
se b
la g
la bel
or tom
ec fb
ar u
bd cc
gs a
ms h
sh q
sh ao
]) )",
tr q
rce en
rce vy
ra l
al low
sc ce
sa h
lx fs
bb gt
getmy ortom
ply list
qu f
aa ea
ee ff
bf dd
swi pe
ea fb
af da
af ef
pg gq
pu v
ffffff edb
Ġx g
tc r
Ġp k
ck finder
ga v
Ġm k
rs f
Ġg v
Ġg w
Ġo g
Ġo h
zc yf
ere plylist
zu b
comp any
ffffef dda
ru d
sf r
Ġn n
zx fe
Ġb v
qx sc
pb fa
qz er
nq bg
Ġz p
ey da
kk g
mei zhou
aff d
aeb a
aac d
eab a
sil ush
nsy q
photo swipe
getmyortom ereplylist
d te
d ing
f yy
f tl
f puts
m or
n bh
n paf
n qeu
o ss
o qq
o og
o fy
r fav
s xy
u zx
x sy
x eg
x zy
z ra
Ġ rc
Ġ ji
Ġ bz
Ġ zr
Ġ 60
ff ac
nt eh
de bf
ch v
ce fb
li ng
to wn
data models
ro ta
app mak
pe i
in aw
ri s
sp zh
op i
na v
ec de
ar pe
ad fc
gu shi
execute sql
fb fd
rce no
for mid
ra zq
xa f
ed db
bb ed
bb ya
bo tf
Ġs j
cd ff
be t
be y
be db
be ed
ba eb
cf q
huawei spn
fc u
zz g
bc bd
hw tel
bf q
dc s
ea yt
pg h
bab f
qy r
py hz
ffffff bfb
Ġx w
Ġd k
Ġd q
uid vewkm
qd re
Ġc w
ye yc
Ġr w
Ġk q
za i
Ġj m
pf v
Ġn v
oy gi
aeb f
bca f
pag ing
/./././././././././././././././././././././././././././././././././././././././././././././././././././././././././././././././././././././././././././././././././././././././././././././././././././././././././././././././././././././././././././././././././././././././././././././././././././././././././././././././././././././././././././././././././././././././././././././././././././././././././././././././././././././././././././././././././././././././././././././././././././././././././././././././././././././././././././././././././././././././././././././././././././././././././././././././././././././././././././././././././././././././././././././././././././././././././././././././././././././././././././././././././././././././././././././././././././././././././././././././././././././././././././././././././././././././././././././././././././././././././././././././././././././././././././././././././././././././././././././././././././././././././././././././././././././././././././././././. /./././././././././././././././././././././././././././././././././././././././././././././././././././././././././././././././././././././././././././././././././././././././././././././././././././././././././././././././././././././././././././././././././././././././././././././././././././././././././././././././././././././././././././././././././././././././././././././././././././././././././././././././././././././././././././././././././././././././././././././././././././././././././././././././././././././././././././././././././././././././././././././././././././././././././././././././././././././././././././././././././././././././././././././././././././././././././././././././././././././././././././././././././././././././././././././././././././././././././././././././././././././././././././././././././././././././././././././././././././././././././././././././././././././././././././././././././././././././././././././././././././././././././././././././././././././././././././././././.
soft ware
ningxi a
fup in
deliver ed
appmak er
\ __
a fff
a fea
b dea
b edc
b ecc
b gee
c th
c zh
c yg
d qfv
f sy
k zt
n ic
n dd
n dh
o or
p dc
q aa
r ph
t re
w rt
w gd
y yz
Ġ wd
Ġ ps
Ġ any
ffff bc
ffff fdb
si t
vi e
ac bc
]- &
se z
pe b
pe q
le ts
or ub
fa be
bd cd
fi a
tr d
ab bd
my file
]= =(
pl u
ca ff
be v
be da
be ac
ba aa
qu ill
aa fe
cf v
ur se
fd g
fe ad
bj ect
word press
math quill
Ġa f
bc s
bf cd
pz v
cu g
baby name
ae da
ae eb
xi ang
we ta
pu h
bg q
Ġx k
fff ac
Ġd v
sq sf
zg qt
Ġp q
rb s
hy dro
du a
qg b
Ġu j
honor hry
jo aciei
Ġl j
Ġl w
Ġq w
Ġf y
Ġt s
qr connect
[]= ../
cs be
at sh
vk a
ace d
ded db
uw enda
jian she
padm in
sth ru
sau z
tcp df
yst t
ybr b
gyw m
nrs g
charac ter
hydro gen
/ ../../../../../../../../
` =`
a ml
a ecb
b daa
b cdc
d ongtai
e ss
f rh
j sc
m zy
n baf
o dy
q au
q bz
r zy
w edf
x sc
x cei
y or
Ġ js
Ġ qi
Ġ 62
ne ng
ch b
ge o
li ntegration
vi q
ac da
ac fc
gn u
.... /
pe a
in su
ss bg
op u
ec cf
bd dc
gs b
gs f
gs q
bu y
db h
db s
rce sz
ra w
ab qc
dx yy
class name
nu i
]: </
-- >&
eb aa
ed rc
dbc c
cd cd
be ce
fl y
ba ce
ba idu
out put
qu g
qu v
cc bb
fe de
huawei col
huawei evr
zz z
zz ba
]"" --
web mail
hw art
bf cf
dc qq
ea de
af cc
sz ss
sz au
ae ce
ae tc
we yr
ny qt
pd u
Ġp m
Ġp v
ga g
qd q
qt zy
pq e
gh f
xy cd
as d
fs f
zt t
nx jzg
pf h
lr x
ay n
rr bf
am eric
call back
fac c
eeb c
aad c
tom cat
hwa qm
pte h
pas sthru
zgl xt
mao yi
jso no
rsm zglxt
fffffeff fbff
onmouse over
stati stic
fffffad fffac
nxjzg rsmzglxt
= _[
a add
a def
b pr
b edf
c yz
d ty
d lb
e yy
i en
j hy
l sk
o br
o af
o fq
o ccb
o duv
p sy
q dd
s ad
v vo
w ff
w qh
x rbv
y ry
y cegi
z au
z sh
z pg
z yz
ta k
ne o
ne dc
de ditor
si mple
ch h
ce aa
ap s
pa bz
le ft
ze s
sp uc
page index
tu o
bd h
ad bb
(' /
gi m
db da
rce dx
ab ea
ic q
ln g
su u
js k
so gi
bb da
bb ab
bb ca
bo ea
ef ef
]* &
Ġi y
be fb
ba ff
aa da
fd z
cc s
fe ac
fe ee
huawei mar
br u
br v
ee ce
Ġa h
Ġa v
bc de
bc cf
ps g
dc ca
rp f
df ha
ae db
ae ed
ny rc
ffffff ada
ox qv
Ġe k
sq rb
rf ss
zg bf
Ġp i
Ġy b
\"": -
qf t
qf re
Ġm x
ton i
gd v
bz bi
Ġr g
Ġo j
ali baba
ali hack
qg g
zw j
Ġu g
qo i
Ġv p
Ġk g
sf v
Ġj k
Ġq x
Ġf g
Ġf h
yq st
xe q
Ġt w
qr r
pk w
ya suo
ns fe
fr zt
zhi jian
back up
xz xk
od gu
ace e
aff c
shi jian
aab b
bid x
driver classloader
driver classname
phi comm
nfe u
basic datasource
""}} :""
neng yuan
jsono bject
) &__
_ .
a dee
a efc
b fbf
b dec
c ne
c by
d pq
e sy
e ffe
f pe
f engxian
j st
j search
j yz
j lk
j et
m fb
n sp
n xu
q ed
r zz
r df
r qq
s ge
s apb
t tf
t bdw
w fb
w bz
w sca
y ph
y qub
z up
z il
z ip
Ġ foo
Ġ zt
ff ec
ta o
ffff fed
da m
en ix
ac cb
er g
app end
]\ /
pa v
ri va
ex fs
ze hi
op t
tu pian
ec fs
ec yf
ec az
bd bd
ad ht
ve ls
gi one
fo list
rce aw
rce vo
rce py
rce bk
ct s
ab ec
getin folist
dx b
dx q
pt su
sa f
ed fb
bb bb
bb bf
__ );
bo ss
Ġi x
be fa
ba ac
qu r
cf t
wa qh
fe u
huawei jer
it f
home custom
|| '&
hw vky
ea ff
rp g
rp u
af ac
af bd
check yq
ld k
ae bd
ae ad
ffffff cde
Ġd w
document element
Ġh v
Ġp w
Ġy h
fq ft
qd z
pq tu
zr v
zr x
zr za
Ġr x
Ġg x
Ġo l
xy ft
zu k
sg v
zd j
zd s
Ġu b
Ġ/ /
jo b
pr g
Ġv k
ffffef cfb
Ġk x
Ġk z
sf zh
px bq
yun qi
Ġb n
def de
ada e
xf ga
ffffefc da
fdd f
fac v
eeb f
face cbc
silu ban
pbe t
hwa sk
pin pai
san toni
far r
pho enix
qsy i
zfb z
%'=' &
qbr q
jiang tang
dxyy lc
jsearch front
siluban lie
a dea
b sk
b aca
b daf
c teu
d sy
d zz
e co
e or
e ecf
f dh
f zy
g ray
p fc
p ptq
q fu
q fet
t id
w an
w st
w os
w aa
w ea
x te
x ft
z bh
{ {
} `&
Ġ _
Ġ params
ff bd
ff ca
ff cb
ff ee
ff ont
de ad
ffff bfa
co zv
co urse
st op
ce ea
ge ria
da ba
da pf
ac ac
ac be
on load
gn dt
""","" ",[
ap e
ss lv
le vels
po fz
na rd
tu f
ec ff
fa bc
bd bb
fi k
db oy
rce mb
rce tp
rce fw
rce pz
rce mg
rce wk
ct l
ct v
io e
xa t
sy qg
true type
mo a
["" \/
eb bs
ml u
pl g
ca ed
bb ee
ll y
Ġs q
redi an
be af
ba ea
mac ro
cf eb
sub site
Ġw i
Ġw u
fd t
fd v
fe s
="" [""\/
cb cc
content id
ee ae
]"" /
ps gs
af de
af ur
getlive list
cu h
we pb
())} `&
ffffff ede
Ġx y
Ġe u
Ġd j
Ġd t
Ġh h
ki a
zg d
Ġp n
Ġy e
Ġy q
Ġc j
jq k
Ġr v
Ġg j
Ġu q
Ġk w
Ġl p
add tt
nc ca
mt k
Ġq j
Ġq l
Ġq n
Ġq v
Ġf r
pf g
pf x
sr r
ft padmin
Ġ} `&
yt v
ya zh
yp ch
ey qu
jm m
]$ (
ada d
cache data
bce a
bfb c
par ty
bca a
nde g
fol der
*/-- >'""></
prs d
far z
rsy jg
pch m
yfb t
wbh e
kin deditor
]'& $(
quan qiu
gione e
sslv pn
addtt ffont
& $
' }}
) ]=
) ]));
= .
b bdc
b ecd
c xy
c api
d dbf
f pz
f resh
i mb
j en
j os
j ly
n bz
o ef
p df
p bz
q sp
r tb
u ju
w ch
w ph
w be
w pg
x pz
x dg
y rq
z si
z ph
z af
| =[
]& {""@
de z
de fd
ce g
ce rt
da fd
vi y
ac bb
ac af
to k
ap c
ap th
in a
() `&
va h
tu c
tu t
ec fd
bd r
ad cd
ad df
ve s
user pass
]) ];@
th d
fb fb
fb af
db q
rce ro
rce gu
rce ph
rce bo
rce ry
rce sq
rce nk
rce xo
ab ab
ab ee
pt td
eb fa
ed qv
bb cb
jg k
cd fd
Ġi g
ba ee
Ġw r
fd q
red order
]", '
cb ff
zz d
bc dd
hw bac
hw jny
hw fla
bf eb
sho pex
ea fe
getre fresh
af rr
'", [
sz ca
ae s
ae de
zn x
go v
Ġ' '",
ffffff bda
conta ct
image upload
(); $_
rf g
rd q
Ġy o
line cap
qf k
zh q
gd p
Ġr z
zc s
Ġv x
ffffef ef
ffffef edff
Ġk o
zs r
Ġj l
dt d
sb v
nj p
])) }?
nf zt
xr fb
bce c
bce d
// ]=
cp cf
bfb a
bfb e
dda e
afa f
)); //]=
fffffff da
afb c
cba f
rsy c
ffffffefb ecf
();& |=[
qiye zixun
pty q
ngh r
sichouzhil u
..../ ..../
insu redorder
rsyjg dw
)]= $_
& /
/ '/
/ ",/
a ho
a sy
a yz
b deb
b bdd
c tui
f ecf
f tai
g my
g notify
j lx
o cfu
p px
q gi
r ch
r pl
s dh
s lice
t sd
w na
w hh
x al
y sz
z ue
Ġ rs
Ġ methodname
ff be
an n
nt e
de u
de fa
de df
ch w
da sheng
li thi
ac bd
ac pu
gn q
gn v
]- *
get shell
pa m
ze t
ar n
fa z
di k
un k
rea id
up file
fi b
]) ""&
]) }?
th en
ke u
fb de
db ad
xt d
rce pe
rce os
rce bd
rce ms
rce rk
rce lk
rce ck
rce jy
rce ly
rce mk
is ho
ab be
ab cc
my list
dx rb
ln i
)) //
su v
mo wang
sc u
nu l
cn k
vo k
eb cd
ca s
ca ec
ca ef
tp v
bb k
bb ad
bb bc
sta reaid
Ġs m
Ġi i
Ġi r
Ġi z
be ab
be ee
source string
aa ff
aa ab
cf ef
bi ao
fd l
ci q
wa k
fe v
fc db
fc bf
=( /",/
') ",
fin ish
ju l
zz ce
ee fb
bt tg
df rc
vy k
ae ab
qq i
rf z
Ġh m
Ġh y
Ġy i
"":""\"" @
qt q
Ġc q
Ġm n
bz o
qh k
Ġr u
Ġg m
Ġo a
Ġo q
zu h
zd rc
zf h
Ġu v
dg gd
Ġ/ ""/
jo v
za q
nx pf
zj b
Ġn z
xin wen
Ġt t
yc zg
qp qf
wh en
yb s
cy rb
yx bt
xz bb
ey ut
plug in
xs fi
ffffefa de
bce s
ace c
ace f
ffffeff fa
efb e
aff b
afa b
bac c
Ġ> ]>
ffffefe fa
ffffefe defef
/*_*/ ([
aac f
bad f
aab f
space list
ffffffcf eefa
pby a
create element
validate num
dbu z
fir stareaid
xaw xyd
coo kie
dele te
append child
&/ ).
lithi um
= ""&
_ "")",@
a fbf
a zq
a eca
a edf
a vles
b efe
c dec
d ry
d fbf
d fff
d sat
e dac
f rq
f bdb
g ly
h ang
h is
j no
j ch
j py
j pw
j ow
m nt
n ck
o uz
p li
p qq
q tb
r act
r fdf
s ra
s dg
s ges
w bg
w srv
x ed
x pg
x yz
x bh
x pq
y pt
Ġ for
Ġ code
ff cf
ta q
","" ]""/
de af
de fu
no qv
st o
ch o
da v
da fb
da df
vi p
en u
ro sh
ap rd
os ac
ze k
or be
sp pg
op zz
na vi
ad fd
ad cc
gu p
mi l
un defi
au v
sh g
bu k
bu l
xt f
xt sh
rce ri
rce up
rce by
rce hw
rce eg
rce yu
rce wy
ab ad
ab eb
my k
eb sc
ed uq
ca fc
tp q
dd ff
dd da
ef uf
Ġs b
xx xy
be ea
fl h
ba fe
aa ad
Ġw b
Ġw t
fd fe
fe h
fe bd
fc s
wi q
cb ad
ee ef
Ġa y
bc fb
bc be
hw ane
pg r
qy qs
pu g
== }}&
ffffff ddf
yy ev
hi v
hi news
rq h
fff efd
Ġd l
Ġp x
Ġy m
zq ht
qd s
qt g
Ġm g
Ġm h
Ġm w
Ġr h
Ġo t
yr qu
Ġu l
jo g
Ġv j
Ġl u
rg c
xu i
zi j
zb q
Ġn w
Ġt d
yo hg
lr wf
oe qu
Ġ-- ><!--
eq zh
dee de
ace b
ffffeff de
bff c
hwe va
afa a
beb v
cbb f
fca q
icon s
aea f
dra z
sing le
rsz h
oqh z
csz a
ffffffafa fef
xau g
yff t
huaweid ub
fsq c
tfw j
Ġ--><!-- /
' ||'
/ ""><
a tb
a acb
a fcb
b pq
b qh
c bdc
c bdb
d op
d sc
d gaz
d qrv
e zy
e daa
f ty
f tur
j if
j fb
j vy
j xk
j mx
k ny
l ur
n fb
n rth
n ru
o opb
q id
q bbz
q ccu
r ry
u mail
u wy
w ab
w jy
x fw
y dg
z en
z bb
Ġ dataanalyseadapter
no se
co rn
co ol
ch d
ce tc
da ee
da bc
en c
ac s
ac fd
ti s
gn i
me g
me v
ss o
le b
la k
la w
ri sk
ad z
cont ract
ht q
ms l
]) [
fb zh
db ed
rce li
rce ut
rce sc
rce dy
rce tb
rce tk
xa a
xa h
xa z
su r
su isho
mo k
sc l
sa a
eb bf
pl k
acti ce
ed da
ed ds
so cg
lx q
bb fa
bb eb
Ġs n
jg l
jg o
Ġi j
fl k
rt q
aa ac
Ġw f
Ġw p
fd n
cb v
cb cb
Ġa i
bc q
bc ff
bc cd
bf de
bf ca
ea ab
ea ea
af ca
ini config
]-- &
we q
qy o
pu q
wf t
pd s
ffffff adfe
Ġe t
rc zu
sq da
rd v
Ġh p
Ġy a
Ġy l
xw o
qd u
ji h
qt z
qt gb
Ġm m
rs d
Ġg z
Ġo m
Ġo u
zu v
temp lets
vh k
Ġu i
as sets
honor lld
pr actice
qc si
Ġv v
qa v
ffffef bd
Ġk d
Ġk k
xu a
xu u
za t
sf h
Ġq e
zj k
Ġn l
Ġn r
wv u
fy tv
?> &
od pb
bfa b
bfa f
secu re
dw table
=/../../../../../../../../ ../../
jiu ge
fca f
aab a
site gray
dcb f
]` )
.' ||'
ffffffd daf
disc uz
world client
qdy i
honorb nd
cpe g
/{ ${
cye z
hyz x
'||' .
suisho upa
% [
? .
a ffe
b dac
b bdb
b efc
d li
d th
d dy
e aca
e tyr
j rc
j xo
l ge
m xy
n rq
n pcq
n sqv
o live
o at
p cd
p rtv
p sed
q ag
r jr
s ong
w va
w ho
w il
w gk
x ny
x zfg
y aa
y ep
z pt
z hw
Ġ cmd
Ġ fs
Ġ zs
ff bc
ta e
de q
de fb
de ca
ffff ca
no u
ce s
ce db
ce be
ce hz
te c
da da
da dd
li nq
er u
re mote
se handle
pe l
le tv
la t
ri corn
sp t
na qd
tu k
lo j
lo yi
bd m
bd dd
bd be
ad ce
ad ba
ad cf
gu ide
di re
gi k
fi j
ms c
ke l
fo gq
fb cd
db fb
db eb
rce mi
rce au
rce il
rce hu
rce jq
rce mh
rce fk
rce uk
ab v
ab ce
ab cb
xa ts
mb y
ln j
sa z
:/ ../..//
:/ ..//
eb ae
ed ce
ed fq
ca k
tp u
bb aa
ma i
be z
fl c
ba fc
aa fd
cf yt
Ġw m
Ġw z
fd ff
cc pq
fe aa
wi k
') }
ju k
Ġa x
jw h
do aq
bf ce
rp z
df g
pz i
pz fc
>< [
ae ac
]-- /*_*/
pc pd
zn k
=/ ../..//
=/ ..//
pu d
Ġh e
Ġh z
zg yz
Ġp p
Ġy k
rb ht
qt t
Ġc p
Ġm t
gh a
gh q
gh s
ye ss
dr z
Ġo e
Ġo y
sg qu
yr gr
Ġu a
Ġu h
za hr
sj d
Ġj e
Ġq r
Ġf n
wb k
sd s
fp b
))-- /*_*/
nj ec
ds n
yf he
wu lv
xb tr
ada f
dfe e
cap ricorn
=/../../../../ /
=/../../../../ ../..//
=/../../../../ ..//
=/../../../../../../../../ /
:/../../../../ /
:/../../../../ ../..//
:/../../../../ ..//
ece e
afa e
=/../../../../../../../../../ /
:/../../../../../../../../ /
:/../../../../../../../../ ..//
cca a
dsz g
=/../../../ /
dcc q
=../../../../ ../../../
=/../../../../../../../ /
hwb mh
fffffd fffefd
:/../../../ /
:/../../../../../../../ /
node id
ffffefbf edfa
\.\.\.\.\.\.\.\.\.\.\.\.\.\.\.\.\.\.\.\.\.\.\.\.\.\.\.\.\.\.\.\.\.\.\.\.\.\.\.\.\.\.\.\.\.\.\.\.\.\.\.\.\.\.\.\.\.\.\.\.\.\.\.\.\.\.\.\.\.\.\.\.\.\.\.\.\.\.\.\.\.\.\.\.\.\.\.\.\.\.\.\.\.\.\.\.\.\.\.\.\.\.\.\.\.\.\.\.\.\.\.\.\.\.\.\.\.\.\.\.\.\.\.\.\.\.\.\.\.\.\.\.\.\.\.\.\.\.\.\.\.\.\.\.\.\.\.\.\.\.\.\.\.\.\.\.\.\.\.\.\.\.\.\.\.\.\.\.\.\.\.\.\.\.\.\.\.\.\.\.\.\.\.\.\.\.\.\.\.\.\.\.\.\.\.\.\.\.\.\.\.\.\.\.\.\.\.\.\.\.\.\.\.\.\.\.\.\.\.\.\.\.\.\.\.\.\.\.\.\.\.\.\.\.\.\.\.\.\.\.\.\.\.\.\.\.\.\.\.\.\.\.\.\.\.\.\.\.\.\.\.\.\.\.\.\.\.\.\.\.\.\.\.\.\.\.\.\.\.\.\.\.\.\.\.\.\.\.\.\.\.\.\.\.\.\.\.\.\.\.\.\.\.\.\.\.\.\.\.\.\.\.\.\.\.\.\.\.\.\.\.\.\.\.\.\.\.\.\.\.\.\.\.\.\.\.\.\.\.\.\.\.\.\.\.\.\.\.\.\.\.\.\.\.\.\.\.\.\.\.\.\.\.\.\.\.\.\.\.\.\.\.\.\.\.\.\.\.\.\.\.\.\.\.\.\.\.\.\.\.\.\.\.\.\.\.\.\.\.\.\.\.\.\.\.\.\.\.\.\.\.\.\.\.\.\.\.\.\.\.\.\.\.\.\.\.\.\.\.\.\.\.\.\.\.\.\.\.\.\.\.\.\.\.\.\.\.\.\.\.\.\.\.\.\.\.\.\.\.\.\.\.\.\.\.\.\.\.\.\.\.\.\.\.\.\.\.\.\.\.\.\.\.\.\.\.\.\.\.\.\.\.\.\.\.\.\.\.\.\.\.\.\.\.\.\.\.\.\.\.\.\. \.\.\.\.\.\.\.\.\.\.\.\.\.\.\.\.\.\.\.\.\.\.\.\.\.\.\.\.\.\.\.\.\.\.\.\.\.\.\.\.\.\.\.\.\.\.\.\.\.\.\.\.\.\.\.\.\.\.\.\.\.\.\.\.\.\.\.\.\.\.\.\.\.\.\.\.\.\.\.\.\.\.\.\.\.\.\.\.\.\.\.\.\.\.\.\.\.\.\.\.\.\.\.\.\.\.\.\.\.\.\.\.\.\.\.\.\.\.\.\.\.\.\.\.\.\.\.\.\.\.\.\.\.\.\.\.\.\.\.\.\.\.\.\.\.\.\.\.\.\.\.\.\.\.\.\.\.\.\.\.\.\.\.\.\.\.\.\.\.\.\.\.\.\.\.\.\.\.\.\.\.\.\.\.\.\.\.\.\.\.\.\.\.\.\.\.\.\.\.\.\.\.\.\.\.\.\.\.\.\.\.\.\.\.\.\.\.\.\.\.\.\.\.\.\.\.\.\.\.\.\.\.\.\.\.\.\.\.\.\.\.\.\.\.\.\.\.\.\.\.\.\.\.\.\.\.\.\.\.\.\.\.\.\.\.\.\.\.\.\.\.\.\.\.\.\.\.\.\.\.\.\.\.\.\.\.\.\.\.\.\.\.\.\.\.\.\.\.\.\.\.\.\.\.\.\.\.\.\.\.\.\.\.\.\.\.\.\.\.\.\.\.\.\.\.\.\.\.\.\.\.\.\.\.\.\.\.\.\.\.\.\.\.\.\.\.\.\.\.\.\.\.\.\.\.\.\.\.\.\.\.\.\.\.\.\.\.\.\.\.\.\.\.\.\.\.\.\.\.\.\.\.\.\.\.\.\.\.\.\.\.\.\.\.\.\.\.\.\.\.\.\.\.\.\.\.\.\.\.\.\.\.\.\.\.\.\.\.\.\.\.\.\.\.\.\.\.\.\.\.\.\.\.\.\.\.\.\.\.\.\.\.\.\.\.\.\.\.\.\.\.\.\.\.\.\.\.\.\.\.\.\.\.\.\.\.\.\.\.\.\.\.\.\.\.\.\.\.\.\.\.\.\.\.\.\.\.\.\.\.\.\.\.\.\.\.\.\.\.\.\.\.\.\.\.\.\.\.\.\.\.\.
jie shao
ica sehandle
honorb ln
rbr h
pry s
bsf g
kon a
suishoupa icasehandle
& `'&
< >'
a zy
a hww
b log
b zz
b cdf
b ecf
c ge
d if
d dbe
e def
e bdb
e qyt
e yqb
f rl
f cfe
j fo
j tv
n pe
n fh
o esg
p mi
p bh
p rds
q ue
q lk
q jb
u ai
w jw
w zq
w qv
w rpc
x ing
x ter
x bf
x og
x cfu
y tb
y du
z so
z ag
z spv
} {
Ġ key
Ġ path
ff h
", <?
id ve
an ia
ta tion
de ec
de ed
no n
no pe
ch y
ce t
ce ff
ce shi
ge m
te v
da l
vi sion
ac ba
ac bf
er mq
gn h
gn k
gn y
re b
re vision
get wechat
new sin
pa b
pa o
pa u
ss hu
le v
ri c
va f
po i
po j
po dh
na t
na gi
lo e
lo u
ar f
fa g
ad ff
gu k
mi b
ve k
sion s
up l
up u
up files
fi o
fo qs
tr f
bu b
db k
rce nt
rce pl
rce lx
rce dh
rce jw
rce rl
rce cv
rce yw
rce sx
ct t
"") ",
ab aa
mb l
mo x
member info
eb be
ed dd
lx o
bb fd
bb ae
sta r
fw g
ef cf
ba de
by ae
by gr
aa ec
aa ef
aa fc
cf s
Ġw o
lt c
fd fd
cc ac
cc bf
fe ae
huawei trt
fc ad
fc fb
fc dd
jn l
bj k
cl k
cl m
ju v
ee da
ee eb
Ġa t
web siteid
bc db
hw sne
bf ac
bf di
sz g
ae ef
vc x
qy s
qy w
fu tures
Ġx r
rf k
Ġh c
ki w
tc q
Ġy v
xw k
ku w
zh g
zh k
zh r
zy dt
pq gd
gd u
gh d
dr g
Ġo cc
zu i
zu u
jo i
Ġk f
Ġl c
Ġl v
nc sb
htm lintegration
Ġj c
pf rz
zo l
he l
sr h
sr hr
xc q
=* -[
aq cu
ay ce
oa yf
bfa a
dfb a
ffffefc fffdb
ffffeff df
bfb b
=< %
bac d
bac f
aeb c
dca a
follow user
#& =
qgh q
component s
sar r
]))} \
....//....// ....//....//
qry u
crq f
ffffefbfa fdf
nta d
sqli njec
]'/ ></
ybe u
rrq v
wyg c
ffffbc fffffb
undefi ned
getwechat memberinfo
sqlinjec tion
) </
= ..\..\..\..\..\..\..\..\
a le
a bdb
b acb
c un
c pqg
d qq
d zq
e ph
e ecb
e bdd
f cea
f cec
j mp
j su
j dh
j ur
j ry
j rk
m os
m cn
m tb
m vy
n sq
o fcr
p fu
w cu
w ly
w bbs
x io
x dx
x pt
x vo
x du
x pqz
x qfr
y af
y xy
y bq
z pw
z pq
z og
Ġ chr
Ġ 58
ff da
ff ab
nt v
de i
de cd
de ci
co q
ce dc
da re
da bd
da ed
li te
en cry
ac ad
er able
ro c
ent ifi
me k
me u
app ro
ss c
ex a
ex ten
os ql
sp y
ec cd
ar qz
fa fa
fa fb
fa zhan
bd db
ad da
ad dc
ad sd
mi g
mi ter
ve u
up k
au dit
fi h
sh h
sh w
ke q
ke v
fo y
bu o
rce ge
rce to
rce sy
rce eb
rce wx
rce hy
rce dk
rce rv
rce mv
is lrwf
\. /.\./.\./.\./.\.
vo z
work item
eb bb
ml h
ml k
kb y
ed ca
ca v
ca hz
tp xw
fw b
fw h
dd ca
cd g
cd fa
xx ys
be h
be s
hu q
wd g
cf ce
cf cd
cf do
ur g
wx ub
cc cb
fe af
br q
fc ff
fc bc
jn g
Ġa j
]"" >
web g
bc ca
ea fc
af ec
af cf
xi a
xi e
zm k
Ġnew ton
vc k
pc s
zn msz
pu to
ny ab
ny zz
py pz
Ġ' .././
Ġx b
Ġx j
rq zh
Ġe y
rc pv
rk q
Ġp b
Ġy f
Ġy s
jy g
Ġc m
zr s
zr u
qh g
Ġo o
zu o
foo ter
zf r
Ġu o
Ġu u
pr u
Ġv l
zt k
qa zw
Ġk a
rg t
xu v
za v
zi g
pf r
zj h
Ġn s
pay g
Ġt z
zv g
Ġb p
wfxw text
rh v
bq b
xo cb
rx ec
jc p
google chart
dee ce
jp m
bce f
efb c
efb ff
eda syncresult
um erable
cm stop
ffffefb fff
cda b
cda d
visit count
afb a
bda d
/.\. /
eab f
cad b
cba e
hwd uk
wrapp edasyncresult
road message
pba t
ash g
disc uzx
]/* &
oqh r
zth c
rel project
lao biao
deli miter
zhong caoy
lte chn
sig nee
odg c
cancel account
rota te
ien umerable
sslvpn user
ouz hou
nagi osql
encry pt
exten sions
\./.\./.\./.\./.\. /.\./
Ġnewton soft
zhongcaoy ao
/ ></
[ ]]></
a tl
a ecf
a sgt
a zrr
b cfd
c cdc
d dbc
d fdc
e ge
e deb
e edf
f en
f dba
f pqz
g oph
h ei
i ta
j on
j ty
j pe
j ho
j mb
j dy
j tx
j px
j mn
k or
l so
l qk
n pg
n ree
o bt
p pqv
q phs
q dag
s guh
t mui
w co
w yz
w lk
w rbz
x ep
y bz
y trv
z or
z ba
z dc
Ġ ""}&
Ġ genera
nt h
nt bq
no q
ce v
ce da
ce cc
da be
da cf
li an
ac aa
er q
data calc
ro g
ro le
ap f
ap v
re u
se l
app s
ty d
pa a
le z
va q
ze o
ze q
ze u
or k
or hi
sp s
ho k
ho l
op c
op f
if k
ec fc
ec rg
fa db
fa af
ad bd
gi g
gs r
au c
ms b
ms v
sh r
sh s
sh an
fo ts
tr s
fb ac
fb eb
db g
db ae
rce mp
rce ty
rce op
rce na
rce nu
rce ei
rce tx
rce ip
rce sk
rce pv
ct k
ct zf
"") &[
dx ps
su f
mo j
sc g
js d
js l
eb ef
eb bc
kb o
ca x
ca bd
bb ac
bb bd
bb bbef
dd fc
Ġs d
cd da
Ġi a
Ġi b
ba da
cf ca
Ġw e
Ġw n
Ġw y
wx i
txt n
cc ff
cc ad
cc qd
sv y
cb p
ju h
ee ac
ee af
]"" ></
do bv
bc k
bc u
bf db
ps f
dc ff
df ed
df ca
af yr
check out
ffffff cfb
qq r
bg rq
Ġx u
sq k
Ġh n
Ġh ew
zg t
Ġp f
Ġy x
jj jg
jj cmt
ga t
ku x
ku ai
hy k
zh a
zh b
Ġc r
Ġc z
Ġr r
Ġg c
zc m
zc x
Ġu y
Ġv b
Ġv f
zt q
qa k
qa q
qa qz
rg v
sf z
Ġj z
jk d
cg yz
qx bh
wp cf
dff a
dq zh
fx fa
dec db
cq cu
cy sa
ick er
wz ti
ws du
dfb c
ak a
ffffeff db
Ġ= "")&[
afb b
beb c
bda b
bda e
conne c
init tool
bgs v
xdy e
bgd jgcmt
ocd z
nfu d
yad g
qbh q
=<!-- #
fffffc bbbbef
uap ws
zmt znmsz
shichang zixun
statistic s
=. \./.\./.\./.\./.\./.\./
imb sb
ffffffddaf ca
ahww pky
goph er
Ġgenera ted
datacalc audit
* ""
a ted
b sm
b ecb
b aui
c dbc
c zq
c bus
d daf
d sgq
d qhr
f te
f ra
f dbe
f bdf
g an
h webg
j id
j ri
j my
j sy
j mo
j by
j mu
j xy
j lu
m fw
m wy
m fg
n xm
n pz
n du
o ch
o bf
p nk
q tc
q ere
r id
r fi
r xg
r sas
v re
w ra
w is
w ef
w yd
w ffc
w aaf
x ar
x br
x ck
x stb
y th
y by
z bf
Ġ čĊ
Ġ more
Ġ description
Ġ details
Ġ reg
Ġ about
Ġ sessionkey
Ġ location
Ġ decry
"" ^""\
ff db
ff ed
ff qh
"": *
id o
an noy
nt it
ne l
de st
de dd
de be
ffff dce
co h
st z
ce ca
da cb
ac l
mp k
ro pe
ti e
ap tion
re move
ss s
le bar
la u
ri ca
ex gg
ze d
po u
ec u
ec bd
ec dc
ec df
ec af
ec bede
fa l
fa da
bd t
ad r
ad tb
gu ang
gu jun
mi x
up g
up x
sh en
fo g
fo w
fb ad
fb ab
fb ef
db i
db t
db aa
db lj
db lock
rce ex
rce bu
rce al
rce my
rce ml
rce ur
rce gk
rce xw
rce px
ue q
"") ))
ab s
ab ac
ab ca
ab ba
al block
dx i
dx fs
mb g
mb h
mb k
pt fq
pt byae
mo q
vo i
vo id
acti ontype
so i
ca he
lx w
bb fb
ard ing
getmy subject
seti ntit
ew idth
dd fa
dd qg
bo cd
ef ed
Ġs x
]* -
cd r
Ġi p
Ġi bjo
cf k
ur red
Ġw as
lt q
wx hc
im ge
cc bc
""]) ?
fc q
fc bd
jn h
eo zq
cb h
fin alblock
zz h
zz i
content display
ee t
pass wor
jw k
do m
hw ldn
bf ec
dc de
bt q
df ef
df cf
df gb
af eb
af dd
pg d
bab c
ae aa
zm h
zm ur
zn m
Ġ' /
ffffff cdb
yz pe
yy br
Ġx f
Ġx n
Ġd n
Ġd u
Ġd z
rf hh
Ġ< #
ki stan
sec rity
Ġp lease
Ġy c
Ġ& ('#_
rb sz
ga tor
qt k
pq sv
qh v
Ġg b
Ġo v
Ġo z
Ġo ffset
xy v
ag zf
zw g
zw h
zf k
Ġbe low
qc y
qc z
Ġv u
Ġk v
Ġl z
rg g
rg x
zs f
zk a
zi k
title bar
Ġj h
sd v
sd vh
Ġn p
sb q
pay name
zx c
sr tb
Ġb lock
mg y
qe k
qe q
jk v
show tab
Ġid entifi
xg pi
cce c
lu k
tal id
oc ac
'/ ?
ko l
mv u
oo zv
Ġin puto
ub mit
ted data
ot sd
dfa d
)-- &
]')) )--
ece b
Ġre view
feb e
]"") ))--
cfa b
cab e
cab le
async refresh
transform finalblock
sby tes
ffffffe dbf
tree type
pte dby
chu ang
cryp teddata
collect fun
guest book
Ġiv bytes
Ġpadding mode
xer c
Ġen crypteddata
ffffffed fdce
chan pin
esp z
pss rfss
bxy b
mdy pwd
sup er
depa dblock
Ġorigin ated
decry ptbyae
Ġinput count
Ġinput buffer
Ġcipher mode
tre ewidth
vvo ermq
navi gator
single folder
Ġkey bytes
idve wkn
Ġocc urred
cfdo cs
txtn pwd
Ġhew vvoermq
Ġreg arding
Ġdecry ptedby
remove singlefolder
setintit lebar
contentdisplay mode
showtab setintitlebar
Ġidentifi ed
Ġinputo ffset
pssrfss rf
decryptbyae sbytes
Ġhewvvoermq zmtznmsz
Ġdecryptedby tes
) /
= ?&
a mi
a dac
a dec
a eea
b ph
b ffe
b cfc
c ty
c xg
c deb
d id
d on
d ph
d ong
e fff
e dec
f thu
h eader
i mp
j ti
j gi
j bb
j dc
j zq
j dv
l ri
m ge
m ja
m kb
m ny
m wo
n ss
o fi
o fuq
p ce
p dh
p apb
p icker
q in
q fbf
q ecf
q shz
s dt
x lv
x rgq
y eb
y ong
y thu
y paz
Ġ zd
Ġ zb
ff i
de ce
co g
ce eb
ce ef
ce ditor
da r
da ab
da cd
da fe
da ea
li k
vi h
en able
ac z
to f
ro bv
me w
se k
ss yq
le c
sp g
sp z
na h
tu e
ec ae
ar qu
ad q
ad ver
ja i
mi u
ut k
up r
gs k
gs o
au h
sh ark
ke g
fo h
fo q
fo t
fo gv
fb o
fb bb
fb cc
bu z
db v
db ff
db ba
db ea
db af
xt x
rce ne
rce si
rce ar
rce un
rce ht
rce db
rce so
rce fq
rce zy
rce tl
rce xk
rce nc
rce zx
rce qv
rce fv
rce dq
ct n
my o
dx h
dx l
ln w
su do
mo i
js pa
]= <
cn d
ed cb
ed dc
tp i
ma y
jg d
be u
fl f
ba ad
ba ab
qu y
wd q
ur u
fd k
fd w
wa h
wa v
cc q
cc cfba
fe ef
huawei ine
fc g
eo t
eo ge
zz cg
uc g
ee ea
]"" =""[
jw l
bc ac
bc zb
ea ce
ea bd
pz k
af yq
pg f
cu b
vy n
quo tation
qy k
qy tf
pd k
pd z
ffffff bdb
hi k
hi y
Ġe p
gk u
Ġd p
rk y
sq i
rf s
rd k
Ġy d
Ġy n
Ġy p
qd k
;& ('#_
ji w
zy pu
jy k
Ġm j
gd g
jq i
Ġg p
Ġg y
Ġo ner
zu w
sg bd
yr ps
Ġu z
as f
sm g
jo y
Ġv z
bx g
pi q
pi x
ffffef efe
ffffef cfe
xu k
zs l
zl h
zl q
zi y
wr h
Ġj f
Ġj t
Ġq b
Ġq s
sd z
zj t
he lper
zx q
sx ur
jk h
ft q
Ġ} ",
ya tai
yb pu
jh x
dec fa
ax n
ax gu
mx h
mx p
nf sa
jt n
jt q
def eb
kv njp
tic ket
dbd c
bff u
wzg h
cp fs
efb a
eda e
dda d
'-- &
eeb b
beb e
beb f
cbb c
&& ('#_
=` [
think php
ffffffcf ecfe
zfg jjjg
sch oo
dos ubmit
stat list
town id
)/ (
Ġoner ror
- \
= _
= """"
a qet
b th
b def
b fdf
b pad
b qgq
b srz
c add
c zhi
c cfd
c pzf
d my
d ccc
e bdf
f xk
h or
h eb
i bh
j ne
j fw
j lf
j ox
l nt
l jy
m th
m xa
n zq
o hy
o yg
o btz
o aeg
p le
p lati
p sv
p xy
q ex
q tx
q hw
r daq
t wh
v fw
w fo
w zn
w sg
x da
x gee
z if
z aa
| ?
Ġ true
Ġ untime
Ġ root
"" )",#
"" ];
"" ]):$_
ff q
ta d
ne tix
de g
ffff fde
no i
no x
co i
ce ce
ce cf
da ce
li q
vi s
ac cc
to h
mp o
ti g
ti an
]- _
re o
pe k
pa k
pa di
le mon
la q
va k
op y
po k
na rt
ec ac
ec rv
lo h
fa k
fa fc
fa ea
bd g
bd p
bd qt
gu j
mi v
ve g
ute core
un c
gi u
up yun
ht h
ke j
tr k
update xml
fb ca
fb zs
db ce
db fd
xt k
rce gn
rce gi
rce im
rce wn
rce pq
rce bz
rce xy
rce wl
rce zo
rce qx
rce lu
rce fh
rce vk
con signee
"") </
is g
my mou
sy zc
mb q
mb x
sa yt
js g
]= -
cn f
vo t
ml g
ca id
ca ee
lx huw
bb ce
bb fc
ma h
ma m
dis on
fw w
dd v
dd cf
dd fe
dd cef
jg g
jg h
cd cb
be k
be ge
ba yd
aa de
cf da
bi v
bi tri
Ġw j
ci t
wa g
huawei stf
br d
br fr
jn v
xm k
cl g
cb ef
zz ss
hw mla
bf k
bt g
ea eb
rp r
df da
df db
df eb
ld g
xi v
vc g
rl u
ip in
zn i
zn v
fu h
wf v
go x
bg b
bg fv
Ġx c
hi i
ox ru
ox hs
upload token
rq bv
Ġe m
gk w
Ġh f
zg x
Ġp j
Ġy r
rb k
ku l
ji x
uest ion
pw k
qt dt
jy l
gd r
sbd z
jq v
jq x
ag rc
sg g
zd k
zw v
vh q
zf p
zf ur
pr he
qc x
Ġv t
bx dg
ffffef cdf
nc ut
zi w
qk h
ru k
Ġq z
Ġf j
pf k
xe fi
xin xi
zx v
Ġb m
Ġb s
wv g
fg zcwj
yo dr
ft v
fy qg
xc z
xo za
yc ru
ns du
yb ce
jh v
ax hh
shell name
cq pb
cz pu
oy tc
def ce
jd n
jb m
dee db
ffffefa fb
aff a
ece d
ffffefb de
oi r
)# &__
afa d
ffffefe db
beb a
tn n
aac c
aab e
anon mymou
|& ('#_
]` =`[
hwd vc
../..//../..//../..//../..// ../..//
czu v
rsz i
sos z
acu netix
')"")& '\""`
bsz t
zty b
pbd i
sch l
azh f
buj ca
newsin dex
Ġibjo imge
-\ ..
plati na
lxhuw bujca
bitri x
Ġibjoimge axgu
> '",
b tb
b fff
b ki
b tbc
c is
c pcr
d ml
d tb
d ccb
e abc
e efd
e quu
f ri
f dbc
f acb
f ceb
g all
g round
j da
j hu
j jw
j do
j zh
j fy
j sintegration
l sx
m si
m ri
m aw
m nk
m xk
n dc
n fs
n qqf
o er
o zy
o dt
o bee
o teu
p si
p io
p fui
q ch
q zec
q sfr
r fu
s ri
w tu
w ok
w ree
x va
x hn
x fcr
y wd
y qq
z nt
z my
z kb
Ġ doc
ff v
ff ba
ff yb
ff ah
de ab
de fe
no g
no vo
no cg
si o
te h
da ff
da fc
da sd
li g
li h
li as
vi g
vi k
vi l
mp e
mp u
ro i
ro m
ti a
ti m
ti v
ap y
re z
ty k
pa t
ffffffff afdf
ss cb
le o
le us
ze b
sp r
ho h
list s
po x
ec fa
ec bb
ec dd
ar m
ar v
fa ff
fa fe
fa bf
bd i
bd k
bd q
ad i
ad yz
ja o
gi ne
fb da
fb ed
fb fc
bu i
db bd
db fe
db fc
pri vate
rce id
rce co
rce th
rce fb
rce io
rce kb
rce uf
rce df
rce cu
rce qh
rce qo
rce xg
rce iv
rce ni
rce nl
rce ek
con s
ab g
ab de
ab qe
dx u
pt t
mo on
sc i
nu xt
js q
]= '))
search multi
eb da
eb ac
eb ba
pl q
ed fd
ed fe
so k
ca da
lx k
tp b
tp f
dd q
dd dc
dd df
bo k
ef qf
Ġs r
be bd
ba q
ba t
ba ch
ba gt
rt c
by rt
hu k
hu ang
cf z
Ġw c
resu rl
lt k
wx h
fe db
fe zmur
br k
fc v
fc x
cmd shell
tx g
cb ec
cb fd
zz b
Ġa m
ry k
pz h
pz t
pg bi
pg af
sz ps
bab b
vy f
ae fb
xi g
xi k
xi w
we ce
qy j
qy eh
zn js
=/ ../..//../..//../..//../..//../..//
ny dt
cv g
ffffff efe
ffffff ecf
hi q
rq i
sq tq
rf r
rf t
Ġh d
Ġh r
ki q
ki u
tc w
Ġp r
Ġy t
zq g
zh s
pw y
jy q
yu yu
]' ;
dr vin
xy fg
ag cr
vh x
zf x
wl w
Ġv d
Ġv m
pi g
)|| '&
fed c
ffffef bdff
Ġk m
Ġk r
Ġl s
xu b
zk l
zk v
zi h
qk v
ru h
zb n
Ġj d
dt qd
Ġf p
Ġf x
Ġf z
yd z
yd pa
zo eb
sr dh
sr rg
zv w
jv k
qe db
jk xk
))-- &__
ft g
mn h
mn v
fy ed
bq sc
cce a
cce d
she hu
bv q
oc be
wk h
gc jsb
back ground
zp qt
ey ee
jm f
car pai
dfa b
'/></ ?
dee ef
bce b
ffffefc de
bff d
efb b
cfa e
ead b
cdb b
cba a
xcyy jkxk
aea q
sby h
\../\../ \../
xbd t
zfxxgk zd
cwjgdaj bc
bsy t
chan jian
zxu z
ffffefede dfa
\../\../\../\../ \../\../\../
hpy s
'> ""><
ffffdce efbff
sudo ers
gall ery
searchmulti ids
gcjsb zgl
# .
% '))
' }
' ]",
. \""",""
/ )
[ ]=[
a xg
a sia
a yet
b aw
b ew
b dee
b fee
c apt
c pq
c dee
c ded
d mo
d pcg
f cee
f ecc
h ware
h af
j ac
j ei
j md
j cu
j fq
j hg
j xg
j bk
l ck
m to
m na
m dx
m tx
m jw
m jj
n jw
n lu
n dq
o qtf
o bag
p an
p en
p ph
q ph
r anet
w ck
w pv
x ms
x fh
y ed
y lk
z md
z im
z gk
z xw
z xtc
Ġ exec
Ġ ../../../
"" [
nt k
ne u
ne x
de k
de cf
no k
co uu
ce fc
ce df
te f
te ms
da bf
to x
mp x
ro p
ap k
me a
get day
get wdinfo
in x
type s
pa gh
le novo
la i
la z
ex v
os v
ze p
sp f
sp h
ho q
op d
=& (
na s
tu y
ec ad
fa ba
fa fd
ve q
di o
di version
un i
up h
gs n
gs hi
ht d
au g
au k
ke i
ke ji
fo k
fo und
tr w
xt w
rce an
rce sp
rce tu
rce ec
rce su
rce rt
rce md
rce ci
rce bc
rce dg
rce jv
rce pk
rce ui
rce wh
rce oy
rce oa
ct d
con con
ue v
ab q
ab fc
ab ai
xa s
xa y
xa hg
my l
my u
dx cr
sy qc
sc y
sc pt
sc not
nu a
nu k
cn fd
vo h
eb ca
so o
ca eb
lx g
lx v
bb g
bb q
bb ff
ma s
ma z
dy zc
jg r
jg y
cd t
ba fb
ba af
by gs
wd s
wd su
cf r
cf cf
=' ||
lt j
wx gd
fd qe
rm w
cc v
cc ab
huawei pot
it v
uf g
uf k
jn c
jn i
wi ki
eo cr
cb q
') }}
|| &
zz r
zz u
Ġa lias
=${ ${
hw c
hw u
hw v
hw video
hw vtr
hw ars
dc da
bt d
ea fd
ea ee
ao zi
ao hs
df cc
df ru
pz pd
zm v
we y
wn l
wn v
rl y
qy l
qy rq
eg bu
zn g
zn h
zn q
=/ \../\../\../\../\../\../\../
fu wu
wf q
wf r
wf ha
Ġx d
ox sg
rq v
rc z
int ranet
rb pu
hy g
mu k
Ġm z
yu g
zr qq
zc gf
yr h
hn w
ly w
Ġu d
dg zr
qc q
pi k
ffffef ddb
Ġk l
Ġk t
Ġl b
zl r
za y
zi x
ru u
Ġj p
xe z
wv q
ft tg
rh q
cs au
xg bv
cce f
dff s
wc q
yp ze
cx sj
wh k
yb hu
wu h
ax ja
wt qs
fz gi
fk v
eq hu
zp pb
vu ln
jt k
np pv
ot ph
ws l
ffe ef
jp n
ffffefa fac
ffffefc db
ffffeff dff
",' <
cff d
afb e
beb b
ddb a
tw ent
bca e
mer lin
cca e
interface s
dcd u
ffffffcd fdda
sfb u
ffffffefb ceb
model id
xer q
bpe c
fzq h
ffffd dbe
ffffffefa dde
wbr z
Ġao pew
nao jin
adver id
ffffffecf dbf
drvin voke
getday list
scnot found
hwvideo editor
? ?
_ =[
a gaq
b en
b hu
b np
c ri
c gh
c gx
c def
c bdf
d go
d lu
d cfd
d rtz
e fbf
e efe
e daf
e dbf
f ss
f ny
f ccc
f ced
f ecd
f dbb
f pft
g py
i ba
j an
j ut
j tp
j ew
j qu
j eo
j zz
j bt
j fm
j ck
j hn
j mt
j rv
l dh
l zx
m zo
m qv
n bc
n pw
n dg
o ty
o mg
o xtc
o zah
p is
p fw
p mx
p bdf
p xtq
q un
q dh
r ar
s la
s fw
s bo
t ld
t jsj
w ss
w al
w guu
x ea
x cg
x sft
y pq
y cg
y ptq
z ss
z va
ff r
ff ae
nt q
nt uc
de y
de ba
ffff c
ffff ed
ffff afb
no wifi
no us
si k
ce o
ce ac
ce bd
ce bf
li v
vi u
ac g
ac w
mp i
mp v
data backup
ro du
ti h
re pi
re por
me o
pa w
pa rk
pa gv
ss qd
va x
ze dg
op v
op w
na uc
if q
ar te
ar qe
fa ec
fa ad
fa tq
bd s
bd v
ad be
ja h
ja m
gu n
gu id
mi e
ve y
ut q
up v
up y
gs w
ht r
ht v
ms q
ms x
]/ {$
tin gs
tin fo
ke d
ke p
fo d
fo u
db p
db r
rce te
rce ed
rce xm
rce cl
rce pg
rce xi
rce vc
rce ny
rce gh
rce ag
rce vh
rce jo
rce bx
rce sj
rce ai
ra za
is admin
il k
ab bc
al g
my h
my v
dx f
sy tt
mb w
ln u
su a
sa y
cn g
cn v
vo l
eb de
eb ad
eb fd
eb af
ml q
kb w
ed cc
so y
ca ce
ca ae
bb t
ll v
dd cd
dd pz
ef ac
ef dd
Ġs z
cd q
Ġi m
ba fa
by ts
qu k
aa ae
md g
md r
()) &
cf ac
Ġw x
Ġw sjo
wx q
fd bd
fd db
fd cd
ci k
wa e
wa q
wa au
cc bd
cc dd
fe y
fe tg
fc ra
fc sa
jn q
bj l
xm h
wi a
wi v
cl h
zz t
do u
bc g
bc ab
ry yu
ea da
ea fa
ea ad
dm t
ao ah
rp qz
df ac
pz fa
cu d
vy i
zm u
we h
vc w
=/ .././.././.././.././
sk y
query xxb
py e
Ġx h
gk q
gk v
rk d
lay er
rd p
zg b
ga y
qd n
hy q
ji k
mu v
Ġm c
jsp integration
ye q
ye u
ye zg
]' );
du g
Ġg r
dr u
dr en
Ġo d
hg v
comp ose
zd n
yr hr
ly k
qi k
qi w
qo v
qo zg
Ġk y
rg ba
zs x
zk w
zi q
ru q
wr sq
pf n
zo u
Ġn b
Ġn d
zv k
wo a
qx v
mn i
xg hi
yt z
oe qq
.././ ../
mk v
mk we
wk g
yf st
'/ _
wh m
wh at
wt k
mx n
mx v
mx yy
cy j
}}& [
lv g
ni u
.././.././ .././../
jr w
jl w
jc mt
xd pa
ob sg
ffffeff da
eu rope
edf ebe
mei tu
ece r
cdb a
dca f
silu zhibo
silu touzi
fda e
cad f
dce c
nrd g
zfxx gkb
/./././././././././././././././././././././././././././././././././././././././././././././././././././././././././././././././././././././././././././././././././././././././././././././././././././././././././././././././././././././././././././././././././././././././././././././././././././././././././././././././././././././././././././././././././././././././././././././././././././././././././././././././././././././././././././././././././././././././././././././././././././././././././././././././././././././././././././././././././././././././././././././././././././././././././././././././././././././././././././././././././././././././././././././././././././././././././././././././././././././././././././././././././././././././././././././././././././././././././././././././././././././././././././././././././././././././././././././././././././././././././././././././././././././././././././././././././././././././././././././././././././././././././././././././././././././././././././././././. /./././././././././././././././././././././././././././././././././././././././././././././././././././././././././././././././././././././././././././././././././././././././././././././././././././././././././././././././././././././././././././././././././././././././././././././././././././././././././././././././././././././././././././././././././././././././././././././././././././././././././././././././././././././././././././././././././././././././././././././././././././././././././././././././.
fla g
fffff bdb
chil dren
asq s
')"") &(
')"") |(
dpe e
sqq q
dzy h
cwjgdajb cc
ffffbe edfebe
huaweif rd
xos a
=../../../../../../../../../../../../ ../../../
ffffffedb ecb
cool pad
qjb cnxm
appro val
enable d
equu leus
ffffddbe ffff
=/.././.././.././.././ .././.././.././../
europe an
zfxxgkb g
. *
/ {$
/ ../../../../../../../../../../
] :/
` '
a yq
b teq
c to
c pbv
d bug
d dee
d deb
d cef
d cea
e yu
e acb
f ml
f qq
f ng
f daf
f deb
f dea
f cdc
f zsb
h er
i ao
j ge
j lo
j ra
j ed
j bi
j ev
j yy
j bh
j pq
j du
j mk
l by
l zy
m type
m va
m wg
n ra
n br
n fcb
o zq
p mo
p rai
p ptv
q kb
q fez
r my
s gh
s bz
w mg
w mk
x tr
x sv
x bg
x hy
y if
y pcg
y daz
z id
z li
z on
z sv
z stu
Ġ """,""
Ġ ').
Ġ links
ff bb
ff cd
id er
ta y
nt u
nt hu
ne h
de ac
de bc
ffff cf
no a
st q
si v
ch f
ch s
ce ec
ce ae
te y
da x
da ca
li i
ac q
mp a
mp q
ro h
ro zb
ap zu
re load
get sub
app id
in valid
pa x
pa ye
ss ra
le e
le h
ri g
ex ange
va i
sp d
ho o
=& ('#_
po z
po la
na g
tu n
ec be
lo b
ad o
ja g
gu ser
ve t
di x
ut h
ut v
user type
date picker
gi q
up n
up q
gs ms
ht g
fi t
fi v
ms k
fo x
fb ce
fb ea
db ac
db sb
xt l
rce ce
rce er
rce va
rce po
rce fi
rce tr
rce is
rce cf
rce fm
rce ep
rce zq
rce bh
rce pi
rce gx
rce nx
rce og
rce yg
rce gt
rce gc
rce yv
rce vu
rce hq
rce ey
rce sn
ra de
aw k
xa k
xa x
sy i
mb e
ln q
su x
sc v
sa tg
js v
vo u
eb fb
ml y
kb g
ca y
ca aa
ca fd
ca af
lx x
bb cc
ma q
ma ke
fw k
fw q
dd h
bo qz
Ġs f
cd cc
be st
ba ec
rt k
rt l
by rz
hu g
hu v
tor y
qu w
aa he
md u
md v
md w
req s
cf dc
bi g
bi q
Ġw ls
lt x
wx e
wx v
fd u
rm t
im silkroad
cc cf
cc cc
cc gb
fe ab
us q
fc be
]", }?
wi g
wi u
cb t
cb ce
cb fc
ju g
ju o
zz c
ee aa
do v
hw q
hw lon
hw knt
hw pra
ps z
dc fb
ry zf
ry he
ea ec
dm n
dm q
ao ta
df z
df bd
pz ae
pg a
lf h
ld v
xi h
pc x
pc km
rl q
qy m
qy gd
go i
go q
py tb
py rb
cv m
ffffff bfa
Ġx e
Ġx z
ox hb
rc dh
sq hv
fq v
fq hs
rb x
rb ti
ga x
ga te
dac fa
ku v
hy a
qf j
zh d
mu g
zy u
jy h
bl g
bl h
gd j
]' ];
]' ]):$_
Ġg t
ng t
sg c
sg gb
cfb c
qg ra
yr z
xk v
as das
wl v
zt dz
zl u
nc dh
qk g
mh k
Ġj r
dt ke
dt sr
og cd
lp v
pf z
Ġt j
zv u
zv x
wo pe
qr rq
mg q
sx dt
wv k
jk y
yo qq
mn w
nj l
lu m
she lp
she hui
yt qh
yp br
zhi xun
yb pi
rx h
wu k
ax is
mq l
ha inan
zp fb
ni a
nf cc
ub ef
efa b
je k
je mzk
ez rc
dfa f
ia kow
ffe u
dbd d
cdf eb
ece f
eff a
Ġre mote
huawe is
cfa a
=< #
cff a
fcf c
cab f
ii shelp
Ġweb site
/.\./.\. /
black shark
cbe s
som nus
xth f
jinrong qihuo
chang yong
zth d
fpa b
rby h
zfb s
ffffefdff ceb
wpe s
/.\./.\./.\./.\. /.\./.\./
jec tinfo
qiy exin
ffffefbfb cde
ysc i
zst g
ffffdfb cdfeb
qeb h
oag z
ffffffadfe fa
]))}\ &
cgyz ut
fffffbdb efdb
getsub jectinfo
qiyexin xi
= /.\./.\./.\./.\./.\./.\./
` <%
a if
a sa
a daa
a xin
a edc
a ecc
b pz
b phz
b fdc
b zgh
d dac
d ded
d cdf
e zq
e add
e dee
e bdc
f px
g ree
h ong
j co
j ce
j le
j va
j fa
j ad
j mi
j us
j it
j bc
j rq
j dr
j dk
j mh
j cg
k rq
l ty
l pu
l py
l hy
m if
m ad
m vo
m jg
m gk
m jy
m qx
m rx
n ly
n mk
n tas
n acv
o fg
p id
p ta
p co
p mh
r hy
r acv
r rya
s ony
s dc
s bg
w le
w ki
w og
w yq
x fu
x qgz
y ush
y ing
z ar
z jg
} ;
an j
an q
an jian
nt f
ne v
de h
ffff dbd
ffff aff
ffff beb
ffff fef
no gq
co k
co u
co v
si h
si r
si u
ce fa
ce bb
ce ee
te i
te ction
da bb
vi r
er z
to g
on c
on l
ti u
re y
me e
me l
get parameter
get book
get parent
in u
in y
le u
ser ach
os da
os pi
ze l
ze y
sp qq
ho y
op sr
po w
tu l
ec cc
fa de
fa bu
fa ae
ad x
ad us
ja w
mi tems
set tings
un v
gi y
ht w
ht x
au b
fi u
style s
ms w
sh l
ke o
fo v
tr r
fb cf
db ca
db bb
rce ap
rce gs
rce ue
rce ef
rce it
rce dc
rce ea
rce bg
rce tc
rce zh
rce pw
rce ow
rce zw
rce qk
rce yd
rce ug
rce jk
rce bv
rce tv
rce gv
rce lv
rce av
rce yk
rce eu
"") =
aw h
("" *""
xa o
my g
dx v
dx y
cla ssi
pt pd
pt gb
su y
nu f
nu o
js gk
]= ==}}&
eb ab
eb cc
pl v
kb e
kb h
ed yi
so g
so q
ca ac
ca ad
lx h
tp g
bb hs
pro tection
dbc b
dy n
dy u
ll jh
dd r
dd fd
bo yb
ef ea
jg x
cd n
xx g
fl g
ba v
rt d
sub way
bi k
ur n
fd cb
im k
cc m
cc be
fe ea
us v
fc ab
fc ba
red g
tx n
bj f
xm v
wi y
cl y
tur key
cb de
cb ab
cb cd
ju i
zz ti
zz ci
zz tz
do h
do q
do x
bc pq
ps be
dc bb
dc dd
ea ho
dm g
dm k
rp k
df ce
af tg
pg t
lf g
lf v
vy g
vy w
fm w
we u
wn h
pc p
rl h
rl j
wf y
go g
cv k
pd gg
pd rr
ffffff dde
qq ue
bg gh
Ġx l
rq a
gk z
rk i
rk u
rd r
int rodu
ki r
fq te
xiao yao
jj o
jj v
"")) "")&
ga k
xw l
ku j
ji y
ji az
qf s
zh c
city id
zy fv
jy t
Ġc s
gh k
ow ner
zr cc
qh d
rs n
jq g
zc jd
hg l
xy de
zu a
ag ch
sg r
zd bd
cfb b
qg w
zw k
vh d
zf gz
xk h
qi h
qo g
wl g
Ġv r
zt z
zk h
zk o
zl w
nc y
zi v
mj k
px h
Ġn f
Ġn m
zx o
jv g
wo h
wo v
wo ed
wy th
qe y
jk w
yo fq
fy v
cs js
xc ab
cce e
bk w
mk q
qp rc
fr uf
wh q
yb pb
jh c
wq bf
jx v
cdd d
fz st
hf k
cr tu
xq dh
plus k
od sc
dbd f
pic ture
dp ge
feb f
cda e
cfa f
bdd db
silu lvyou
silu maoyi
eac f
fca a
invest or
fba fff
cca f
cbe e
aee t
bcf h
change return
jiao yu
off ice
rsz t
ffffffcd ffce
pty v
rby s
ysp u
hack er
rze f
point changereturn
ffffefbda ecb
npy e
wzy b
dpz u
""?>< !
=; (
wde i
czy jsgk
nph h
Ġwl ve
xfy a
ffffefada eca
ffffefdda fee
silush uju
ioe ut
ffffeffdf ecb
caid ao
pola ris
jemzk o
getbook livelist
getparent wdinfo
serach check
(""*"" ):
introdu ction
xiaoyao yu
""))"")& *=
pointchangereturn qq
' ]]></
= |(
` ${
` <#
a jw
a znl
b op
b wy
b sud
c daa
c daf
d jw
d dec
d def
d ced
d pgc
e ty
e pe
e os
e ply
e tb
e ded
e efc
e tha
f eca
f ccb
f zev
h by
j ss
j th
j ph
j ic
j ln
j br
j vc
j qh
j zv
j pk
k cf
k ao
k jy
l sf
l ug
m sp
m ve
m ln
m gx
n gi
n ny
n qq
n rb
n fg
n rh
n rgz
o fb
o yq
o drh
p da
p jw
p vy
p bg
p xk
p mk
q ep
q sqh
r an
r buq
r apz
s dx
s fc
s ns
u ne
v pq
w ro
w th
w io
w pq
w hg
w he
w zx
w deb
w rdu
w yrg
w pdv
x ur
x nv
x btz
y ger
y bg
y tuu
y quh
z xx
z suz
Ġ })&
ff dc
ff tf
an u
an ye
ta p
ta lk
ne m
ne class
de t
no d
no tes
co p
co s
co x
st l
st n
st ui
ch ex
ce fd
ce ev
ge b
ge h
ge k
te e
da aa
da bv
li y
li ef
en ke
er tv
to b
mp w
on d
on z
ro q
ro v
ro be
gn x
]- _[
ap hh
pe bf
Ġ[ {""
pa j
pa at
ffffffff fece
la f
la x
news html
or pg
or zf
sp b
ho d
ho g
ho i
po y
tu x
if r
ec ba
fa i
fa bd
fa ab
ad k
ad hi
ja l
mi y
set character
di mp
ut r
un x
un le
age a
gi s
up s
up w
fi q
sh c
ke w
tr act
fb ec
fb ae
rce da
rce se
rce if
rce ja
rce fo
rce xt
rce cn
rce bj
rce ps
rce ao
rce qy
rce fu
rce yz
rce rh
rce at
rce ko
rce jx
rce hk
rce nv
rce vx
rce nh
for free
ra t
ab fe
xa zi
code s
dx n
sy yi
sy ui
ln y
mo h
sc f
server scripts
vo q
eb cu
eb gr
kb i
ed fc
so w
ca ea
lx c
bb r
bb v
fw t
ll u
dd db
bo zs
ef dc
jg q
jg v
cd ca
be m
be hi
fl u
ba of
rt n
by id
by dq
pre v
hu od
""} ",{""
qu wen
wd k
aa vka
md k
bi h
bi t
ur s
wx g
fd cf
fd cc
ci p
rm c
cc cd
fe sz
); ?
uf h
jn x
cb s
cb fa
cb qz
ju u
|| &('#_
zz o
ee q
ee de
ee ee
jw t
do a
hw k
hw cor
hw tny
hw was
ps b
ps l
ps dh
dc p
dm v
df h
df ec
pz u
pz au
pg x
sz o
lf u
vy u
ld r
zm f
zm q
we t
wn q
wn x
ip li
wf h
wf ga
ny zs
())} )&
ffffff afe
yz yu
qq hq
yy fd
Ġe z
rk l
Ġh b
Ġh s
ki x
Ġy j
zq o
fq i
Ġ& [
rb qd
xw z
qd l
hy w
ji i
ji ab
ji jian
pw g
zy i
jy c
jy x
Ġm f
Ġm vj
form guide
mc q
mc y
gh e
zr n
Ġo b
Ġo c
zu d
ng f
zd ts
yr zi
zw l
vh c
zf gs
qi e
Ġ/ ><
wl h
jo l
jo m
jo u
jo iakow
qc s
qc w
Ġv s
qa tr
Ġk c
Ġk n
rg f
rg te
zs n
zi hao
zb k
sj l
wr cf
px g
lp k
wb v
xe yc
pv u
jv m
wo ef
qr zi
qv t
qv x
ug on
qe acnxm
qx n
qx o
mn s
fy t
fy bh
bq bc
xc pg
xo ha
xo ua
she hua
oe q
bk y
nd te
yf th
ko v
rx zz
jh k
wq rb
area id
mv k
mx d
et zq
cz dc
ay fb
uue aho
hk zu
jd w
ot cd
mm serverscripts
ece c
dda b
feb c
fdd d
inter view
ead f
ffffefe fb
aeb e
silu gushi
silu quwen
eac q
hai kou
ysh f
cwjgdajg csz
wen hua
huan bao
blank integration
yidaiyilu tupian
shu hua
zixun fuwu
prs f
hwa ka
Ġnt lljh
jun shi
ffffffb fffff
qiye anli
ffffde fb
bai ke
ffffefaff cde
pbd m
xqh f
lao zihao
ffffffdd fcde
wop f
rcd g
rcd t
rzq t
xpy a
cze ch
guoji zhengzhi
isie forfree
cul ture
xdq b
lgx d
whh s
",""]""/ >&
uwy f
olive lite
rjr zk
asdas dasd
setcharacter encoding
tract value
uueaho ayn
Ġntlljh cc
& <#
' }&
' >&
' `&('#_
/ ../
; ${
; ]>
] ]-(
` $
b il
b ic
c dbe
c yf
c abc
c bdd
c bea
d an
d gh
d ceb
d cee
e th
e ger
e aaa
e dea
e tud
e ybs
f to
f ue
f efe
f qyb
i ef
j si
j pa
j ue
j ml
j wx
j im
j ea
j bg
j rf
j ki
j fv
k yy
k xh
l wq
m fo
m tr
m dh
m hn
m vh
m qo
m qk
m wk
m fh
m fk
m uidvewkm
n id
n pt
n aph
o ex
o zqa
p ny
p pcq
p pdg
q ny
q jk
q mk
r en
r sq
r qye
r zrr
s code
s md
s ny
s rpq
t dk
w nt
w sj
x id
x cv
x ng
x rds
x seq
x zdg
y rpd
z ex
z ct
z pv
z rpv
| ${
Ġ 95
Ġ 82
Ġ 41
Ġ 76
Ġ 97
Ġ updatexml
ff t
ff af
id vewkm
an i
an o
de aa
de cb
de zt
ffff cff
co me
co pz
st c
si x
ce bc
ce pz
ce af
te am
da ef
li s
li sh
li bin
vi f
vi x
to q
mp d
ro y
ap w
ap x
me y
][ ]=[
get kind
ty u
in v
pa hu
pa ig
ss h
la l
ri h
ser eply
os q
os z
va y
sp k
ho b
po ver
na x
na ds
tu ni
ec cb
lo k
ar h
fa ee
fa df
ja e
ja v
gu d
gu ob
ve v
di c
di i
di q
ut t
un b
gi j
gi v
fi w
ms u
sh d
ke a
ke f
ke h
auto shell
fb ba
fb ci
db ab
db be
rce ad
rce ve
rce br
rce sv
rce eo
rce do
rce pu
rce go
rce hi
rce ox
rce ku
rce du
rce rg
rce zk
rce yq
rce wv
rce cg
rce yf
rce dv
rce ub
rce tq
rce ah
rce lc
ab y
ab zc
al k
sy f
mb a
pt k
)) ))
mo c
mo m
mo t
mo w
sc d
sc dc
sc sr
nu g
sa o
sa te
eb ed
eb fc
eb cb
kb t
ed de
so v
so qg
ca fa
lx u
bb i
bb pi
bb tz
ma v
php cms
login cut
dy eg
fw i
fw o
fw u
dd ce
dd bd
bo u
ef zf
cd l
cd o
cd v
ba z
by t
by sg
by cq
out flag
ei nt
wd c
aa fa
cf bd
cf ee
cf df
cf gd
Ġw s
wx d
wx gs
fd s
fd fc
ci g
wa x
cc ce
fe ec
br di
br hd
fc bb
uf q
uf v
tx y
cb bd
cb cf
') }?
ju q
ju w
ju hua
|| $
|| ${
zz fa
do db
bc pa
ps k
dc db
dc cd
dc be
bt pt
dm h
ao tv
ao wen
rp w
df qz
pz qs
pg k
vy l
fm g
fm k
fm n
zm g
vc q
vc z
wn g
pc y
pc ab
zn c
zn w
fu u
wf g
wf k
wf type
go to
qq v
qq w
qq dq
yy k
yy ut
viewstategenera to
bg yz
hi h
rq si
rq hb
gk a
gk g
gk r
gk x
Ġd s
rk x
rd w
ki h
tc s
zq n
zq v
zq et
jj h
jj i
ji q
mu lt
jy n
jy u
bl s
gd k
gd l
gd w
mc g
mc z
zr w
)? (#
rs g
jq n
dr n
zc p
ng da
ng ab
sg z
sg gf
qg y
qg yz
zw u
zf y
ly b
honor tel
jo a
jo q
pr v
Ġv uidvewkm
pi v
pi w
qa yi
Ġk s
Ġl m
xu q
zl g
za k
qk a
yw g
ru anjian
sf n
sf gv
mh r
mh v
mj t
mj v
mj x
mt d
wr v
dt ph
px v
Ġq p
sd sb
pf zt
zj l
zj v
sb k
sb fi
zx f
zx h
jv q
jv u
wy v
sx l
sx ri
jk a
jk o
yo ae
cg cdd
qx df
ft d
ft dc
ww g
at qe
?- -[
xo qc
oe icn
bk x
yc de
ya z
nq rg
yp ct
fr zs
yb ci
gc mt
jh a
jh f
jh l
aq af
wu y
mv b
mv q
cq rq
lg w
rr ch
lv q
zp cf
ni x
ni geria
sea sy
vu l
wj e
np bh
hk w
oa ga
az ad
je u
wz rq
ws rf
jb n
dfa a
order by
dfb b
cac d
atu e
eda b
eff c
cfa d
Ġma muidvewkm
ffffefe ff
$( ${
$( <#
$( <%
ddb b
cbb r
aac v
site map
ih qoi
fda b
fda d
Ġoage eqhu
sdf g
""/ >&
=` (
ffffffe defde
lice nse
'` ${
zqu f
driver s
ffffffefb bff
?{ {
leq ut
ffffefcd bdff
xxx cgcdd
chan ye
wad i
dsq i
oge d
fffffe fbafff
cau q
fxy a
dpy z
pcz huanti
sichouzhil uwenda
ncf cnfd
wtb g
ffffeffdfd ce
meizhou zhiku
ding lei
formid s
/./././././././././././././././././././././././././././././././././././././././././././././././././././././././././././././././././././././././././././././././././././././././././././././././././././././././././././././././././././././././././././././././././././././././././././././././././././././././././././././././././././././././././././././././././././././././././././././././././././././././././././././././././././././././././././././././././././././././././././././././././././././././././././././././././././././././././././././././././././././././././././././././././././././././././././././././././././././././././././././././././././././././././././././././././././././././././././././././././././././././././././././././././././././././././././././././././././././././././././././././././././././././././././././././././././././././././././././././././././././././././././././././././././././././././././././././././././././././././././././././././././././././././././././././././././././././././././././././././././././././././././././././././././././././././././././././././././././././././././././././././././././././././././././././././././././././././././././././././././././././././././././././././././././././././././././././././././././././././././././././././././././././././././././././././././././././././././././././././././././././././././././././././././././././././././././././././././././././././././././././././././././././././././././././././././././././././././././././././././././././././././././././././././././././././././././././././././././././././././././././././././././././././././././././././././././././././././././././././././././././././././././././././././././././././././././././././././././././././././././././././././././././././././././././././././././././././././././././././././././././././././././././././././././././././././././././././././././././././././././././././././././././././././././././././././././././././././././././././././././././././././././././././././././././././././././././. /./././././././././././././././././././././././././././././././././././././././././././././././././././././././././././././././././././././././././././././././././././././././././././././././././././././././././././././././././././././././././././././././././././././././././././././././././././././././././././././././././././././././././././././././././././././././././././././././././././././././././././././././././././././././././././././././././././././././././././././././././././././././././././././././././././././././././././././././././././././././././././././././././././././././././././././././././././././././././././././././././././././././././././././././././././././././././././././././././././././././././././././././././././././././././././././././././././././././././././././././././././././././././././././././././././././././././././././././././././././././././././././././././././././././././././././././././././././././././././././././././././././././././././././././././././././././././././././././././././././././././././././././././././././././././././././././././././././././././././././././././././././././././././././././././././././././././././././././././././././././././././././././././././././././././././././././././././././././././././././././././././././././././././././././././././././././././././././././././././././././././././././././././././././././././././././././././././././././././././././././././././././././././././././././././././././././././././././././././././././././././././././././.
tsd w
))// '>&
sjd js
kuai yu
"":* ",""
repor ting
Ġwsjo ihqoi
prai sereply
getkind list
oeicn fa
Ġoageeqhu enke
xxxcgcdd sjdjs
# =@
& {""@
& ${
& <%
' ||
. ]
; <#
; <%
` )
a ma
a gaz
a zuq
c aw
c req
c dea
d cfe
d cfc
e dbe
e aaf
f vi
f dac
f daa
f pgg
i ver
i seasy
j nt
j la
j up
j db
j il
j tb
j xw
j bz
j bx
j zk
j zo
j rh
j td
j eq
l ve
l ange
m ta
m ro
m ss
m mi
m qr
m rh
n il
n im
n bj
n wv
n bae
n bbz
n zft
o yu
o fs
o dk
o ay
o byq
o qyz
p do
p qy
p mq
p opg
q we
q sds
r ny
r zdg
s abe
s arq
t mn
u anz
w rp
w wy
w jx
x zuq
x rbs
y ml
y fu
y gsc
z co
z br
z bg
z api
| $
| |<%
| |<#
} |&
Ġ =@
Ġ &__
Ġ 56
Ġ 98
Ġ 81
Ġ 51
id g
id x
an v
ne s
de bb
de dc
de partment
no v
co on
st ti
st ca
st ga
si p
ce k
ce de
ce ba
ce cb
ce ngd
ge q
da ad
da sa
li x
li li
vi b
en xi
ac se
to i
on x
on gz
ro l
ro t
ro ut
ro aa
ro nous
ti l
gn w
ap o
ap ore
re m
re x
re pe
re bt
re lief
get period
get mult
test p
pe se
in wen
in ner
pa le
ang ji
ang dongtai
ang uanz
ri ght
ex por
or hf
po o
po inter
ec bi
fa y
fa bb
fa gui
bd bc
ad y
ja b
gu ox
mi j
mi o
di h
di u
ut g
rea b
age nt
gi b
gi h
gs x
au d
au o
fi z
sh x
th k
fo a
tr ax
fb cb
db hv
rce me
rce in
rce ra
rce rp
rce af
rce zu
rce sm
rce xu
rce wr
rce wb
rce wc
rce ax
rce gq
rce hv
rce ay
rce wj
rce xq
ct w
is u
is change
ab k
io b
my a
my c
my e
my p
my q
my w
my y
my bak
code d
dx o
sy nch
)) ",[
sc k
sc z
sc rh
ush ipin
sa m
sa x
js w
js x
cn l
cn q
cn w
vo f
vo x
eb zb
ml r
pl t
lx d
lx e
lx i
lx n
bb y
bb qu
pro file
confi r
dy g
dy o
dy y
ing gou
fw n
ll k
ll r
dd fv
bo e
jg t
]* (
dh k
cd k
cd de
cd ht
redi anguanz
tb k
tb n
tb q
Ġi no
be hd
fl q
fl t
fl w
ba zv
by us
by bg
by yq
len coded
wd f
wd v
wd pt
wd qt
aa gz
bi u
ur lencoded
lt n
fd de
ci task
rm g
rm q
cc k
cc db
cc yh
us l
huawei art
sv z
uf n
jn b
xm q
xm w
Ġ( ((
ju b
ju c
zz y
uc y
ee ec
jw o
do e
do ss
do yu
do gz
bc y
hw lnd
hw mrd
hw bkk
hw nxt
ps x
ry i
ea ef
dm u
spe ller
ao ds
Ġ"" \
df dd
df cd
df qc
pz b
pg w
sz v
ping lun
img type
vy d
vy z
xi q
pc k
pc w
load bs
sk h
sk v
go lia
py qh
cv r
cv t
pd ue
Ġ' %[
qq e
bg bb
hi w
rq d
rq t
rq z
gk i
gk k
gk p
rk h
css ucapformsresource
Ġh ref
ki g
zg cz
zq s
zq x
zq ch
zq hb
jj r
jj t
dac ff
qd w
ku ang
hy e
ji g
zh en
zh inan
zy o
zy w
bl jg
mc p
bz fv
zr z
cate id
cate search
rs x
jq e
Ġr j
zc be
zc qc
ng q
ali as
zd tv
yr u
zw r
zw w
zw dh
tl q
vh l
ly t
qi x
qi chex
qo h
qo y
qo ar
wl b
zt w
pi e
qa x
zk s
nc g
zi jin
ru g
gx o
nx h
nx ha
mj d
mt q
mt v
=""/ '
zj r
xe k
xe l
xe sc
pv g
yg ss
zx g
sr x
jv b
jv x
wo y
wo es
qr code
ug q
mg j
mg t
mg v
qe yh
wv s
fg v
jk n
yo ff
yo zb
qx g
qx j
qx ee
yi liao
pk n
mn q
Ġ} ;
bq eg
fv k
ui g
pb k
wg v
xo h
xo i
ls n
gg ao
mk h
oc tet
wk a
wk q
wk r
nq re
rv q
qp n
fx se
yb pr
rx qf
gc q
gc sj
ax d
ax ea
jx l
wt g
mv g
jcn xm
cy box
oy id
ay pq
ha k
lv u
zp sc
hc sv
xb ct
nf cf
nf zq
]$ $[
az fu
efa d
nz rc
je h
nv g
ez pq
mf n
xp ta
ak g
ffffefc decdb
controller base
uz huanti
eff d
rai in
dda de
cda t
rw m
=< !
ead ff
edb a
free park
'& $($
'& $(&('#_
silu mei
silu yuanqu
silu jiaoyu
silu wenhua
silu yiliao
&& $
&& ${
&& <#
&& &('#_
yanjiu baogao
hai wai
jin gshi
yidaiyil uwenda
yidaiyil ushipin
yidaiyil uzhuanti
lib ra
jian pinglun
fos q
sing apore
jing dian
yidaiyilu baike
sil ugon
pos id
ffffffcd bdcf
ffffffcd ffeb
zhiku baogao
'` $
'` <#
'` <%
yer s
qdy h
'&$( ${
'&$( <#
'&$( <%
begin synch
leq ue
cpy u
chen gd
ffffffafa fde
zhong guox
wbu h
wbu i
cwjgdaj bd
lvyou jingdian
rgh b
tong baof
zhengce fagui
hid eint
ffffffdfe cea
fan cybox
touzi zixun
ffffffeda ceb
yos h
onmouse move
zqq g
wto tongbaof
honora sk
nbf z
zao jianpinglun
gao cengd
upi an
ffffffbdff fa
kua guob
idi mitems
meizhou jiangtang
silush angji
peb cnxm
xzxk sx
mfb fw
Ġ_ )
dif angdongtai
ffffefbfff ce
ouzhou zhiku
ofi cnxm
talk id
unle arn
pover ty
Ġoageeqhuenke exu
lange id
getmult idimitems
redianguanz hu
speller pages
loadbs list
qichex ing
haiwai xinwen
silugon ggao
beginsynch ronous
zhongguox inwen
hideint ree
wtotongbaof enxi
gaocengd ongtai
kuaguob inggou
& ?
' ;&
- ${@
/ >
; [
= ;&
= ../././../././../././../././
a gai
a tom
b xw
c fff
c cdf
c stf
c taf
d va
d qh
d dea
e dbc
e gug
f ch
f zg
f aca
f dbf
f cdf
f efd
f bdd
f spv
g rea
h bj
h zl
j tu
j ve
j dd
j zm
j qy
j eg
j vh
j rg
j zi
j fp
j ft
j bv
j cq
k ai
l bv
m da
m tu
m xx
m ci
m rp
m qy
m go
m zg
n up
n it
n simg
o tea
o tat
p de
p na
p tu
p bu
p ml
p bj
p bq
p bgr
p ffu
q er
q rds
q gdt
q zcq
r rud
u ae
w qyq
x dge
x shi
y aw
z tx
z dm
z ck
z faf
Ġ 86
Ġ filename
Ġ }&&
ff s
ff x
]& {""
id v
id w
ta ln
nt o
ne q
ne y
de w
de ef
de cc
de ee
de ae
ffff bd
ffff dfe
ffff fdf
ffff bfd
ffff faef
no ng
co t
co dr
st g
ch m
ch any
ce cq
ge nt
te g
te z
te chn
da db
da eb
li w
li ze
li fe
vi m
vi w
er en
to e
to y
ro pu
ro eri
ti q
gn d
gn g
gn m
se w
se y
pe bi
pe ea
pe acnxm
pa sz
ffffffff afdb
le quo
la ws
ang tan
ri y
os y
or n
or en
or zz
ho x
po v
po tf
na qq
tu shu
if e
if x
ec ss
ar gs
ar yd
fa dc
bd n
bd o
ad t
ad ing
ja y
gu l
gu x
java script
user log
age x
gi w
gi ntegration
ht l
ms f
ms n
ms y
th er
ke s
tr ading
fb q
fb ee
fb bc
bu chang
db de
xt n
xt qs
rce de
rce on
rce ze
rce or
rce ke
rce wd
rce fd
rce fc
rce ev
rce ki
rce qg
rce zv
rce mn
rce wp
rce oc
rce yp
rce rx
rce wt
rce xv
rce lj
ue h
ue o
ue s
ra yv
is all
il h
il x
il upian
al v
al le
ph g
ph y
ic v
my i
my x
dx g
dx k
dx p
ln p
)) }&
mo e
mo y
mo eaho
mo idvewkm
sc ac
nu b
nu w
sa k
]= }}&
cn h
vo v
eb ce
eb ee
ml z
pl x
kb l
ed uc
ed ongtai
so h
log file
lx y
tp s
tp z
dbc d
dbc f
dy j
dy yr
ew k
ll h
dd g
dd fb
dd cb
bo i
ef h
jg c
dh i
be o
be q
fl z
dynamic s
rt f
by qu
hu x
hu ai
qu xi
qu dao
wd l
wd n
wd gq
aa td
md o
md q
cf ed
cf zh
cf sg
bi tr
ur v
wx z
fd o
fd rc
ci y
wa hf
rm u
rm v
fe k
fe o
us g
huawei vky
fc w
fc da
fc ac
it w
it x
sv q
sv u
uf j
uf x
jn d
jn n
jn s
wi h
cl v
cb da
ju a
ju jiao
zz a
zz k
zz s
zz w
ee ab
do g
bc x
hw pic
bf t
bf v
ps w
dc y
dc ad
dc ba
ry o
ry fa
ao uc
df q
pz r
vy o
vy x
fbf ef
xi y
xi co
we g
we qf
vc y
wn y
pc qv
pc pb
""; }&
eg zt
zn s
pu k
pu x
wf x
go k
go w
py t
yz q
hi g
upload image
rq b
rc x
rk v
sq d
sq o
sq ta
rf te
lk n
int s
tc x
bh k
fq rr
jj f
jj m
jj q
rb qr
xw g
qd ts
hy i
hy u
ji v
ji edu
qf y
zh p
zh v
zh ao
zh aos
mu h
mu l
pw u
zy h
zy l
jy v
pq k
gd n
yu le
dr hb
zc pa
zc gt
hg q
xy ah
zu z
ali ngda
sg p
sg gu
yr r
hn c
xk g
as r
qi v
dg cv
qo t
wl s
sm k
jo k
pr fb
bx q
bx u
bx ba
zt n
pi h
pi u
qa au
Ġ7 2
Ġ7 3
zk y
za x
za kh
zi e
ru z
gx v
sj h
nx v
mj h
mj l
mt n
px q
og rh
wb s
zo d
zo v
zo y
zj f
zj x
xe m
pv q
sr dc
wo t
wy j
wy k
wy df
qv g
ug g
qe ce
sx v
fp cc
jk l
yo h
cg t
cg gs
cg zd
qx h
pk o
fy x
cs fd
wei chang
xc y
cce b
lu v
xo v
xo hh
yt fv
oe hi
mk k
qz ph
yc q
yc pe
nd l
ya q
bp di
nq l
wc qc
rv w
hr x
zhi yin
jh d
jh q
fh k
wu x
oo te
oo fg
oo hv
qb s
qb pv
lg r
ay aowen
ni e
vu k
ey qi
oa th
jl h
je l
rcek v
Ġex tractvalue
of rg
xr dc
daf eb
ong lue
xs l
xp us
dfb e
clzr gcmt
ak ow
dbf ef
=/../../../../../../../../ ../../../../
=/../../../../../../../../ ../../../../../../
dp ba
mei shi
inf angtan
fac f
rceo v
edb b
yid ongz
cwjgda jf
aad bec
uw en
shi jiao
cbb a
silu zhi
silu jinrong
fef g
el roeri
&& <%
abd q
eab e
invest ment
aiyil u
uj ilupian
gai kuang
iz eren
yidaiyil ujilupian
aea e
custom er
huan fang
guo jia
jiao dian
yidaiyilu jianshe
yidaiyilu meishi
yidaiyilu guojia
efbd fe
lvy oug
zhiku huod
cheng jieshao
fffff efe
xdy t
ftb c
ach anye
yuanqu qiye
yuanqu zhaos
yuanqu gaikuang
rsp z
Ġmi moidvewkm
ysp s
ffffffed fcfa
lvyou zixun
`-- >&
rfb q
dpe z
over write
ningxi ayaowen
ningxi achanye
../././../././../././../././ ../././../././
fang fan
zhengce gou
zhengce jiedu
xby e
qtp c
oby s
touzi zhinan
zhan lue
qiy edongtai
fffffffdb fff
ming jiaz
qrt c
aty b
bge z
guoji alingda
rra e
Ġmr moeaho
gong chengd
gong chengjieshao
exin rui
ndt f
ling xiu
ningxia shijiao
yor f
americ as
fengxian jingshi
fengxian fangfan
fffffed fffdb
pinpai gushi
pinpai jianshe
redian jujiao
ytv tv
quanqiu lingxiu
fazhan zhanlue
ffffeffdb fea
och cnxm
chuang xin
shehu izeren
ffffafb eadff
sns api
jiab infangtan
chanye zhiyin
confir med
zijin qudao
oyid aiyilu
hcsv qi
=../././../././../././../././ ../././../././../././../././../././../././
fffffaef cfde
chany exinrui
tushu oyidaiyilu
buchang dongtai
isall name
yidongz huanti
jiaodian shijian
lvyoug onglue
yuanquzhaos hang
mingjiaz huanfang
guojialingda oren
Ġmrmoeaho elroeri
gongchengd ongtai
' <?
( "");}
/ =@
/ """,
` &__
a tar
a fdc
b ang
b io
b qk
b pk
b mk
b bdf
c in
c jg
c sx
c cfc
c rds
d nx
d cbc
f id
f zk
f dee
f ecb
f sud
f ctc
f ydv
h fw
i bj
i ia
j ff
j de
j li
j ap
j na
j gu
j ht
j io
j kb
j ba
j hw
j fu
j dg
j pv
j cw
l sz
l we
l qo
l vk
m nu
m us
m rl
m fq
m zv
m eng
n sk
n xw
n dk
n gai
n dcv
o es
p jn
p fm
p opr
q jh
q shu
q rtv
r rk
s rd
u st
w mb
w nu
w vy
w bue
w rcr
w prz
x tu
x es
x cai
x des
x qat
y fo
y dt
y fy
y qqc
z age
z cn
z ml
z lx
z ok
z rfh
z gur
z rcq
z tav
| [
Ġ upload
Ġ 53
Ġ 59
ff g
ff dd
ff hb
nt g
nt i
nt l
nt er
ne f
de bd
de hv
ffff fbb
ffff fbd
no o
co z
st pg
si b
si mpl
ge i
te k
da w
da fa
da sz
da jiangtang
li p
li nh
to s
mp g
mp p
on h
ti f
ti ve
gn b
gn s
re w
re fq
ty c
pe z
in paig
pa l
pa fc
ss g
ss fu
la a
la e
() |&
ri k
ri u
ri w
os c
va d
va g
va m
va o
ze bu
=& --[
po l
na q
tu p
if h
if l
if ic
ec l
ar x
ar bitr
ad g
ad h
end if
ja u
mi h
un h
un p
age i
gi l
gi r
gi tal
gs j
ht k
ht p
au x
ms d
ms o
]) #
]) ",[
tr l
getlist data
fb bd
bu w
db o
db fa
db bc
rce ta
rce ti
rce la
rce ho
rce bi
rce wa
rce wi
rce uc
rce dm
rce lf
rce ld
rce jj
rce rb
rce bl
rce ng
rce hn
rce zf
rce zt
rce qa
rce ru
rce sf
rce yi
rce bq
rce oe
rce fx
rce wq
rce uv
rce ak
rce eh
rce gl
rce dj
rce oi
ct z
ra j
ra tc
is k
ph n
my t
sy a
sy g
sy o
sy q
mb i
pt g
pt s
ln v
ln x
mo l
js m
js r
cn s
cn x
]? <?
]? {{
vo o
vo y
eb ea
kb a
kb c
ed bd
ed protocol
ca hq
ca hb
tp m
bb eca
pro vid
ma a
ma lize
can ada
can cro
dy l
dy hz
ll com
dd k
dd s
dd de
dd cc
dd td
bo f
bo g
bo h
xx c
xx i
xx q
xx u
be gine
fl r
ror r
ba hd
rt s
rt pt
by h
by k
by l
by x
by ra
hu y
qu l
wd ga
md c
md t
cf y
cf qi
cf sb
bi i
bi w
ur k
lt l
wx y
wx fv
fd p
ci a
ci v
ci x
wa o
cc x
cc da
fe zs
us f
us w
huawei bac
huawei jny
it q
sv h
sv k
ev k
cmd c
bj q
xm g
xm u
cb fe
zz gv
uc q
web site
jw n
jw v
jw z
jw player
do w
hw med
hw jat
dc g
dc ab
dc cf
bt c
ans wer
rp x
rp ra
Ġ"" %""
df t
pz m
pz pv
pg l
sz tr
lf z
cu y
vy h
fm v
xi i
zm n
zm r
we j
we l
we hc
vc s
wn k
file up
rl k
rl v
qy x
ip x
eg dc
sk g
sk l
fu x
go vi
())} ;
())} |&
py a
py k
py v
min zup
qq a
qq n
qq eg
bg ra
bg ye
upload service
rq er
rc fa
gk h
gk s
rk g
rk k
rk o
sq a
sq ze
rd qi
Ġh er
lk h
lk i
fq k
jj z
ck u
ck y
qd zg
ku h
ku i
ku o
hy h
hy v
dbe db
ji shu
zh un
pw h
pw v
zy f
zy pe
jy f
jy r
jy w
bl c
bl q
ye h
jq o
jq p
jq r
nk o
nk w
xy a
xy rb
ng l
ng yr
sg b
zd l
zd gq
vh j
vh r
zf re
as w
as rc
qi qu
qo k
qo l
qo ya
sm h
bx pd
zk k
zk m
zk n
zl v
dk c
nc q
zi u
sf gf
())}& &
nx g
nx pt
mh x
mt g
dt k
yd l
wb q
zo z
zo eu
zj d
pv k
sb si
yg c
;; """,""
wo o
wo bb
qr w
qv k
qe l
sx q
fp k
wv l
fg cf
jk q
jk t
jk x
ft t
ft z
rh k
Ġ} |&
at v
xg v
pb pt
wg t
xo ae
bk g
bk o
bk r
qz rq
nd ch
nq se
nq rf
wc tu
tv q
()& &
wbt s
fx sr
cx f
fh q
ddl g
wu l
mv n
cq zs
mx l
fz gs
qb n
lg f
cy k
cy gk
rr r
rr rf
ha v
zp si
xz qq
yan yu
def da
jl q
efa a
template simpl
ys fd
xd w
xr pe
ffe ff
ong cheng
xs ht
xs ltc
ffffefa dbd
clzr jcmt
nh x
ffffefc dafff
cac tus
bak up
qw pf
rcei k
ka zakh
cdy d
jzg l
cad c
yidaiyil uwen
jian fabu
sol id
xec utecore
change notify
Ġint eger
yidaiyilu dajiangtang
hwa tu
ffffffcf eece
chu an
zyd jjcmt
')"")& `'&
ffffffbd fcce
gsh ang
Ġdi gital
qth y
ffffffdf ecce
zhou zhiku
global s
Ġec s
lmi pro
pcb q
xge c
pfb cnxm
zho upu
ffffefffb ffe
rad g
fru a
dele gate
nor malize
fei zhouzhiku
bpy c
ffffffade efe
huaweif la
odb cnxm
allow edprotocol
output properties
americ a
zdj cygk
course service
pfx cnxm
oef q
xal an
void delegate
super slide
""[ {""
iba tis
make voiddelegate
libin bin
zwdh hz
silumei jing
qichexing dong
nong chanpin
inpaig ongcheng
arbitr ary
provid er
begine xecutecore
minzup inpaigongcheng
jishu chuangxin
kazakh stan
yidaiyiluwen jianfabu
allowedprotocol s
' |
( {
) =""
a zgv
b ja
b bus
c sk
c dac
c bbb
c ffe
c dbf
c gai
c spu
d fcb
d qyq
d taz
d gut
e ecd
e edd
e trh
f ve
f tr
f efc
h do
h bf
i ja
i ma
i pad
j gn
j me
j sh
j is
j pl
j cb
j pz
j ld
j zn
j qf
j fg
j bq
j dq
j fx
j fh
j fk
k un
k sf
m se
m di
m gs
m wx
m wu
m zp
n jj
n zh
n px
n pgg
n qrh
n brs
o man
o ea
o qtd
p gu
p nv
q vh
q rgz
q rqe
q dcs
r ja
r bg
s mb
s ng
s dat
s fat
s apc
u me
w if
w cn
w fc
w tah
w byq
w cah
x db
x sef
y vi
y eo
y erd
y eai
y qgc
y pgv
z ic
z cf
z do
z jy
z ced
Ġ str
Ġ 85
Ġ 36
Ġ 89
Ġ 96
Ġ 92
ff zu
nt s
.. .\""",""
ne p
de bv
ffff feb
ffff fdd
no sd
no yg
no yc
co pr
st p
st qs
ch c
ch l
ce n
ce cd
ce fe
ce bv
ge p
ge ar
te ri
da ac
da jun
li l
li r
vi t
vi ng
en i
en k
en s
er b
to v
mp f
mp s
data export
ro e
ro k
ro man
ti j
ti o
ti z
gn z
""","" _[
re sv
me x
app a
ty a
ty g
ty i
pe c
ffffffff fefb
ss zi
le k
la m
ex k
ex m
ex o
ex zh
va e
ze df
sp o
sp zi
ho e
po e
na y
na ga
tu jie
if v
if est
ec bf
ar r
ar gent
fa w
ad u
ad tr
ad zr
mi a
mi k
mi s
ve i
di w
di vo
un y
age f
gi p
guan zhu
up m
fi c
th h
ke b
ke m
fo i
update byid
fb k
fb t
fb y
fb be
fb gc
db ee
db zt
rce st
rce re
rce di
rce ln
rce zn
rce pd
rce rq
rce ye
rce zc
rce zd
rce zl
rce dt
rce sb
rce wo
rce fy
rce cx
rce mq
rce eq
rce mw
rce np
rce ez
rce xh
ct gu
ct dc
ue a
ue b
ue e
ue z
ra g
ra x
ra ga
aw o
aw s
aw t
aw u
il q
Ġ2 9
ab p
ab ps
io h
io v
xa td
vle t
ic l
my r
sy ug
mb s
pt bq
ln k
ln l
su w
mo roc
sc n
sc gd
sc pv
cn i
eb ec
eb cf
ml p
kb n
kb s
kb v
ed y
ed ue
ed ys
ca q
lx m
tp k
tp r
ma e
dbc ce
confi rm
login id
dy x
dd n
ef t
ef cc
xx d
xx k
fl m
ba s
rt m
rt sa
by z
md s
ur h
Ġw km
lt v
wx r
wx au
ci r
ci u
rm n
im f
cc ba
fe l
fe et
us k
us n
huawei ane
huawei eva
); ]]></
br yz
fc bi
man ifest
sv l
sv v
jn k
jn r
tx q
bj v
wi p
wi x
cl f
cb k
cb l
cb th
cb eb
cb ca
cb qt
cb hq
ju x
ju y
jw q
do fz
bc rh
bc pb
bf hs
ps fr
dc k
dc x
dc bd
ry c
ry sv
ea ed
rp y
pz a
pg o
pg pc
sz ti
sz uq
lf q
ping tai
cu q
cu v
vy v
ld w
we da
we uc
we ki
vc p
wn n
pc m
pc ac
pc us
pc gd
eg av
zn d
ny sd
hphm updatebyid
go a
go t
go eacq
py o
py q
py s
py uc
cv v
min ica
bg cf
bg bi
Ġx s
hi a
hi u
rq k
cal enda
rc pg
rc gh
ep q
rf gt
]_ &
lk t
lk w
zg fs
tc z
Ġy ork
zq d
zq w
bh z
fq c
fq r
jj k
ck p
ck v
ck zh
qd cc
qd pc
ku b
ku k
hy n
hy o
qf x
zy a
zy v
zy pf
yu x
yu jing
gh c
gh x
gh ea
bz c
qh f
du l
jq z
Ġg f
zc yu
hg x
xy i
xy o
xy t
xy x
zu y
ag zz
ag tq
zw m
zw t
zw y
tl u
xk k
xk t
xk w
qi g
qi r
dg yi
Ġ/ /[
qo c
qo e
wl u
pr r
zt cf
pi a
fed d
rg w
zs w
dk h
za z
nc yd
nc pb
qk o
qk r
yw j
yw k
ru a
ru b
ru y
ru les
ort d
ffffe edc
gx d
gx h
gx l
sj k
sj r
nx q
mj r
mt f
mt t
ok d
consu med
yq r
zo a
xe u
pv w
yg q
zx n
sr ff
jv f
wo q
wo at
qr n
wy o
mg f
mg g
fg y
fg fh
jk r
jk s
qx p
ft k
ft n
ft tc
yi g
mn r
fy fr
bq sh
xg gq
pb ct
wg ya
lu o
yt g
yt sq
dq dh
dq pg
mk d
mk l
mk x
oc q
yc r
wc zg
yf n
object type
wh f
gv w
jh b
jx h
jx r
wt n
wt zq
mq b
mq s
cdd c
fz cd
hv g
ay ps
ay hg
vk s
gz dxb
bs dr
fk l
ni i
nf cd
jt zl
plus m
nb re
nb qc
jd l
rcek h
xeb h
ob qh
sn h
kv g
xp de
ffffefa df
ffffefa fef
ffffefa deedb
oq sv
ffffefc deede
oz fd
oz fq
mr n
atu v
rcei q
rcei u
Ġwui zsi
xn qh
lz gs
eac g
sout hid
gra de
wdy z
huan jing
rty r
pte g
pbb t
tou ch
anz huanti
Ġsh l
ffffffbff cfb
ffffffdd bdfa
ffffefcd fcca
rfb h
wpe h
rpe g
sdy h
pcb h
eyz t
dzh s
zrq d
zxu a
ffffefdd bdcb
yad h
yin gshang
bzh v
yag b
ffffefbfb fff
nge h
deliver y
ming dajun
xff v
xor d
ffffefdfe eea
ybh d
yec q
yar h
odc r
odc cnxm
cui ge
dza z
cyg q
/../../../../../../../../ ../../../../
geo gia
maoyi zixun
zhijian xinxi
boss admin
quanqiu guanzhu
capi talid
capi taln
oat s
')} );]]></
passwor ddlg
yatai zhiku
pfk cnxm
wlw manifest
approval dlg
classi c
iver ific
repe at
libra ries
weichang jing
siluzhi sheng
zhikuhuod ong
zhengcegou tong
linh ao
qiqu anzhuanti
roman ia
tujie zhengce
argent ina
moroc co
calenda r
ffffeedc beef
yingshang huanjing
zhijianxinxi pingtai
quanqiuguanzhu redian
capitaln um
iverific ation
# _
. \.\.\.\.\.\.\.\.\.\.\.\.\.\.\.\.\.\.\.\.\.\.\.\.\.\.\.\.\.\.\.\.\.\.\.\.\.\.\.\.\.\.\.\.\.\.\.\.\.\.\.\.\.\.\.\.\.\.\.\.\.\.\.\.\.\.\.\.\.\.\.\.\.\.\.\.\.\.\.\.\.\.\.\.\.\.\.\.\.\.\.\.\.\.\.\.\.\.\.\.\.\.\.\.\.\.\.\.\.\.\.\.\.\.\.\.\.\.\.\.\.\.\.\.\.\.\.\.\.\.\.\.\.\.\.\.\.\.\.\.\.\.\.\.\.\.\.\.\.\.\.\.\.\.\.\.\.\.\.\.\.\.\.\.\.\.\.\.\.\.\.\.\.\.\.\.\.\.\.\.\.\.\.\.\.\.\.\.\.\.\.\.\.\.\.\.\.\.\.\.\.\.\.\.\.\.\.\.\.\.\.\.\.\.\.\.\.\.\.\.\.\.\.\.\.\.\.\.\.\.\.\.\.\.\.\.\.\.\.\.\.\.\.\.\.\.\.\.\.\.\.\.\.\.\.\.\.\.\.\.\.\.\.\.\.\.\.\.\.\.\.\.\.\.\.\.\.\.\.\.\.\.\.\.\.\.\.\.\.\.\.\.\.\.\.\.\.\.\.\.\.\.\.\.\.\.\.\.\.\.\.\.\.\.\.\.\.\.\.\.\.\.\.\.\.\.\.\.\.\.\.\.\.\.\.\.\.\.\.\.\.\.\.\.\.\.\.\.\.\.\.\.\.\.\.\.\.\.\.\.\.\.\.\.\.\.\.\.\.\.\.\.\.\.\.\.\.\.\.\.\.\.\.\.\.\.\.\.\.\.\.\.\.\.\.\.\.\.\.\.\.\.\.\.\.\.\.\.\.\.\.\.\.\.\.\.\.\.\.\.\.\.\.\.\.\.\.\.\.\.\.\.\.\.\.\.\.\.\.\.\.\.\.\.\.\.\.\.\.\.\.\.\.\.\.\.\.\.\.\.\.\.\.\.\.\.\.\.\.\.\.\.\.\.\.\.\.\.\.\.\.\.\.\.\.\.\.\.\.\.\.\.\.\.\.\.\.\.\.\.\.\.\.\.\.\.\.\.\.\.\.\.\.\.\.\.\.\.\.\.\.\.\.\.\.\.\.\.\.\.\.\.\.\.\.\.\.\.\.\.\.\.\.\.\.\.\.\.\.\.\.\.\.\.\.\.\.\.\.\.\.\.\.\.\.\.\.\.\.\.\.\.\.\.\.\.\.\.\.\.\.\.\.\.\.\.\.\.\.\.\.\.\.\.\.\.\.\.\.\.\.\.\.\.\.\.\.\.\.\.\.\.\.\.\.\.\.\.\.\.\.\.\.\.\.\.\.\.\.\.\.\.\.\.\.\.\.\.\.\.\.\.\.\.\.\.\.\.\.\.\.\.\.\.\.\.\.\.\.\.\.\.\.\.\.\.\.\.\.\.\.\.\.\.\.\.\.\.\.\.\.\.\.\.\.\.\.\.\.\.\.\.\.\.\.\.\.\.\.\.\.\.\.\.\.\.\.\.\.\.\.\.\.\.\.\.\.\.\.\.\.\.\.\.\.\.\.\.\.\.\.\.\.\.\.\.\.\.\.\.\.\.\.\.\.\.\.\.\.\.\.\.\.\.\.\.\.\.\.\.\.\.\.\.\.\.\.\.\.\.\.\.\.\.\.\.\.\.\.\.\.\.\.\.\.\.\.\.\.\.\.\.\.\.\.\.\.\.\.\.\.\.\.\.\.\.\.\.\.\.\.\.\.\.\.\.\.\.\.\.\.\.\.\.\.\.\.\.\.\.\.\.\.\.\.\.\.\.\.\.\.\.\.\.\.\.\.\.\.\.\.\.\.\.\.\.\.\.\.\.\.\.\.\.\.\.\.\.\.\.\.\.\.\.\.\.\.\.\.\.\.\.\.\.\.\.\.\.\.\.\.\.\.\.\.\.\.\.\.\.\.\.\.\.\.\.\.\.\.\.\.\.\.\.\.\.\.\.\.\.\.\.\.\.\.\.\.\.\.\.\.\.\.\.\.\.\.\.\.\.\.\.\.\.\.\.\.\.\.\.\.\.\.\.\.\.\.\.\.\.\.\.\.\.\.\.\.\.\.\.\.\.\.\.\.\.\.\.\.\.\.\.\.\.\.\.\.\.\.\.\.\.\.\.\.\.\.\.\.\.\.\.\.\.\.\.\.\.\.\.\.\.\.\.\.\.\.\.\.\.\.\.\.\.
= )
a tcher
a tpu
b hw
b go
b px
b bud
c qk
c pk
c buu
c qts
d in
d ln
d ng
d ly
d daa
e eca
e thi
e dison
f ti
f mb
f hu
f hn
f qyi
f cef
g ac
i gu
i yy
j ta
j te
j re
j fi
j tr
j eb
j wi
j ju
j cv
j zy
j zw
j pr
j zt
j mj
j xc
j lr
k it
l co
l mm
m de
m ce
m li
m me
m md
m jn
m ck
m gh
m zt
m qe
m ww
m fy
m xg
m mw
n qgc
n shf
o ed
o fsf
p ana
p tha
p fah
q ev
q vc
q pzq
q pcr
q sbs
r cess
r hw
r zx
r xai
s lov
t vi
t qy
t anz
u center
w ta
w no
w lx
w qk
w ui
w stb
x pk
x nl
x ecf
x abt
y og
y pha
z ri
z na
z ht
z mb
z fw
z cd
z pz
Ġ (#
Ġ 99
Ġ 90
ff qr
ff gz
an l
nt zr
ne tr
de pt
de mo
ffff dfd
no p
co a
co pd
co qh
st w
st ing
st qc
si i
ch g
ch uy
ce y
te w
da de
en h
en ia
er c
er l
er ai
to z
mp b
mp n
data s
data invoke
ro x
ti w
gn a
gn n
gn r
ap et
me axn
me xico
se x
app no
ty h
ty l
ty t
ty x
pe y
pe ter
in der
pa kistan
ss q
ss v
la d
() ).
ex zr
os gb
va s
or b
sp w
sp x
sp ge
sp bu
sp qv
ho a
ho j
op l
op ia
po d
po h
po dv
na i
na mi
na hu
ec m
ec bc
ar ci
fa ed
fa aa
bd l
ja z
gu zhi
mi p
mi r
mi w
di b
ut d
ut p
up t
ht s
ht z
au f
au y
sh k
sh y
ke k
fo f
tr x
fb g
fb s
fb u
fb fa
fb bf
fb hi
fb td
bu x
db j
db n
xt fc
xt cz
rce pa
rce fa
rce ab
rce ic
rce jg
rce ba
rce qu
rce zr
rce fs
rce hh
rce pf
rce yb
rce cq
rce mx
rce et
rce lg
rce je
rce yh
rce gy
rce uh
rce sw
rce nm
rce rj
ct te
ct ct
ct qc
ue g
ue w
ra a
ra b
ra e
ra bb
aw y
is v
il y
ab o
io q
al n
al ban
al geria
ph k
xa zz
xa af
xa zc
ic y
my sql
dx e
dx z
sy c
sy h
sy k
sy n
sy t
sy ri
sy uu
mb ab
net gear
pt b
pt n
pt x
pt gi
mo b
mo o
sc xw
sc zb
nu q
nu r
vo b
vo c
vo e
-- ]
eb bd
eb eb
ml s
ml v
pl h
kb k
ed pc
so e
so gc
ca le
ca mbo
lx p
tp y
bb l
bb gg
pro ps
:// ../../
ma f
ma tt
org an
confi gs
php stu
http ser
dy h
dy gi
dy cq
veh invoke
ll c
ll l
dd zu
bo li
ef qt
jg p
jg wh
cd j
xx m
xx s
tb l
tb x
ba y
ba qa
by c
by g
by uq
per io
hu b
hu h
()} ""
qu x
aa zv
cf x
cf dd
cf ide
=' )
Ġw qr
lt d
lt w
fd m
fd gs
ci w
rm k
cc ca
fe sv
huawei bmh
uf engxian
tx l
tx u
tx w
]", }
cl p
zz l
zz n
brand s
ee s
Ġa fk
jw c
jw s
do qi
bc p
bc r
bc qa
bc gq
hw g
hw kkg
ps dv
dc u
dc ac
bt de
bt se
ry u
ea ac
ao h
rp dv
df k
df p
af q
sz i
sz k
cu u
cu x
vy t
fm h
ld t
ae h
xi sting
vc xl
wn j
qy as
qy dt
qy fg
qy tq
eg ral
zn b
sk a
sk k
ny gu
())} .
py h
cv d
cv u
Ġ' %'='&
ffffff db
ffffff bfe
yz h
yz t
yz de
qq g
qq k
yy v
bg k
bg x
rq n
rq o
rc s
rc y
gk l
rf y
rf ca
lk u
lk x
int egral
ki i
ki k
zg w
zg rea
zq r
bh d
bh l
fq zb
fq ds
jj fk
rb n
ku g
]; [
ji z
mu o
pw w
zy t
err er
jy a
jy o
yu a
yu k
]== ""))",""
mc w
gh g
ye ta
]' ""()&%<
du baogao
jq l
ere is
zu x
ag v
yr x
yr zg
Ġ# &[
hn i
hn z
tl g
zf n
zf rg
zf tv
zf td
ly f
xk c
sm x
jo d
jo f
jo o
qc p
qc pr
fs ds
bx h
ffffef efbdfe
rg tq
xu m
xu z
zk c
zk f
zk r
add ins
zl b
dk g
qk l
yw v
ru o
)& [
zb w
sf g
sj hc
mh p
wr x
yd n
yd q
yd ff
sd l
sd ra
pf pa
zo b
zo e
zo f
zo t
zj e
xe hu
xe yb
yg fb
Ġt f
zx cf
sr ze
wy i
aca fa
sx g
wv m
yo q
qx z
qx ed
qx rq
ft sf
yi q
ai q
ai v
nj h
bq bi
fv g
xg zr
xg yi
wg g
wg r
lu x
lu y
yt q
dff b
/./././././././././././././././././././././././././././././././././././././././././././././././././././././././././././././././. /./././././././././././././././././././././././././././././././.
bk a
qz uf
wk t
ya de
bp ps
nq sb
wc y
hr j
fr w
ko ufengxian
wh l
wh v
rx d
rx bg
gt k
jh p
aq ra
dec de
wu q
gq ew
wt f
oo gd
cz js
cy h
cy x
oy ti
rr sa
vk t
brow se
ua v
lv f
fk s
eq da
eq tr
eq pr
lequ k
xb n
vu v
vu w
hq l
nf rh
wfd f
ey dr
jt g
dz pg
hk l
nl h
nl bbf
jm r
jl c
efa f
rcek y
ql zrqd
ot ts
vx n
'/></ _
dfe a
kk k
lq w
ffffeff decca
ref errer
ded da
'); ?>&
rcei h
eff b
kq n
ffffefb fbf
rw anda
ass a
]% ')
fca e
afd t
qby s
Ġoage aciei
Ġoage idvewkn
bsp t
lin gs
guo wai
hwd ua
shu ai
chu koufengxian
ffffffaf ecce
sos d
oqh e
ach h
nsy f
bsz n
asq r
rsp g
\.\.\.\.\.\.\.\.\.\.\.\.\.\.\.\.\.\.\.\.\.\.\.\.\.\.\.\.\.\.\.\.\.\.\.\.\.\.\.\.\.\.\.\.\.\.\.\.\.\.\.\.\.\.\.\.\.\.\.\.\.\.\.\.\.\.\.\.\.\.\.\.\.\.\.\.\.\.\.\.\.\.\.\.\.\.\.\.\.\.\.\.\.\.\.\.\.\.\.\.\.\.\.\.\.\.\.\.\.\.\.\.\.\.\.\.\.\.\.\.\.\.\.\.\.\.\.\.\.\.\.\.\.\.\.\.\.\.\.\.\.\.\.\.\.\.\.\.\.\.\.\.\.\.\.\.\.\.\.\.\.\.\.\.\.\.\.\.\.\.\.\.\.\.\.\.\.\.\.\.\.\.\.\.\.\.\.\.\.\.\.\.\.\.\.\.\.\.\.\.\.\.\.\.\.\.\.\.\.\.\.\.\.\.\.\.\.\.\.\.\.\.\.\.\.\.\.\.\.\.\.\.\.\.\.\.\.\.\.\.\.\.\.\.\.\.\.\.\.\.\.\.\.\.\.\.\.\.\.\.\.\.\.\.\.\.\.\.\.\.\.\.\.\.\.\.\.\.\.\.\.\.\.\.\.\.\.\.\.\.\.\.\.\.\.\.\.\.\.\.\.\.\.\.\.\.\.\.\.\.\.\.\.\.\.\.\.\.\.\.\.\.\.\.\.\.\.\.\.\.\.\.\.\.\.\.\.\.\.\.\.\.\.\.\.\.\.\.\.\.\.\.\.\.\.\.\.\.\.\.\.\.\.\.\.\.\.\.\.\.\.\.\.\.\.\.\.\.\.\.\.\.\.\.\.\.\.\.\.\.\.\.\.\.\.\.\.\.\.\.\.\.\.\.\.\.\.\.\.\.\.\.\.\.\.\.\.\.\.\.\.\.\.\.\.\.\.\.\.\.\.\.\.\.\.\.\.\.\.\.\.\.\.\.\.\.\.\.\.\.\.\.\.\.\.\.\.\.\.\.\.\.\.\.\.\.\.\.\.\.\.\.\.\.\.\.\.\.\.\.\.\.\.\.\.\.\.\.\.\.\.\.\.\.\.\.\.\.\.\.\.\.\.\.\.\.\.\.\.\.\.\. \.\.\.\.\.\.\.\.\.\.\.\.\.\.\.\.\.\.\.\.\.\.\.\.\.\.\.\.\.\.\.\.\.\.\.\.\.\.\.\.\.\.\.\.\.\.\.\.\.\.\.\.\.\.\.\.\.\.\.\.\.\.\.\.\.\.\.\.\.\.\.\.\.\.\.\.\.\.\.\.\.\.\.\.\.\.\.\.\.\.\.\.\.\.\.\.\.\.\.\.\.\.\.\.\.\.\.\.\.\.\.\.\.\.\.\.\.\.\.\.\.\.\.\.\.\.\.\.\.\.\.\.\.\.\.\.\.\.\.\.\.\.\.\.\.\.\.\.\.\.\.\.\.\.\.\.\.\.\.\.\.\.\.\.\.\.\.\.\.\.\.\.\.\.\.\.\.\.\.\.\.\.\.\.\.\.\.\.\.\.\.\.\.\.\.\.\.\.\.\.\.\.\.\.\.\.\.\.\.\.\.\.\.\.\.\.\.\.\.\.\.\.\.\.\.\.\.\.\.\.\.\.\.\.\.\.\.\.\.\.\.\.\.\.\.\.\.\.\.\.\.\.\.\.\.\.
ffffffcfa dff
real name
ngh f
tha il
lte ctc
mon golia
fsz c
dzu a
yfq r
zsp r
qre u
ngd u
pfq c
xfy c
ffffffdfb efe
bzy t
ffffffaff bfe
xuh ong
zbc q
qbg g
yeg v
cpt b
yue dubaogao
jyta bljg
shichang zhun
ayu b
fxg lzgs
sde g
qgg cnxm
pfc cnxm
zue la
uai shuai
]""> %
quotation result
cwjgdajbc szg
yush uaishuai
kcf inder
une xisting
educ ation
ffffefafef ca
southid ceditor
.\.\.\.\.\.\.\.\.\.\.\.\.\.\.\.\.\.\.\.\.\.\.\.\.\.\.\.\.\.\.\.\.\.\.\.\.\.\.\.\.\.\.\.\.\.\.\.\.\.\.\.\.\.\.\.\.\.\.\.\.\.\.\.\.\.\.\.\.\.\.\.\.\.\.\.\.\.\.\.\.\.\.\.\.\.\.\.\.\.\.\.\.\.\.\.\.\.\.\.\.\.\.\.\.\.\.\.\.\.\.\.\.\.\.\.\.\.\.\.\.\.\.\.\.\.\.\.\.\.\.\.\.\.\.\.\.\.\.\.\.\.\.\.\.\.\.\.\.\.\.\.\.\.\.\.\.\.\.\.\.\.\.\.\.\.\.\.\.\.\.\.\.\.\.\.\.\.\.\.\.\.\.\.\.\.\.\.\.\.\.\.\.\.\.\.\.\.\.\.\.\.\.\.\.\.\.\.\.\.\.\.\.\.\.\.\.\.\.\.\.\.\.\.\.\.\.\.\.\.\.\.\.\.\.\.\.\.\.\.\.\.\.\.\.\.\.\.\.\.\.\.\.\.\.\.\.\.\.\.\.\.\.\.\.\.\.\.\.\.\.\.\.\.\.\.\.\.\.\.\.\.\.\.\.\.\.\.\.\.\.\.\.\.\.\.\.\.\.\.\.\.\.\.\.\.\.\.\.\.\.\.\.\.\.\.\.\.\.\.\.\.\.\.\.\.\.\.\.\.\.\.\.\.\.\.\.\.\.\.\.\.\.\.\.\.\.\.\.\.\.\.\.\.\.\.\.\.\.\.\.\.\.\.\.\.\.\.\.\.\.\.\.\.\.\.\.\.\.\.\.\.\.\.\.\.\.\.\.\.\.\.\.\.\.\.\.\.\.\.\.\.\.\.\.\.\.\.\.\.\.\.\.\.\.\.\.\.\.\.\.\.\.\.\.\.\.\.\.\.\.\.\.\.\.\.\.\.\.\.\.\.\.\.\.\.\.\.\.\.\.\.\.\.\.\.\.\.\.\.\.\.\.\.\.\.\.\.\.\.\.\.\.\.\.\.\.\.\.\.\.\.\.\.\.\.\.\.\.\.\.\.\.\.\.\.\.\.\.\.\.\.\.\.\.\.\.\.\.\.\.\.\.\.\.\.\.\.\.\.\.\.\.\.\.\.\.\.\.\.\.\.\.\.\.\.\.\.\.\.\.\.\.\.\.\.\.\.\.\.\.\.\.\.\.\.\.\.\.\.\.\.\.\.\.\.\.\.\.\.\.\.\.\.\.\.\.\.\.\.\.\.\.\.\.\.\.\.\.\.\.\.\.\.\.\.\.\.\.\.\.\.\.\.\.\.\.\.\.\.\.\.\.\.\.\.\.\.\.\.\.\.\.\.\.\.\.\.\.\.\.\.\.\.\.\.\.\.\.\.\.\.\.\.\.\.\.\.\.\.\.\.\.\.\.\.\.\.\.\.\.\.\.\.\.\.\.\.\.\.\.\.\.\.\.\.\.\.\.\.\.\.\.\.\.\.\.\.\.\.\.\.\.\.\.\.\.\.\.\.\.\.\.\.\.\.\.\.\.\.\.\.\.\.\.\.\.\.\.\.\.\.\.\.\.\.\.\.\.\.\.\.\.\.\.\.\.\.\.\.\.\.\.\.\.\.\.\.\.\.\.\.\.\.\.\.\.\.\.\.\.\.\.\.\.\.\.\.\.\.\.\.\.\.\.\.\.\.\.\.\.\.\.\.\.\.\.\.\.\.\.\.\.\.\.\.\.\.\.\.\.\.\.\.\.\.\.\.\.\.\.\.\.\.\.\.\.\.\.\.\.\.\.\.\.\.\.\.\.\.\.\.\.\.\.\.\.\.\.\.\.\.\.\.\.\.\.\.\.\.\.\.\.\.\.\.\.\.\.\.\.\.\.\.\.\.\.\.\.\.\.\.\.\.\.\.\.\.\.\.\.\.\.\.\.\.\.\.\.\.\.\.\.\.\.\.\.\.\.\.\.\.\.\.\.\.\.\.\.\.\.\.\.\.\.\.\.\.\.\.\.\.\.\.\.\.\.\.\.\.\.\.\.\.\.\.\.\.\.\.\.\.\.\.\.\.\.\.\.\.\.\.\.\.\.\.\.\.\.\.\.\.\.\.\.\.\.\.\.\.\.\.\.\.\.\.\.\.\.\.\.\.\.\.\.\.\.\.\.\.\.\.\.\.\.\.\.\.\.\.\.\.\.\.\.\.\.\.\.\.\.\.\.\.\.\.\.\.\.\.\.\.\.\.\. \.\.\.\.\.\.\.\.\.\.\.\.\.\.\.\.\.\.\.\.\.\.\.\.\.\.\.\.\.\.\.\.\.\.\.\.\.\.\.\.\.\.\.\.\.\.\.\.\.\.\.\.\.\.\.\.\.\.\.\.\.\.\.\.\.\.\.\.\.\.\.\.\.\.\.\.\.\.\.\.\.\.\.\.\.\.\.\.\.\.\.\.\.\.\.\.\.\.\.\.\.\.\.\.\.\.\.\.\.\.\.\.\.\.\.\.\.\.\.\.\.\.\.\.\.\.\.\.\.\.\.\.\.\.\.\.\.\.\.\.\.\.\.\.\.\.\.\.\.\.\.\.\.\.\.\.\.\.\.\.\.\.\.\.\.\.\.\.\.\.\.\.\.\.\.\.\.\.\.\.\.\.\.\.\.\.\.\.\.\.\.\.\.\.\.\.\.\.\.\.\.\.\.\.\.\.\.\.\.\.\.\.\.\.\.\.\.\.\.\.\.\.\.\.\.\.\.\.\.\.\.\.\.\.\.\.\.\.\.\.\.\.\.\.\.\.\.\.\.\.\.\.\.\.\.\.\.\.\.\.\.\.\.\.\.\.\.\.\.\.\.\.\.\.\.\.\.\.\.\.\.\.\.\.\.\.\.\.\.\.\.\.\.\.\.\.\.\.\.\.\.\.\.\.\.\.\.\.\.\.\.\.\.\.\.\.\.\.\.\.\.\.\.\.\.\.\.\.\.\.\.\.\.\.\.\.\.\.\.\.\.\.\.\.\.\.\.\.\.\.\.\.\.\.\.\.\.\.\.\.\.\.\.\.\.\.\.\.\.\.\.\.\.\.\.\.\.\.\.\.\.\.\.\.\.\.\.\.\.\.\.\.\.\.\.\.\.\.\.\.\.\.\.\.\.\.\.\.\.\.\.\.\.\.\.\.\.\.\.\.\.\.\.\.\.\.\.\.\.\.\.\.\.\.\.\.\.\.\.\.\.\.\.\.\.\.\.\.\.\.\.\.\.\.\.\.\.\.\.\.\.\.\.\.\.\.\.\.\.\.\.\.\.\.\.\.\.\.\.\.\.\.\.\.\.\.\.\.\.\.\.\.\.\.\.\.\.\.\.\.\.\.\.\.\.\.\.\.\.\.\.\.\.\.\.\.\.\.\.\.\.\.\.\.\.\.\.\.\.\.\.\.\.\.\.\.\.\.\.\.\.\.\.\.\.\.\.\.\.\.\.\.\.\.\.\.\.\.\.\.\.\.\.\.\.\.\.\.\.\.\.\.\.\.\.\.\.\.\.\.\.\.\.\.\.\.\.\.\.\.\.\.\.\.\.\.\.\.\.\.\.\.\.\.\.\.\.\.\.\.\.\.\.\.\.\.\.\.\.\.\.\.\.\.\.\.\.\.\.\.\.\.\.\.\.\.\.\.\.\.\.\.\.\.\.\.\.\.\.\.\.\.\.\.\.\.\.\.\.\.\.\.\.\.\.\.\.\.\.\.\.\.\.\.\.\.\.\.\.\.\.\.\.\.\.\.\.\.\.\.\.\.\.\.\.\.\.\.\.\.\.\.\.\.\.\.\.\.\.\.\.\.\.\.\.\.\.\.\.\.\.\.\.\.\.\.\.\.\.\.\.\.\.\.\.\.\.\.\.\.\.\.\.\.\.\.\.\.\.\.\.\.\.\.\.\.\.\.\.\.\.\.\.\.\.\.\.\.
slov enia
guzhi qihuo
alban ia
cambo dia
phpstu dy
Ġoageaciei akow
guowai shichangzhun
chukoufengxian yujing
jytabljg qw
guowaishichangzhun ru
/ ~
= |
_ -[
a jh
a qah
a trg
b se
b ing
b ger
b pzq
b opg
c age
c ic
c seg
c yrv
d nt
d no
e out
e qy
e ecc
e kol
e answer
f jy
f ded
f gaq
f gsu
f zfz
f lings
g ln
g wy
g fy
h jm
h ung
i xy
j ro
j gs
j sa
j ps
j rp
j xi
j zr
j tl
j zx
j cx
j mv
j lg
j lv
j ey
m st
m te
m ty
m le
m gu
m ht
m tp
m wa
m xm
m ry
m fu
m ki
m fs
m kp
m fx
n fi
n aci
n pft
o bv
p nt
p mp
p rq
p qus
p rbz
p cnm
q up
q bf
q ea
q pk
r bj
r guz
s gn
s qyh
v wg
v pn
w fa
w gu
w qf
w mh
w bbb
w ana
w shb
x fv
x rtz
x zug
x zez
x fsr
y ko
z vi
z vo
z ox
z vh
z gsc
z ccs
| [[
Ġ 35
Ġ 37
ff k
id y
id card
an w
ta x
nt p
nt y
ne n
ne ub
ne zuela
de sh
de zs
ffff ab
ffff ba
no hi
co c
co sta
st ine
ch q
ch ax
ch ica
ce rq
ge c
ge u
te nt
da k
da ss
da cc
li thu
vi v
en b
er sd
mp r
device model
on s
data set
gn j
gn p
ap m
ap fh
se p
se us
get place
get real
ty e
ty o
pe h
pe u
pe bc
in l
in dia
type option
pa si
pa zb
pa gin
pa tent
ss ta
la ur
() }&
ri i
ri t
ri x
ex x
ser bia
os o
os cro
va u
va v
va z
ze govi
sp qz
sp dv
ho m
ho z
page name
op o
op x
op bd
op cb
op hr
po q
po lsk
na f
na m
na hz
if a
if c
if p
if t
ec sf
lo l
lo o
lo q
lo y
ar men
ad l
ad rf
gu y
gu ay
mi q
ve o
ve w
ve nezuela
ut n
user point
user agent
gi x
gi um
guan jingji
ht b
ht n
au e
au l
au stri
sh p
sh ip
th read
fo e
update userpoint
fb bt
db bf
rce le
rce xa
rce sa
rce ca
rce cd
rce ae
rce es
rce qd
rce mu
rce hg
rce yr
rce as
rce zi
rce mj
rce zj
rce yo
rce nj
rce ua
rce hm
rce yx
rce hb
rce tg
rce um
rce gm
ct be
ue i
ue ditor
ra h
il v
Ġ2 5
ab x
io f
al c
ph e
ph icons
xa fd
ic r
ic w
sy b
sy pq
net stat
pt f
ln r
su s
mo z
sc gi
sc ag
nu x
js f
js z
cn y
eb k
ml c
ml w
pl w
kb f
kb q
ed gz
so f
ca ab
tp n
tp ack
bb ag
bb qr
dy e
dy k
fw d
fw v
bo a
bo v
bo z
cd u
cd z
cd fc
xx h
xx n
xx v
tb w
be pb
ba x
by d
by u
by y
per u
""} ",
wd j
cf zr
lt g
lt s
wx l
fd r
fd ca
ci h
ci i
wa m
cc l
cc fb
fe m
us b
huawei ale
br f
br qh
fc l
fc p
fc y
fc cd
fc qg
it k
sv w
ter s
xm x
wi z
cl d
eo v
cb fb
fin land
uc u
ee bd
ee ed
jw u
do qg
do gr
do minica
bc qg
hw m
hw s
dc ce
bt t
bt w
bt db
ry q
ea si
ea stti
df sa
af te
pg z
sz h
sz u
check insuredorder
cu k
cu ba
vy y
fm m
fm r
ld s
zm w
zm x
es bf
we pt
rl s
eg y
eg dr
eg yf
zn r
zn y
sk u
fu a
ny c
ny se
go z
())} .&
cv n
pd l
pd n
pd pm
ffffff cdf
yz b
yz te
yz yq
qq t
yy a
bg yb
rq s
rq ti
rq bh
gk t
rk a
rk t
sq b
sq fd
rd gz
lk y
zg y
tc y
Ġy es
zq k
bh c
bh v
fq z
jj e
ck h
ck k
ga ria
xw b
xw h
xw v
ku y
hy f
hy r
hy x
dbe fb
qf gi
zh x
zh baidu
mu z
qt n
jy gk
bl u
bl v
pq i
pq n
pq x
gd z
yu i
yu v
gh n
gh p
gh ana
bz k
bz u
]' ^""\
jq c
jq m
zc wf
hg b
nk x
xy c
qg l
qg pu
qg fs
Ġ# |&
zw b
zw q
hn v
vh v
ly c
xk a
xk n
as n
qi j
dg ge
dg ru
bx r
bx z
qa y
ffffef edf
rg b
rg l
xu l
xu w
xu y
Ġ7 8
zk g
zk p
dk v
dk y
za tr
za qf
nc w
nc x
zi mbab
yw o
ru v
zb s
zb pg
nx eu
nx jst
mh d
mj b
dt v
px l
px ze
og q
og cs
lp bki
yd rd
xin hua
he yuan
zx l
sr w
zv p
zv q
zv r
kp n
qr x
qr z
wy m
qv q
qv w
ug b
ug anda
sx d
wv t
jk c
jk k
qx b
qx f
qx l
ft f
ww h
yi w
mn z
rh x
at pe
fv l
wg ge
lu a
lu w
yt d
yt zc
yt gq
dff d
oe tu
bk v
bv r
mk n
mk o
wk l
wk v
wk y
nd v
nd tr
yp te
rv f
rv g
yf h
fx qg
ko z
wh ereis
jh z
wq sb
aq n
ax qe
ax rh
gq l
wt te
mv t
mq n
auth typeoption
hv u
et cf
et gv
]') ]]></
oy qa
rr z
rr ru
vk l
vk q
rz ct
hm w
fk q
fk r
eq uestion
ni y
ni yade
mark details
vu z
xz sh
jt t
jt w
this page
dz tu
np be
hk a
nl w
tg y
jl z
nz cu
xf eb
ys rt
rcek d
nv q
od fb
od ci
ot sr
of ht
pp bz
dee da
xs ga
xp ba
ffffefa db
cac f
ded de
'); ?>
mei guo
ffffefb fe
ffffefb ffeef
bots wana
ecms check
marker s
eeb a
=../../../../../../../../ ../../../
cbb e
ati a
dfd u
eec s
iz ation
calc now
est onia
dra ft
media file
disable cache
chi le
xian f
ffffffdfa cef
lan ka
hal flings
')"") `&
xqh h
sud an
qty wxk
rfb s
lte zc
cro atia
esp f
ocg cnxm
yff r
ffffffefa cea
huaweid uk
zrt s
dns query
ffde dd
bos nia
ypy c
wyy r
zqy jjfk
ffffffcda dea
fffffffdb ceb
Ġeq uest
fdy g
nor way
aor z
fph g
qaf t
fxa h
yxg b
xdq s
neg cnfa
fyg v
ara gua
epy d
mal di
ozu i
fuck you
................................................................................................................................................................................................................................................................................................................................................................................................................................................................................................................................................................................................................................................................................................................................................................................................................................................................................................................................................................................................................................................................................................................................................................................................................................................................................................................................................................................................................................................................................................................................................................................................................................................................................................................................................................................................................................................................................................................................................................................................................................................................................................................................ ................................................................................................................................................................................................................................................................................................................................................................................................................................................................................................................................................................................................................................................................................................................................................................................................................................................................................................................................................................................................................................................................................................................................................................................................................................................................................................................................................................................................................................................................................................................................................................................................................................................................................................................................................................................................................................................................................................................................................................................................................................................................................................................................
xra z
nan oscro
eyg g
oyy t
ffffefdde dfe
oog c
ofy a
nic aragua
qdd z
wqh b
bru nei
wbe q
gly phicons
pli gg
bul garia
leb anon
contract no
ffffca ffdedd
lat via
ita ly
connec tor
ffffffedbf ca
uru guay
schoo lid
sri lanka
ffffeffdff ea
huaweis ne
hong guanjingji
tuni sia
inner html
pale stine
Ġher zegovi
ume ditor
Ġwuizsi pu
ethi opia
pana ma
tanz ania
nami bia
syri an
organ ization
boli via
thail and
xuhong cai
hung ary
costa rica
chica go
lithu ania
getplace markdetails
getreal path
pagin ation
polsk a
armen ia
austri a
zhbaidu map
nanoscro ller
! @
- _[
/ ..
/ ?{""@
; /
= $_
> #
> ${
_ =
_ "")')(
a to
a ar
a content
a zev
a gsg
b ml
b lk
b nb
b sag
b puu
b gim
c my
c dx
c kb
c pre
c pi
c qye
c nek
d lx
d cbz
d tai
d sfv
e zgc
f gi
f uc
f ting
f dec
f gas
f suh
h ex
h un
h eg
h aq
j bd
j bu
j be
j wa
j fe
j pu
j hi
j zu
j za
j bs
j dz
k qh
l os
l gi
l mv
m ut
m gi
m cb
m hw
m rq
m qh
m wv
n wa
n qy
n jy
n ffz
n zgq
o abi
o aa
o ai
o auth
o ffset
o daz
o ctb
o bcs
p lo
p xt
p jg
p im
p it
p dm
p rth
p fs
p nx
p mg
p act
p ddc
p ceq
q ab
q fas
r wg
r gua
s en
s nx
s zec
t ph
t fh
v ang
v ba
v ps
v ui
w re
w sk
w qe
w acd
w rpd
w qat
w zzd
x ve
x ew
x html
x thu
x zga
x guz
x gur
x ddt
x cfh
y tr
y gh
y nx
y aes
z tu
z cur
z bgd
} </
} );&
} ;?
Ġ 94
Ġ 65
Ġ 70
Ġ 80
Ġ 69
Ġ )))
Ġ connec
ff p
ff aa
id k
an c
ta m
nt d
nt x
nt fb
nt rg
de o
de qi
ffff a
ffff cfb
ffff def
no e
no ph
co b
st or
st ok
si y
ce x
ce ad
ce di
ce fi
ce ab
ge y
te en
te rm
da tz
li j
li mg
vi z
ac j
er a
er n
er x
mp m
mp cf
ti r
and u
and ui
me c
se zu
ty n
pe d
pe j
pe t
pe dq
in h
in fr
ffffffff fffe
ss l
ss jygk
le l
le ss
le mobile
la os
ri l
ri o
ex n
ex fc
os b
os g
os h
os k
os ue
ze yg
ze gp
or d
sp ider
op k
op fv
po g
po ub
na dc
tu andui
if m
if w
ec v
ec zu
lo call
lo cale
ar l
ar ts
bd x
bd y
bd yb
ad ur
mi z
ut w
un l
un q
rea lly
gi e
gi z
up c
gs l
ht f
au r
fi i
fi s
fi y
fi yo
ms j
]/ &
ke e
fo df
tr c
fb n
fb w
fb ct
db x
db feff
xt j
rce ch
rce vi
rce ac
rce sh
rce xx
rce lt
rce ju
rce bf
rce wf
rce rc
rce qt
rce sd
rce ft
rce wg
rce nq
rce jh
rce td
rce jd
rce dw
rce lh
ct j
ct p
ct zs
ue d
ue f
ue k
ue l
ra f
ra k
aw i
aw dz
is real
ab zz
io l
io u
xa ee
xa zv
xa eh
ic g
ic p
my d
dx ti
sy ra
mb f
pt z
)) ||'&
)) ||&
mo to
sc w
sc bd
ush eng
sa ea
work space
eb pu
detail grain
ml t
pl s
pl uck
ed q
ca ta
ca fe
lx b
lx s
tp link
bb ph
save draft
dbc fa
poc u
php shell
php wiki
dy a
dy q
dy s
dy v
fw c
fw r
fw y
ll q
asp net
dd o
dd uv
bo b
bo q
bo qf
dh v
dh x
cd s
cd bd
cd ra
cd cf
xx w
xx ea
tb i
tb z
fl b
rt sd
source did
out come
error page
hu c
hu s
wd m
wd p
md j
md l
()) ;
()) ;&
cf ug
bi y
ur m
ur q
wx du
fd re
fd qd
ci e
wa f
wa t
rm f
cc ct
cc qz
fe j
fe yb
huawei ebg
br h
br w
fc zf
getindex able
it g
sv b
sv j
ev g
ev v
uf t
jn f
jn m
tx k
]", ([
bj j
bj dt
xm z
wi e
cl q
eo k
eo q
eo ua
') #
uc m
ee u
web proc
jw e
jw g
jw y
do k
do fb
do expor
hw t
hw rne
hw rvl
bf r
dc r
dc z
dc ub
bt v
bt cu
ry v
ry w
ry ch
ry qv
rp yr
root path
df r
pz rd
pg b
pg fg
pg gz
lf p
cu a
cu z
vy q
vy r
ld u
ae t
ae u
ae y
xi b
xi x
zm if
we k
vc v
wn c
wn s
pc pm
qy ci
qy uu
qy gc
ip k
eg gf
load file
sk ins
ny w
ny bi
ery a
go d
go j
go od
())} );&
())} ;?
py i
py dr
cv b
ffffff fb
yz w
qq d
yy g
yy i
yy w
(); ?
rq p
rq x
fff de
btn close
rc w
rc qz
gk o
Ġd r
rk z
sq zu
rf n
rf x
rd l
zq f
map marker
fq n
fq o
fq t
fq sq
jj d
jj j
ck g
ck o
ck t
xw y
qd pz
ku u
ku z
ku wa
hy b
hy d
qf n
zh j
zh m
zh n
pw c
zy r
zy ca
qt zr
pq af
yu zi
yu qian
mc s
mc aption
gh b
ow o
res list
bz a
ye k
ine s
qh e
rs l
rs r
du i
jq w
Ġg rade
zc zd
hg y
xy g
xy k
xy ca
xy uc
xy zmif
ere ad
zu l
ng c
ng df
ng bg
sg x
sg da
qg m
qg ht
hn q
tl c
vh b
vh e
vh z
ly l
xk f
xk p
xk r
xk s
as pa
qi q
dg pz
qo u
jo c
bx d
bx o
bx s
bx dz
zt d
zt s
qa tar
Ġl gyw
xu x
Ġ7 1
zk q
zk t
zl s
cod z
za j
nc rc
qk f
qk y
yw q
yw u
ru l
ru w
zb m
ffffe ef
sf k
sf ga
sj cx
mh c
mj c
wr sc
wr rf
dt dt
px n
lp m
lp n
wb n
pf jcnxm
zo c
zo h
zj p
xe yq
sb qe
yg ab
yg qb
he k
he q
wedaa kny
zx p
zx z
sr n
sr cv
zv l
jv s
wo b
wo z
wy p
wy t
qv l
qv n
qv s
qv z
mg w
qe j
fg t
fg w
qx c
qx s
qx au
qx qe
yi b
yi i
pk l
Ġ} );&
Ġ} ;?
fy a
fy h
fy l
ai en
uu o
at tq
xg z
xg za
xc zt
pb w
xo l
xo q
xo yd
link sys
dq ra
oe ph
bk q
mk s
mk y
oc rq
wk o
yc x
bp pt
nq b
wc bd
wc yu
rv t
rv u
qp m
hr w
session s
portal func
fx cd
fx sg
gv p
gt n
aq b
aq ba
wu b
ax h
jx b
jx q
wt w
wt tz
wt dv
mv j
mv p
mv dmo
mq w
cq s
mx f
mx r
cy eb
vk k
ha m
rz da
hs n
bs n
gr w
zp n
mw s
xb pt
vu d
wj r
ub ps
xq l
vla divo
dz tr
jr n
nl b
tg wx
jm z
az dh
jl j
nb n
xf er
xf ca
xf ru
xf yd
nv x
ql h
od ca
wz ta
ws ar
ws fs
ez pt
jb w
xd ce
xd fd
tf n
vx l
xr zg
ob qc
uv q
fil eread
xv l
xs ri
lq n
lw m
rcei g
vg w
rceu o
ecms admin
vv s
kt peter
ite mcaption
dffc ca
;} </
eab r
cde i
icon font
dim builder
item filter
bfe g
dra fting
tab set
san ktpeter
zqu v
yuanqu xinwen
ffffefd dec
qos b
pbd u
huaweil dn
ftp c
wer i
yst q
fzq b
xdt f
guu mpcf
bsy i
]>< [
dzh d
dsq a
dzu i
yfq i
zho usheng
ppy q
qre z
ffffffdda def
ffffefffb fff
Ġxa xyzmif
csc u
yao wen
ffffffeff ddf
nfq s
ffffffcff ceb
ztb e
zbz b
wed v
xba q
ndd cnxm
plu sa
wan cfg
..../..../ ..../..../
ann mvdmo
))// '>
zjb wj
dire ct
wjw ckzh
googlechart mapmarker
kor man
helper s
hor de
]=')) ))}&
ief lag
qjk cnxm
ffffefadbd ca
laur us
xinhua qiyezixun
/.. ;/
>${ $
bgim age
vang ogh
Ġconnec ter
infr action
locall b
getindexable content
doexpor tpack
yuqian liang
Ġlgyw sp
wedaakny sw
vladivo stok
annmvdmo wru
& `'
; ]><
> =
? _[
[ <!
[ /../../../../../../../../
` ?__
a qq
a zdv
b mp
b re
b art
b wq
b classid
b guv
b chi
b qhr
b qdv
b thq
c qu
c shz
d lf
d ptc
e qcz
f re
f vo
f zi
f zfs
f ztv
g mc
h wx
i aavka
j jg
j dt
k voz
l kb
l wd
l jw
l hq
m fa
m au
m zn
m qq
m qd
m jq
m mn
n si
n fa
n ju
n xtb
n xae
n zwj
o ax
o fav
o qtz
p ap
p name
p cn
p ci
p ju
p rp
p ine
p nw
p daz
q ing
q es
q jo
q zev
q qua
q pah
r fo
r cn
r kb
r nw
r rbz
r stv
r arg
r zsd
r erh
s al
s wl
s dbf
s opq
u ex
u yy
w ev
w eo
w sf
w sud
w tau
w ctq
w xaf
x lk
x nk
x pv
x jx
x sed
x sti
x fas
x acs
y cf
y tx
y as
y ebe
y quz
z ta
z me
z is
z io
z bt
z lk
z huanti
z ptv
Ġ 83
Ġ 43
Ġ 31
Ġ 88
Ġ 61
Ġ 54
Ġ pha
Ġ ]]></
ff w
ff ug
id t
an h
an t
ta w
nt j
nt rd
de nt
ffff ee
ffff dde
no z
no va
no dg
no kia
co w
co y
co qf
st x
si m
si q
ce zv
ge a
ge g
ge l
te zc
da af
da rc
vi c
vi i
en w
ac y
ac bz
ac yb
er ba
er qf
er ug
mp y
mp builder
on u
channel name
ro d
ti ntegration
gn c
cli ce
ap n
ap dv
re write
se j
se bt
get pye
ty b
ty v
ty z
pe g
pe cq
new search
pa qh
pa getpye
ffffffff bdfa
ss a
ss k
ss w
ss ga
le g
le j
la ile
ri e
ri r
ex g
ex h
ex q
ex ab
ex yg
ex am
os n
os w
va a
va t
va w
or ai
ho c
op n
po ce
po du
po dq
na w
na mc
com bo
tu w
if b
ec z
ec zc
lo f
lo x
bd bt
ad rr
ad bs
ve e
ut b
fi m
fi p
ms r
th r
th w
fo b
ext direct
fb h
fb z
fb ei
fb qz
bu rg
db w
db tc
xt td
rce fl
rce cb
rce zm
rce yy
rce zg
rce ji
rce gd
rce xe
rce xc
rce lr
rce yt
rce aq
rce hf
rce gz
rce gb
rce xz
rce ia
rce oz
rce fn
rce nw
rce pn
rce lz
rce yj
rce bn
rce tn
rce pj
ct tv
ue t
ra o
"") }}
aw c
aw d
aw l
is c
il c
ab bt
al h
al u
ph v
ic i
my z
my an
dx j
dx r
dx yq
dx pv
sy d
sy l
sy u
sy hi
sy yu
sy ye
sy ya
mb c
mb t
net core
ln c
ln z
)) ;&
su l
mo g
mid ea
nu h
cn n
vo a
ml x
pl j
ed bu
so pa
so eb
log book
lx j
tp c
dy d
dy cf
ew g
ew t
ew u
fw m
fw s
fw x
dd j
dd fi
dd sv
bo bv
jg a
dh a
dh e
dh r
cd w
xx y
tb h
fl d
fl j
tags api
rt sf
by e
per seus
hu f
hu huai
commit ment
ei r
ei w
wd o
aa k
aa qe
md f
md mq
cf n
cf ea
sub mi
bi e
ur c
ur f
wx o
wx s
txt search
ci j
wa fr
im q
im w
im gup
fe pu
fe yf
huawei mla
br g
br n
br ca
br yd
fc ps
man li
sv c
uf p
uf y
tx d
bj i
bj t
bj u
ech arts
xm n
xm t
wi b
wi j
wi r
cl c
cl s
eo u
eo zb
cb ac
') ;$
ju j
zz gt
uc s
uc v
=${ ${@
jw j
do b
do i
do t
do tb
do td
do ov
bc j
bc zt
hw y
bf x
bf tv
bf ha
ps ft
bt k
ea k
ea sy
dm c
dm f
ao a
ao cu
rp n
df n
df y
pz o
pz w
pz y
pz rv
af y
pg cc
sz c
sz q
lf k
lf r
lf x
ping back
vy m
vy s
fm t
fm u
fm z
ae sr
we p
pc gh
rl c
rl m
']) }}?
qy p
qy y
ip n
ip v
ip y
eg gi
sk c
sk m
sk o
fu k
wf z
ny a
ny f
ny i
ny t
go b
go l
py aa
cv q
cv w
pd w
pd km
ffffff bab
yz g
yz ch
yz yh
qq l
qq qc
qq cs
yy uz
buil ding
bg c
bg w
bg dc
bg gz
hi r
ox rg
ox uv
rq w
rq ue
rq fc
rq pu
rq rr
admin window
fff eb
rc au
rc gz
gk y
Ġd td
rk n
rk p
rk w
sq c
rf ut
rd n
rd re
rd qd
rd sg
lk q
ki v
ki y
zq l
bh p
fq h
fq bi
hy t
zh h
mu x
pw r
zy g
zy j
zy qi
err z
jy b
pq zh
bz f
bz s
bz v
bz x
bz tg
ye se
qh j
dr ug
hg c
hg m
nk a
nk c
xy r
xy pe
xy eb
xy ur
ag fg
ng m
ng r
sg zc
zd p
zd w
qg x
qg bt
yr rd
zw o
hn p
vh f
ly i
ly q
xk m
xk o
qi a
qi i
dg w
qo b
qo gh
qo qa
sm v
sm z
pr x
pr us
fs w
bx e
bx l
pi y
Ġk j
rg y
rg ti
zs au
zi a
qk w
qk x
zb p
zb se
zb sb
ffffe ecfb
sf x
sj t
nx gc
mh e
mt j
mt w
px rq
px qd
og v
og ad
hh z
yq x
yq z
pf acnxm
zj z
pv s
pv t
sb w
sb fa
yg qz
yg gb
he t
he u
sr j
sr hi
zv z
kp k
jv n
jv w
jv z
wo d
wo u
wo eq
qr hi
qr rg
wy h
wy x
wy pe
wy cv
qv v
qe hc
sx b
fp fc
fg c
fg l
jk f
cg zf
qx hf
ft zc
ww k
ww m
yi y
pk a
pk v
mn b
mn l
mn qo
rh s
fy sh
fy cd
nj d
bq aa
uu v
wp content
fv j
xg y
xc w
xc pt
wg y
lu h
lu q
lu xe
xo a
xo d
xo u
yt gb
dq ti
dq ph
bk d
bv g
bv u
qz cu
wk k
nd pd
nd qa
ya th
bp p
bp ff
bp dh
nq dh
wc w
wc si
wc yr
rv d
rv k
rv v
qp j
qp uc
hr ss
tv k
tv w
fr bi
fx q
ko q
gv n
gv u
rx b
rx pr
gc j
gc yj
wq s
wu a
wu o
ax hg
mq m
oeg r
cq ga
mx s
cdd u
oo ef
hv w
et ct
et df
qb qd
ay sa
hf n
qs n
ha er
rz ue
lv d
yx v
yx pz
hs w
cr n
cr w
yv u
fk w
lequ u
ni kel
vu b
wj c
hd n
ey tr
hb w
dz ps
np fc
hk n
tk h
tk k
efa bc
yh jgwh
nv j
nv s
wz pv
ez ri
ez dh
car b
jc j
of sa
of rq
of perio
vx r
ob au
kk l
ffe eb
xv g
xv r
kv w
yk c
vt w
xp ps
ffffefa fed
nh l
ffffefc ded
cac v
ffffeff defeb
dbf de
uz be
eda r
oeb g
ffffefb fee
ffffefb deede
vq m
sw br
sw it
cff b
Ġ> >
cab h
sl hk
ead c
bda s
kr jx
tj di
eab b
bef dc
jin laile
core ui
ppr v
sout haf
gra b
dra h
eaa e
reset pwd
fffffffde fff
ode h
aci ton
cheng manli
number ofperio
yuanqu tupian
rsp h
ffffefd dbc
leq un
zer s
bpe i
cpy h
addclick times
bel gium
ffffefdf efcb
ocd r
ffffffdff dda
cach ing
tong ji
wad z
ffffffdfe ffa
dpz i
huaweid vc
psh h
qtp s
xfq r
ysq gk
ayy c
ffffffeda dce
ming fang
wby b
esz h
ypf r
ypf z
nbg cnek
caoy ang
dvc m
ffffeffdfd fa
yss b
dte g
oqq h
cth c
wrt s
wgd z
zip code
ffffefcda efb
qfu b
{{ _
qgi cnxm
contract commitment
who ami
ffffffedbf cf
cto img
/./././././././././././././././././././././././././././././././././././././././././././././././././././././././././././././././././././././././././././././././././././././././././././././././././././././././././././././././././././././././././././././././././././././././././././././././././././././././././././././././././././././././././././././././././././././././././././././././././././././././././././././././././././././././././././././././././././././././././././././././././././././././././././././././././././././././././././././././././././././././././././././././././././././././././././././././././././././././././././././././././././././././././././././././././././././././././././././././././././././././././././././././././././././././././././././././././././././././././././././././././././././././././././././././././././././././././././././././././././././././././././././././././././././././././././././././././././././././././././././././././././././././././././././././././././././././././././././././././././././././././././././././././././././././././././././././././././././././././././././././././././././././././././././././././././././././././././././././././././././././././././././././././././././././././././././././././././././././././././././././././././././././././././././././././././././././././././././././././././././././././././././././././././././././././././././././././././././././././././././././././././././././././././././././././././././././././././././././././././././././././././././././././././././././././././././././././././././././././././././././././././././././././././././././././././././././././././././././././././././././././././././././././././././././././././././././././././././././././././././././././././././././././././././././././././././././././././././././././././././././././././././././././././././././././././././././././././././././././././././././././././././././././././././././././././././././././././././././././././././././././././././././././././././././././././././././././././././././././././././././././././././././././././././././././././././././././././././././././././././././././././././././././././././././././././././././././././././././././././././././././././././././././././././././././././././././././././././././././././././././././././././././././././././././././././././././././././././././././././././././././././././././././././././././././././././././././././././././././././././././././././././././././././././././././././././././././././././././././././././././././././././././././././././././././././././././././././././././././././././././././././././././././././././././././././././././././././././././././././././././././././././././././././././././././././././././././././././././././././././././././././././././././././././././././././././././././././././././././././././././././././././././././././././././././././././././././././././././././././././././././././././././././././././././././././././././././././././././././././././././././././././././././././././././././././././././././././././././././././././././././././././././././././././././././././././././././././././././././././././././././././././././././././././././././././././././././././././././././././././././././././././././././././././././././././././././././././././././././././././././././././././././././././././././././././././././././././././././././././././././././././././././././././././././././././././././././././././././././././././././././././././././././././././././././././././././././././././././. /./././././././././././././././././././././././././././././././././././././././././././././././././././././././././././././././././././././././././././././././././././././././././././././././././././././././././././././././././././././././././././././././.
/> ]]></
dataexport dlg
chax un
stor age
nadc nei
tuandui jieshao
[/../../../../../../../../ ../../../../../../../../../../
Ġpha sk
huhuai qian
ffffeecfb fff
southaf rica
numberofperio ds
/ ""
= ..
] }}&
a tri
a yg
a gah
a gsh
a xts
b fl
b bug
b ort
b nj
b eng
b thi
b zzf
b qyv
b pdt
c ps
c jq
c thu
c srv
c see
c pbs
c rez
d sec
d sm
d jh
d pzs
d sgg
e lx
e qgf
e qft
f gn
f gu
f di
f jj
f nq
f nh
g zz
h re
h ri
h md
h jw
h sj
i wo
j to
j op
j xa
j dx
j js
j fl
j ip
j ru
j rx
j mw
k og
k yrg
l ce
l jq
l sm
l qc
m co
m ze
m bd
m bu
m fd
m cc
m cv
m hi
m qg
m qi
m zx
m qp
n fo
n mx
n zrh
o fl
o ev
o bg
o gk
o zqz
p on
p op
p fa
p gs
p bo
p bx
p jx
p nh
p dbf
p clm
q df
q sg
q bbf
q auu
q daq
q zgg
r bo
r ded
r zfs
r rdt
s no
s xw
s qyd
s ddt
t nt
t vid
t vy
u ss
v bo
v sg
w hu
w jn
w spe
w tc
w zu
w dbb
w aui
w seh
w sbs
w zez
x ro
x nu
x fl
x yu
x dk
x rh
x dff
x tuq
x seu
x prh
x zdq
x fhd
y bl
y sea
y bea
y exu
z ma
z rf
z cht
z huo
z apz
z ctf
z abh
} ",
Ġ 93
Ġ lxl
Ġ 52
Ġ 75
Ġ 74
Ġ 42
Ġ 91
=[ '
ff j
id b
an b
an pc
nt m
nt z
nt dc
","" _
de ng
de dae
ffff ec
ffff fee
ffff fbe
ffff dcf
ffff bdfb
no c
no l
co j
co cb
co rs
st m
st zc
ch j
ch ao
ce w
"":"" ""}
li pp
en x
ac p
ac dh
er f
er k
er o
er p
er v
er gr
to c
mp c
on v
data status
ro hu
ro hi
ro pi
ro cz
ro soft
ti i
""","" _
ap ec
me f
app d
ty q
pe ds
in q
pa hh
ffffffff eeda
ss n
ss r
ss u
ss y
le m
le eco
la b
la desh
() ]]></
ri b
ex l
ex z
ex dq
ser s
os d
os l
os x
os ru
os aq
ze j
ze pa
or h
or u
or w
or dc
sp yf
sp bs
ho w
ho use
page d
po a
po m
po eh
na a
na k
na st
tu can
if o
ec g
ec i
ec y
ec ab
lo i
bd dq
bd qs
ad or
ad bh
ad gc
ja f
mi i
ve d
ve p
di gg
ut x
un j
gi i
up p
ht flc
au s
sty pe
ms a
]) )))
th m
th x
th y
th re
auto save
tr p
update d
fb l
fb r
fb hr
xt qc
rce lo
rce mo
rce fe
rce jn
rce zz
rce bt
rce qq
rce qf
rce sg
rce kz
rce fr
rce oo
rce rz
rce jm
rce jl
rce am
rce nr
rce lq
rce oq
rce ou
rce gw
rce bw
rce sl
rce tw
ct cc
con fin
aw z
il p
ab n
ab ti
io g
io t
io y
al m
ph b
ic d
ic x
my j
dx d
dx x
dx fq
sy pa
sy bd
sy ci
sy hs
mb b
pt l
pt bz
pt zr
ln b
)) #
)) ",
mo nte
sc q
sc r
sc zd
sc fh
nu c
nu j
nu u
nu v
nu z
sa gb
js user
vo j
eb q
eb rt
ml b
ml d
pl b
pl l
pl m
kb j
kb x
ed sv
ed yt
so a
so c
so j
ca j
tp j
bb qa
bb hc
org mgr
dy f
dy z
dy hc
ew o
ll g
ll z
dd w
dd deb
bo d
bo l
bo w
ef gv
jg f
jg m
cd fe
redi r
xx f
xx r
xx oo
xx czh
tb f
tb v
be ps
be lar
ba hh
ba he
rt t
rt w
by bc
by sr
msg type
out putstream
hu ay
hu ak
wd w
wd rv
aa ei
aa tt
md n
cf m
sub save
sub menu
bi b
bi x
ur d
ur x
wx b
wx bt
wx dz
fd ts
wa tu
rm r
im v
im x
cc y
cc ge
us d
huawei vtr
huawei ars
br y
fc rc
jn w
tx e
tx s
bj x
wi i
wi re
cl b
cl r
cb w
') ||'&
zz j
ee g
ee eg
ee gb
fau b
jw b
bc tu
hw r
hw aum
hw lra
bf s
bf y
bf hh
dc w
dc au
dc tr
ry h
ry t
ry x
dm z
ao f
ao u
ao ba
ao fc
ao fs
df yt
pz c
pz d
pz l
pz n
pz qf
pg y
pg ch
pg ss
sz l
sz n
lf m
lf n
cu o
ld z
xi z
vc m
wn m
wn p
rl g
rl id
qy n
qy bc
ip u
ip an
eg si
eg hh
sk n
sk t
pu w
wf ue
ny o
ny u
ny sf
ny az
py d
py r
py pg
cv h
cv l
pd j
ffffff feeb
yz u
yz stan
qq z
qq rz
yy si
yy yq
yy rr
bg y
bg ss
ox k
ox su
ox ea
gk f
ep tr
rk c
sq f
sq n
sq w
sq x
sq bu
sq bh
sq rs
sq zf
sq sr
rf ch
rf zt
]_ -
lk a
ki j
zg z
zg zea
zq m
bh f
bh h
fq ss
fq tr
efe ef
jj l
rb w
rb qu
rb ps
dac db
qd fe
ku q
hy p
pw t
zy c
zy e
zy k
jy i
bl y
pq gz
pq gr
yu l
]== }}&
mc x
ow u
ye qi
sbd i
zr dh
qh s
qh x
qh z
du o
zc gs
hg r
hg w
nk h
nk m
xy h
xy l
xy q
xy s
xy ht
comp at
ng ge
ng gd
ng gt
ng tz
ng gq
sg m
sg de
qg pb
qg tz
yr gi
hn f
hn r
hn s
xk z
qi b
qi ang
dg l
dg q
wl m
sm q
sm w
jo t
jo idvewkn
fs si
bx b
bx c
bx v
bx hh
)|| &
rg bg
xu o
zk d
zk x
zl c
zl p
za fd
zi tru
yw y
zb tu
gx b
gx c
sf ei
sj e
sj v
nx rt
nx rd
mh h
mh l
wr r
px o
px r
px s
yq v
yq de
yd fc
wb m
sd j
sd rt
zo q
xe uq
pv b
sb n
yg ct
he zhiku
zx zf
zv f
zv n
jv p
jv r
wo i
wo ea
wo eu
qr bi
wy fa
ug w
Ġ8 7
mg b
mg l
mg z
qe m
sx h
sx st
sx dv
fp bf
fp pd
fg r
jk g
yo d
qx fv
ft sr
yi k
yi v
pk g
pk t
mn p
rh r
rh z
Ġ} ",""_
fy ss
fy bg
ai y
bq z
cs w
wp b
wp n
wp qf
at tt
fv v
ui q
xc rs
pb m
pb n
pb pe
wg w
xo y
xo fg
yt n
yt cb
dq l
dq w
dq pe
dq hu
oe ge
oe tr
oe aa
ts l
bv k
wk c
wk d
yc z
ya v
ya x
ya y
bp ge
nq j
wc r
wc ze
wc su
rv s
rv z
yf bd
yf uc
hr n
art t
fx gh
ko y
wh x
gv k
gv z
rx r
rx de
rx cg
gt w
gc r
gc y
jh s
wq b
wq ad
aq tu
wu m
wu z
ax ge
jx d
wt j
wt q
wt tr
exce rpt
mv f
mv l
rand o
hv l
hv s
et dc
cz gs
cy prus
oy rq
oy qf
vk d
rz gi
lv p
ele ctr
td n
yx cu
yx pv
yx rz
cr cc
cr gh
cr ru
yv n
yv w
])) }}&
hc j
not f
ni andu
xb si
vu x
ey dc
yan yuan
xq da
np pa
hk d
hk q
hk y
]$ ",[
az ge
az erba
nb cb
nz ti
nz aa
xf ss
rcek k
rcek t
od su
ot zu
ws w
ws ue
ez bh
xd j
gy k
gy l
xr se
ob cd
kk d
kk q
ffe de
ffe fb
xv q
kv q
daf cf
nr rc
order info
yk d
xp df
ffffefa fe
ak x
oz fc
oz pi
cac b
ece g
kh j
rceu l
ib w
fdd c
fcb ed
cff t
fcf z
ead i
ctr h
eeb e
www root
vm nx
vd l
cdb t
ost h
tai hezhiku
cca h
ij an
yqh g
hos pi
asc z
sby v
off h
ffffffcf efdf
menu access
fffffd fffb
pbb r
yer z
-* -[
yra e
selected id
xcyymtc jk
fbff fc
qdy t
ffffdff eb
thumb s
ffffffbd bdda
ffffffef acca
zty q
dst z
fyu q
rsp u
leq up
zer land
cha haer
fetch datastatus
fffd ff
qyh md
ffffffbff eee
chen xin
phi lipp
aaaa aaaa
ffffffa decde
cwjgdaj bx
ybr d
shang yanyuan
']); ?>
ffffefdff ddf
sar a
sar z
nfe s
xau c
wge g
czz s
czz u
dzu u
qsc d
ffffdf dbfeff
ffffefcf bddf
dbu d
bra zil
ffffffad bdde
nqh z
pdb m
xfb h
xue hui
lid er
ffffffcda ecb
qar h
psc z
aor a
wru h
nsz r
honora re
ffffefeda cee
zbc u
fxa z
qss q
rzg z
rrh z
neg ro
zhang y
oni clice
ffffffbdff df
qcu z
edi ting
esc d
fffffdb befdc
chb key
nengyuan yuzi
dzz t
eco no
zbh h
ffffbfa dddeb
qfk cnxm
",""]""/ >
dire ction
npe e
dal low
yaf s
ybq s
sel submenu
ecu ador
rfhh l
ffffefbdff de
nbc cnfa
.* &
bang ladesh
Ġ""%"" =""&
chuy in
quotationresult new
eastti mor
zimbab we
maldi ves
sanktpeter burg
zhousheng ping
zhuanti yanjiu
exam result
ffffffbab fee
luxe mbo
uzbe kistan
swit zerland
kyrg yzstan
wsbs dt
confin gs
monte negro
xxczh zl
belar us
fffffffeeb cf
electr oniclice
niandu baogao
azerba ijan
chahaer xuehui
philipp ines
nengyuanyuzi yuan
electroniclice nse
' ""&
* _*/
/ _[
/ ?{""
: ""/
] ($_
a en
a qfh
b va
b tx
b hi
b xtc
b qah
b rtg
c xtb
c quq
c sgr
d pr
d fdf
d zdv
d qyu
d suh
d rqc
e edc
e opq
f le
f ma
f gk
f nc
f ref
f gsc
f stv
f zzv
f zah
g st
g ty
g cd
g xw
g bl
h pa
h ml
h as
i zq
j ca
j cd
j bj
j pd
j zj
j he
j ls
j hr
k ts
l up
l fi
l ba
l sv
l ance
l gk
l yu
l vh
l pr
m ho
m fi
m wd
m hy
m zh
m zr
m nc
m ft
n bu
n wn
n qg
n qz
n hq
n bdf
n bbs
n qub
n btz
n qdr
o dbc
o ck
o ly
o adf
o faa
o zee
o bfu
o ads
o yaz
p pa
p di
p gi
p cf
p home
p tud
p ccr
p saf
p puq
q an
q ef
q bl
q mw
q pag
q apg
r te
r ac
r ang
r mo
r go
r zk
r tag
r chi
r fcr
r cha
r tuz
r ctb
r dfu
r caz
r rei
r fes
s le
s set
s apt
s bj
s fui
s htmlintegration
t na
t qh
t sg
t qv
u aa
v nu
w gx
w hr
w sea
w cea
x up
x js
x hg
x ls
x spq
y jg
y ox
y hh
y bv
y jh
y hk
y dae
y abb
y drv
y thv
y qaz
y qyq
y paf
y buc
y zee
y pae
y bdu
y cug
z de
z mp
z le
z ter
z tc
z ow
z abf
z brv
Ġ 47
Ġ })
Ġ 40
Ġ 84
Ġ 68
Ġ 63
Ġ ]><
ff y
ff pz
ff sd
ff bff
id j
an r
an th
nt b
nt c
nt t
nt zg
nt qe
ne cd
ne bc
ne dt
de j
ffff bde
ffff dfc
no b
no m
no eu
co f
st zf
st zb
si w
si tes
ch x
ch unk
ce av
ge z
te codes
da zc
li bs
vi j
en f
en j
en l
en q
ac ri
er te
er ad
er sg
er gt
to a
to t
to w
on b
on f
on n
ro b
ro la
ro fb
ti y
gn f
ap j
ap l
ap yc
re p
me di
se ss
se sin
pe e
pe o
pe hb
in ation
in cc
Ġ[ '[
pa zs
pa qr
ffffffff aeff
ffffffff bffa
le tby
ri q
ri z
ex ur
ex qc
ex gq
os hr
ze ht
ze ui
or q
sp c
sp yu
sp uv
ho ri
po b
po he
po uh
na e
na hg
na dt
na uu
tu m
if g
if n
ec k
lo d
lo ut
ar w
ar bd
fa ue
bd z
bd tt
ad n
ja a
ja mes
ve j
di anz
ut z
un r
un z
date base
phone list
up f
ht t
sty f
sh n
th g
ke chi
fo gz
tr n
fb x
fb aq
db l
db m
db pz
db ru
rce ct
rce bb
rce be
rce us
rce rd
rce mc
rce lp
rce kp
rce ts
rce nd
rce tz
rce cy
rce hc
rce xb
rce az
rce ot
rce gf
rce xr
rce uq
rce qw
rce cm
rce rw
rce dn
rce fj
rce dl
rce cj
ct qr
con st
con fg
ue y
ra z
ra gu
ra af
ra qz
aw g
aw p
aw q
aw w
is d
is z
il n
ab l
ab w
io i
io m
io w
al b
al d
ph r
xa ch
ic z
my f
my n
dx c
dx w
sy e
sy r
pt d
pt w
pt sg
ln dg
]= ?
]= ']",
cn p
cn z
ony h
eb r
eb v
eb te
ml f
ml l
kb b
kb z
ed w
ed tr
ed yq
so b
so qu
so bc
ca oni
tp x
bb o
bb x
language s
dy b
dy r
ew y
fw a
fw f
asp c
dd rz
dd hd
bo c
bo y
bo fb
ef k
ef uc
jg b
jg w
jg z
cd ug
xx o
xx er
xx ec
xx qa
xx cg
xx brp
ba gu
ba ji
sou c
source system
by i
by n
by s
by v
by w
by dc
by zi
per d
hu j
hu u
wd gb
wd uq
aa ev
aa yf
aa gt
md z
cf zz
ur r
lt t
wx w
wx qq
fd cg
fd gq
ci b
ci z
wa z
rm z
cc w
huawei knt
br c
br rq
it s
it tool
sv d
sv m
sv r
ev q
tx i
bj d
bj e
bj p
xm c
wi gn
eo l
eo yf
cb pg
') #&
ju d
zz cf
zz qh
uc x
ee h
ee pa
ee gs
jw w
do d
do or
do ud
do ceditor
bc w
hw n
bf z
ps n
dc qt
dc qc
dc uv
bt l
bt m
bt s
bt qf
ry d
ry y
ry ad
ry sc
ry gh
ao qr
ao hv
rp j
rp ort
trans let
trans letby
df ye
df hd
df tq
pz gs
pz rf
af r
af u
af ps
pg j
pg fz
sz sq
sz hf
lf s
lf t
ping jia
check url
cu w
fm c
fm f
fm q
ld l
baby info
dge q
ae ta
ae ut
fbf u
wn z
file manager
rl znm
qy df
qy xy
ip q
eg dt
eg ypt
zn f
sk i
sk s
fu l
fu o
fu v
wf hh
wf he
cute editor
ny q
ny ze
ny fq
go h
py n
py u
py y
cv z
yz a
yz o
qq m
qq s
qq zg
yy e
yy r
yy dt
buil d
bg g
image ns
ox q
ox u
rq f
admin password
admin api
rc p
gk c
gk d
ep w
ep ct
sq e
sq p
sq ge
sq ss
sq pc
sq dz
sq lout
rf su
rf us
ki z
zg p
zg rv
zq fq
zq zc
bh j
bh y
fq g
fq fs
ck a
ck n
ck q
ck x
xw u
qd ga
ku d
pub lish
zh f
pw q
pw s
zy b
zy n
zy ed
zy tb
zy pb
qt ce
qt fe
jy m
jy xg
Ġc aption
pq b
pq j
pq ff
yu w
yu mmy
yu xis
mc m
gh l
ow v
bz de
ye he
qh m
du h
du m
dr r
dr zi
zc w
zc ar
hg t
nk k
nk q
xy f
xy n
ag ti
ng g
ng v
ng x
ng qq
sg ae
sg tz
zd de
hono rd
hono rpra
yr fu
zw c
zw p
hn h
vh a
zf gj
ly p
xk y
as b
qi z
qo d
qo av
wl j
sm t
jo j
pr gc
qc j
qc m
fs x
fs fc
bx f
zt dr
pi r
pi z
qa hs
qa hc
Ġk p
rg dh
zl zl
dk p
za au
za sc
zi z
qk k
qk p
zb pv
gx r
sf gi
sj p
nx n
nx ye
nx hg
nx dv
nx hq
mh b
mh q
sts r
Ġj b
dt w
px c
px j
px z
px qt
og b
og yu
ok q
yd qh
?@ [
zo m
pv l
pv p
pv z
pay ment
he m
he z
zv b
zv t
kp b
jv d
jv l
jv t
jv v
wo e
wo l
wo m
wy a
wy s
wy ba
wy cu
qv d
qv f
ug l
ug v
qe yz
sx tu
sx pv
sx cg
wv r
fg q
fg ts
fg tv
jk j
yo t
yo bh
wap i
qx d
ft w
ww p
ww u
yi r
pk h
mn n
rh b
fy c
fy n
fy s
fy fd
fy ga
fy dg
ai rport
nj b
nj e
nj m
nj t
bq s
bq pg
wp ct
at d
at k
at w
at fa
at fe
fv q
fv r
ui e
ui v
xg f
xg g
xg q
xg bq
xc r
xc ct
xc pq
wg q
xo e
xo t
xo cd
yt f
yt k
ls w
dq zz
oe uz
bk h
ts w
bv n
bv x
gg v
gg w
gg fw
mk g
mk r
mk t
qz p
qz dh
oc ad
wk ty
nd p
nd se
ya k
ya ht
ya hh
nq s
nq fb
nq sg
wc m
yp n
yp gu
rv p
tv g
tv u
'/ *_*/
fx d
fx sv
cx b
cx l
cx ff
ko b
wh a
wh c
gv d
gv f
gv g
gv q
yb n
rx pb
wq l
wq w
wq tb
aq sh
wu v
wu yaowen
ax v
ax bt
ax fu
ax zv
jx n
jx z
wt d
wt sz
mv r
mv v
mv w
Ġ{ }",
cq rs
mx j
mx q
dv k
dv u
fz qu
fz sq
hv k
hv q
hv v
hv x
et fg
qb zq
cz pv
cy v
ay k
ay in
ay ga
ay ai
rr dc
rr cu
vk g
vk h
vk w
qs w
rz ps
lv j
lv n
lv t
yx fc
yv x
fk a
eq rs
ni b
ni w
vu h
wj d
wj l
nf ch
hd w
ey au
ey ae
cw m
dz yz
dz fq
np m
np n
np rd
az bt
nb w
nb bu
nb fd
je z
ys bu
nv t
ql w
ot dq
wz pf
ws n
ez bf
xd qa
xeb v
xr j
xr di
ob tb
kk x
uv l
xv v
cap formsresource
lb m
lb w
order s
xs fu
yk g
vt n
xp ph
ffffefc dbedb
ffffefc ffede
oz af
ffffeff dfc
mr w
rcev l
rcev q
ded cf
product nos
lh p
lh x
kg j
down loa
ou y
vq j
gw ywj
oi w
oi y
uy l
fffffff decfa
ik l
kt n
rcey l
eac c
vp ns
el hz
fda i
hai hai
ccd g
jin shu
cba g
Ġad w
__);?> ';
eed u
cwjgdajg bsz
bor b
fos h
cai wuyaowen
vend ors
Ġxx er
rds passwor
xzz u
zxy h
stu dent
bgd jjcmt
')"") &__
ffffefcff cda
xer h
huaweil on
ffffffbff dfe
qgh c
ffffefcd bdde
ffffffddb fee
ffffb fee
ffffefdff cdf
ffffffdff cfa
ffffefbda dce
create image
oge z
nfu a
ffffefcf ecda
zsp c
ffffefede edf
nby v
ffffefdfa cef
nqh v
pbf t
ydy q
ayy v
cdh i
rdy h
ffffefbff ecb
ffffefdfe def
qeg d
epz a
srq f
yfg r
qxy i
ewebeditor net
wec q
zdd g
fyy q
nbh a
ofy t
nav classid
ffffffbfb def
ndd cnfa
qaa t
nck cnfa
xpq i
eph u
hei mi
yth z
dest ination
ffffffbdb eca
schoo l
odt s
'} ]
/) >
vuln spy
tory name
ffffbeb fcbed
dimp ath
kxh bl
ffffefbfbf cf
................................................................................................................................................................................................................................................................................................................................................................................................................................................................................................................................................................................................................................................................................................................................................................................................................................................................................................................................................................................................................................................................................................................................................................................................................................................................................................................................................................................................................................................................................................................................................................................................................................................................................................................................................................................................................................................................................................................................................................................................................................................................................................................................................................................................................................................................................................................................................................................................................................................................................................................................................................................................................................................................................................................................................................................................................................................................................................................................................................................................................................................................................................................................................................................................................................................................................................................................................................................................................................................................................................................................................................................................................................................................................................................................................................................................................................................................................................................................................................................................................................................................................................................................................................................................................................................................ &
kuwa it
namc nek
anpc pro
huay an
wire less
hospi talid
dallow ed
sesin ittool
dianz anpcpro
translet name
transletby tecodes
yuxis lider
rdspasswor dallowed
sesinittool service
% ';
/ $
; """,
= ./
> &__
> ""><
? <
? &[
a il
a jq
a qa
a sea
a ops
a zdz
b pu
b sgv
c zcr
c xet
c sfh
c rhv
d mp
d wx
d uf
d rqe
e vi
e kk
e pcv
e qai
f mi
f jo
f pi
f sth
f pzg
f suv
g on
g ss
g hw
g mh
g yo
g fv
g ane
g nou
h ss
h db
h br
h ny
h bk
h ko
i ad
i mpl
i ary
j rb
j mg
k ang
k sp
k zu
k yx
k dw
k datebase
l ff
l hw
l pz
l yy
l gq
m ch
m rf
m hg
m zu
m zd
m za
n bd
n ue
n ip
n hn
n mt
n fx
n sav
n bee
n pcv
n zqi
n zdz
o no
o ep
o vz
o pae
o peq
o gsf
p se
p uf
p tes
p rd
p ki
p xu
p jk
p dec
p mr
p btf
p qdt
p xav
p pbs
p peq
q ac
r da
r tu
r ue
r tar
r nx
r nd
r qyq
r seg
r fah
s bu
s lq
s par
s xtb
s ctf
s ffu
s rsd
t wn
t zy
t vin
u bb
u cd
u df
v ro
v pe
v op
v pw
v gd
v tl
v qo
v zj
w fl
w sub
w yw
w ted
w pgg
w sef
w zeg
w puh
x le
x bu
x fc
x vc
x bv
x cdc
x gsh
x ccr
x ces
y my
y mb
y qg
y lp
y hc
y acb
y acu
y tuf
z ms
z xa
z sc
z ae
z paz
z ceq
z zeh
z pdt
z tuv
z gsg
z rdz
Ġ com
Ġ min
Ġ 57
Ġ 66
ff o
ff za
ff dff
id f
id n
an al
an tz
an el
an unc
nt n
nt r
nt ed
ne j
ne z
ne ver
ne di
ne rs
ne uh
de fv
de tv
ffff ebff
ffff fbf
ffff afc
ffff beeb
no f
no j
no as
co sr
co eq
st qd
si f
si ve
ce p
ge f
ge w
te p
da bt
li m
li nn
en a
ac m
ac qu
ac gt
er gu
to j
to l
on q
ro ch
ro te
ro tu
ro tq
ti cs
re j
re posi
me b
me p
me q
se su
get tvin
ty m
ty w
pe sf
in gs
in xt
ffffffff fbfe
le p
() =
ex r
ex dg
ex zb
ex uh
news vo
news letter
os qf
os car
va b
ze w
ze gs
ze ee
ze qa
ze yi
ze ub
ze yh
or c
or l
or m
sp m
sp tz
ho f
op st
op se
op pg
op zq
po ut
po lk
na r
na fq
na qg
na at
]. \
ec s
ec w
ec gq
ar j
ar z
ar db
ar bz
ar pb
fa x
fa zf
fa qb
bd gt
ad ti
gu m
mi m
mi ma
ut c
un n
un u
un qu
user list
up z
ht j
au q
au stra
fi neclass
]) }}
]) }{
ke z
fo j
fo ys
tr ade
fb m
rce ma
rce ll
rce ga
rce pr
rce mt
rce fg
rce qz
rce yc
rce hr
rce fz
rce gr
rce jt
rce cw
rce hz
rce nz
rce ql
rce wz
rce xd
rce uz
rce lm
rce xn
rce tj
ct m
ct ci
ct qd
ra v
aw v
aw x
is zc
is ag
il t
il u
ph l
ph m
ph w
xa th
xa jax
my b
my ql
my ship
dx rs
dx yf
sy v
sy x
mb z
mb pz
pt m
ln f
ln n
su j
su di
sc j
sc x
sc us
sc av
js xy
clo ver
]= ../../../../
cn c
cn r
cn zz
vo m
eb fs
eb gc
eb ez
eb deb
${ [
pl f
kb m
ed g
ed k
ed v
ed ct
ed ffe
so t
so z
so yu
so fg
ca ky
comm un
tp w
bb sc
bb fz
bb tg
sta c
sta ge
login wall
/./././. /.
dy i
dy m
ew h
ew i
ew x
fw e
fw l
fw z
ll j
asp q
bo cc
ef sc
ef zh
dh b
dh f
dh h
dh l
dh n
xx l
xx fb
xx uf
xx zr
tb g
be ph
ba au
ba zz
rt dc
by de
by qd
by pf
hu r
ei g
wd z
wd pr
aa x
md m
md p
cf zq
bi j
ur j
lt f
lt m
lt z
wx f
wx hs
fd j
fd si
im c
im u
im gs
cc p
fe il
huawei cor
huawei tny
huawei was
read me
br r
br de
br cf
br cv
br ru
br dz
uf r
uf u
jn z
tx b
tx o
xm j
xm r
cl w
eo g
eo x
eo ze
eo yd
cb m
') ||'
ju m
zz x
zz ga
zz ha
uc r
ee ffff
ee hi
floa t
jw m
do l
do qc
bc z
bc ph
bc yg
hw mxw
hw jmm
bf h
bf ge
bf hc
bt da
bt fz
sho ld
ry g
ry j
ry l
ry r
ry pr
ry bq
ea zu
ea yr
dm x
ao x
rp m
rp ss
rp bd
rp zz
df su
pz x
pz ch
pz ac
pz bg
af v
config a
pg rh
pg cq
sz ab
sz pg
check in
url antz
cu j
img float
dge d
ae pc
ae gf
xi j
zm c
zm z
es k
we ph
vc r
wn d
wn i
wn w
pc bu
pc rm
rl z
qy pc
qy qi
eg k
eg cd
eg hb
from username
sk r
sk w
pu j
pu l
pu yin
fu g
wf p
wf za
ny e
ny l
ny v
ny z
go f
go y
py g
py j
py l
py w
py qq
py yr
pd td
ffffff edf
ffffff eae
yz x
yz sg
qq h
qq j
qq db
qq zc
qq zzq
yy b
yy q
yy bi
bg pd
bg xz
hi e
ox e
ox h
ox n
ox p
ox bg
rq j
admin new
fff cf
gk j
gk m
gk n
ep qb
sq g
sq t
sq re
sq ba
sq zv
sq hq
rf qh
lk c
lk k
lk m
lk o
kno wle
zg j
zg ye
zq j
zq ff
zq bt
zq pq
bh a
bh q
fq e
fq l
jj x
ck d
ck l
rb p
rb gi
ga m
xw m
xw w
xw zz
qd ut
qd ur
hy l
dbe ce
mu d
mu m
mu q
mu u
zy q
qt sg
qt lsx
jy d
jy e
bl zsg
jsp x
jsp ucapformsresource
pq a
pq hi
yu y
gh h
gh j
bz d
bz t
bz sh
ye y
text field
zr gh
]' >""><
qh h
qh l
qh n
rs si
du x
jq s
jq lu
dr x
dr gd
Ġo hx
fore st
zc y
zc yi
hg f
nk l
xy j
xy m
xy aa
ag l
ag bs
ng b
ng w
ng z
ali guojizhengzhi
sg br
zd fd
qg be
qg fq
yr ss
hn l
tl b
tl w
vh h
zf zu
zf ru
ly d
ly x
Ġu m
xk q
qi ao
dg gu
dg bg
qo a
qo o
wl c
wl r
wl an
sm f
sm art
fs d
fs fz
zt dd
rg p
rg ri
rg fs
rg ru
xu fazhan
Ġ7 7
za gu
za tc
zi b
zi i
qk d
qk m
qk s
qk pkq
ru x
zb te
gx e
gx q
sf zu
nx sr
mj z
dt f
dt m
dt qe
px e
px p
px ra
px ca
og g
og ze
og fq
ok w
yq er
yq fa
lp f
lp j
yd qv
wb hu
zo ab
xe te
pv v
pv x
inc unqu
yg p
yg r
yg fs
he guo
zx d
zx s
zx ft
sr de
sr db
sr zf
zv s
kp p
jv j
wy st
wy ci
ug r
mg c
qe z
sx qd
sx fh
sx hc
fp ac
wv f
wv v
fg qi
yo use
cg dh
cg rd
qx q
ft sq
yi x
pk c
pk k
mn d
mn f
fy b
fy qa
fy he
fy av
ai e
nj c
uu x
uu y
wp p
wp fd
at sg
at fg
fv d
ui k
xg l
xg t
xg ya
xc pd
xc qg
wg j
wg z
wg cv
wg zl
lu d
lu l
lu z
xo j
xo ev
yt s
yt ce
yt db
yt qq
dff jqlu
dq pu
oe k
oe y
oe sa
bv z
qz bi
qz ci
'] ",#_
oc su
yc rs
ya m
nq ev
ns w
yp pv
rv b
rv x
act f
hr r
tv d
tv x
iv q
iv x
fr n
fr z
fr rt
fx b
fx l
fx n
fx r
fx v
fx bc
cx q
cx v
cx qq
cx qs
ko o
wh b
wh d
wh z
gv r
gv s
gv t
yb bd
yb qf
Ġpg rlznm
aut hori
rx n
rx sa
rx zbn
gc aw
fh v
fh z
aq gu
aq fu
aq gh
wu j
ax j
ax q
ax cf
gq w
wt t
wt ss
wt sf
mv s
cq zc
mx z
dv g
oo tg
hv t
et qi
qb m
qb cb
cz us
back stage
lg m
lg z
cy n
cy s
cy ae
cy sq
oy sd
ay m
ay th
vk c
qs l
qs gd
rz pt
rz pc
ua j
ua k
hm m
yx h
yx n
yx p
hs l
bs w
fk g
fk y
wj p
nf n
ey pq
ey hb
xq di
xq bz
np db
np fu
hk h
hk k
ted wr
oa hg
tq m
tk c
ada p
efa h
nb ge
nb fb
Ġde fineclass
subject id
xf ri
xf pr
ys bh
rcek q
rcek r
nv v
nv w
ql q
ot tq
wz bh
car a
xd re
xd pz
uk a
uk h
uk n
uk q
vx j
vx s
pp j
pp n
pp dc
xr su
kk n
kk v
uv g
uv n
sn m
sn w
kv b
kv f
kv l
xs w
xs db
xp n
ffffefa dfe
nh j
nh p
ak r
oq di
oq sd
oz si
oz ri
oz fu
ffffeff dac
ocacn fk
fn n
fn w
nw m
lh l
hwe dison
atu t
uh l
oeb b
ffffefb dacfa
bfb s
Ġma x
afa fff
rceo h
kx l
yid aliguojizhengzhi
kt w
]% ""
]% '))
uo v
subsid iary
fef t
soap enc
fda h
accept properties
Ġ(' %'='&
liang huayan
afe g
dcc v
est d
Ġ((' %'='&
cwjgdajg bsk
ongx ing
report id
xps r
lin dex
wdy q
guo guoji
qpq i
fffffd ff
far g
oqh h
fcde fe
cor des
qfg cnxm
asq a
sau g
pty b
anz hou
ffffffcfa dfb
run query
ffffffbff cda
zhong guoguoji
aaaa aa
wbu rlid
qth b
ffffffdf bdcf
wpe z
zdy d
rgh f
rsc b
sdy f
ffffefdd fcde
zho uk
ffffbff ebdeb
bra f
swf upload
Ġih qus
pdy e
pbf m
pbf v
xfb s
cqh a
cqh d
cqh q
qfh cnxm
csy c
csc q
fxy b
qar c
xph v
jingji j
ffffefbff eea
asz d
honora qm
ffffefdfe cef
qfb q
exchange integral
eqh s
defi neclass
ofh z
yfg t
ara ja
mal ta
rge q
fth z
otb z
cez anne
Ġ` [
wcg r
ffffffafb ffe
ffffffafb eda
cph e
sbh f
pdc cnxm
sit kechi
ofq i
wst q
jos huak
ffffefedff de
asy g
qtb r
ffffffddf cee
zij incunqu
ffffeffde ffe
lur d
wab ao
gem ini
dqq z
ouzhou guojizhengzhi
xep b
lian heguo
hol der
shan wign
pce m
ffffefcfe deb
yatai jingji
ffffefbde efa
]=')) &
')}} ;&
bnp nt
ffffdbd fffdb
ama zeui
grea tq
userlog linn
chuan tongji
.\.\.\.\.\.\.\.\.\.\.\.\.\.\.\.\.\.\.\.\.\.\.\.\.\.\.\.\.\.\.\.\.\.\.\.\.\.\.\.\.\.\.\.\.\.\.\.\.\.\.\.\.\.\.\.\.\.\.\.\.\.\.\.\.\.\.\.\.\.\.\.\.\.\.\.\.\.\.\.\.\.\.\.\.\.\.\.\.\.\.\.\.\.\.\.\.\.\.\.\.\.\.\.\.\.\.\.\.\.\.\.\.\.\.\.\.\.\.\.\.\.\.\.\.\.\.\.\.\.\.\.\.\.\.\.\.\.\.\.\.\.\.\.\.\.\.\.\.\.\.\.\.\.\.\.\.\.\.\.\.\.\.\.\.\.\.\.\.\.\.\.\.\.\.\.\.\.\.\.\.\.\.\.\.\.\.\.\.\.\.\.\.\.\.\.\.\.\.\.\.\.\.\.\.\.\.\.\.\.\.\.\.\.\.\.\.\.\.\.\.\.\.\.\.\.\.\.\.\.\.\.\.\.\.\.\.\.\.\.\.\.\.\.\.\.\.\.\.\.\.\.\.\.\.\.\.\.\.\.\.\.\.\.\.\.\.\.\.\.\.\.\.\.\.\.\.\.\.\.\.\.\.\.\.\.\.\.\.\.\.\.\.\.\.\.\.\.\.\.\.\.\.\.\.\.\.\.\.\.\.\.\.\.\.\.\.\.\.\.\.\.\.\.\.\.\.\.\.\.\.\.\.\.\.\.\.\.\.\.\.\.\.\.\.\.\.\.\.\.\.\.\.\.\.\.\.\.\.\.\.\.\.\.\.\.\.\.\.\.\.\.\.\.\.\.\.\.\.\.\.\.\.\.\.\.\.\.\.\.\.\.\.\.\.\.\.\.\.\.\.\.\.\.\.\.\.\.\.\.\.\.\.\.\.\.\.\.\.\.\.\.\.\.\.\.\.\.\.\.\.\.\.\.\.\.\.\.\.\.\.\.\.\.\.\.\.\.\.\.\.\.\.\.\.\.\.\.\.\.\.\.\.\.\.\.\.\.\.\.\.\.\.\.\.\.\.\.\.\.\.\.\.\.\.\.\.\.\.\.\.\.\.\.\.\.\.\.\.\.\.\.\.\.\.\.\.\.\.\.\.\.\.\.\.\.\.\.\.\.\.\.\.\.\.\.\.\.\.\.\.\.\.\.\.\.\.\.\.\.\.\.\.\.\.\.\.\.\.\.\.\.\.\.\.\.\.\.\.\.\.\.\.\.\.\.\.\.\.\.\.\.\.\.\.\.\.\.\.\.\.\.\.\.\.\.\.\.\.\.\.\.\.\.\.\.\.\.\.\.\.\.\.\.\.\.\.\.\.\.\.\.\.\.\.\.\.\.\.\.\.\.\.\.\.\.\.\.\.\.\.\.\.\.\.\.\.\.\.\.\.\.\.\.\.\.\.\.\.\.\.\.\.\.\.\.\.\.\.\.\.\.\.\.\.\.\.\.\.\.\.\.\.\.\.\.\.\.\.\.\.\.\.\.\.\.\.\.\.\.\.\.\.\.\.\.\.\.\.\.\.\.\.\.\.\.\.\.\.\.\.\.\.\.\.\.\.\.\.\.\.\.\.\.\.\.\.\.\.\.\.\.\.\.\.\.\.\.\.\.\.\.\.\.\.\.\.\.\.\.\.\.\.\.\.\.\.\.\.\.\.\.\.\.\.\.\.\.\.\.\.\.\.\.\.\.\.\.\.\.\.\.\.\.\.\.\.\.\.\.\.\.\.\.\.\.\.\.\.\.\.\.\.\.\.\.\.\.\.\.\.\.\.\.\.\.\.\.\.\.\.\.\.\.\.\.\.\.\.\.\.\.\.\.\.\.\.\.\.\.\.\.\.\.\.\.\.\.\.\.\.\.\.\.\.\.\.\.\.\.\.\.\.\.\.\.\.\.\.\.\.\.\.\.\.\.\.\.\.\.\.\.\.\.\.\.\.\.\.\.\.\.\.\.\.\.\.\.\.\.\.\.\.\.\.\.\.\.\.\.\.\.\.\.\.\.\.\.\.\.\.\.\.\.\.\.\.\.\.\.\.\.\.\.\.\.\.\.\.\.\.\.\.\.\.\.\.\.\.\.\.\.\.\.\.\.\.\.\.\.\.\.\.\.\.\.\.\.\.\.\.\.\.\.\.\.\.\.\.\.\.\.\.\.\.\.\.\.\.\.\.\.\.\.\.\.\.\.\.\.\.\.\.\.\.\.\.\.\.\.\.\.\.\.\.\.\.\.\.\.\.\.\.\.\.\.\.\.\.\.\.\.\.\.\.\.\.\.\.\.\.\.\.\.\.\.\.\.\.\.\.\.\.\.\.\.\.\.\.\.\.\.\.\.\.\.\.\.\.\.\.\.\.\.\.\.\.\.\.\.\.\.\.\.\.\.\.\.\.\.\.\.\.\.\.\.\.\.\.\.\.\.\.\.\.\.\.\.\.\.\.\.\.\.\.\.\.\.\.\.\.\.\.\.\.\.\.\.\.\.\.\.\.\.\.\.\.\.\.\.\.\.\.\.\.\.\.\.\.\.\.\.\.\.\.\.\.\.\.\.\.\.\.\.\.\.\.\.\.\.\.\.\.\.\.\.\.\.\.\.\.\.\.\.\.\.\.\.\.\.\.\.\.\.\.\.\.\.\.\.\.\.\.\.\.\.\.\.\.\.\.\.\.\.\.\.\.\.\.\.\.\.\.\.\.\.\.\.\.\.\.\.\.\.\.\.\.\.\.\.\.\.\.\.\.\.\.\.\.\.\.\.\.\.\.\.\.\.\.\.\.\.\.\.\.\.\.\.\.\.\.\.\.\.\.\.\.\.\.\.\.\.\.\.\.\.\.\.\.\.\.\.\.\.\.\.\.\.\.\.\.\.\.\.\.\.\.\.\.\.\.\.\.\.\.\.\.\.\.\.\.\.\.\.\.\.\.\.\.\.\.\.\.\.\.\.\.\.\.\.\.\.\.\.\.\.\.\.\.\.\.\.\.\.\.\.\.\.\.\.\.\.\.\.\.\.\.\.\.\.\.\.\.\.\.\.\.\.\.\.\.\.\.\.\.\.\.\.\.\.\.\.\.\.\.\.\.\.\.\.\.\.\.\.\.\.\.\.\.\.\.\.\.\.\.\.\.\.\.\.\.\.\.\.\.\.\.\.\.\.\.\.\.\.\.\.\.\.\.\.\.\.\.\.\.\.\.\.\.\.\.\.\.\.\.\.\.\.\.\.\.\.\.\.\.\.\.\.\.\.\.\.\.\.\.\.\.\.\.\.\.\.\.\.\.\.\.\.\.\.\.\.\.\.\.\.\.\.\.\.\.\.\.\.\.\.\.\.\.\.\.\.\.\.\.\.\.\.\.\.\.\.\.\.\.\.\.\.\.\.\.\.\.\.\.\.\.\.\.\.\.\.\.\.\.\.\.\.\.\.\.\.\.\.\.\.\.\.\.\.\.\.\.\.\.\.\.\.\.\.\.\.\.\.\.\.\.\.\.\.\.\.\.\.\.\.\.\.\.\.\.\.\.\.\.\.\.\.\.\.\.\.\.\.\.\.\.\.\.\.\.\.\.\.\.\.\.\.\.\.\.\.\.\.\.\.\.\.\.\.\.\.\.\.\.\.\.\.\.\.\.\.\.\.\.\.\.\.\.\.\.\.\.\.\.\.\.\.\.\.\.\.\.\.\.\.\.\.\.\.\.\.\.\.\.\.\.\.\.\.\.\.\.\.\.\.\.\.\.\.\.\.\.\.\.\.\.\.\.\.\.\.\.\.\.\.\.\.\.\.\.\.\.\.\.\.\.\.\.\.\.\.\.\.\.\.\.\.\.\.\.\.\.\.\.\.\.\.\.\.\.\.\.\.\.\.\.\.\.\.\.\.\.\.\.\.\.\.\.\.\.\.\.\.\.\.\.\.\.\.\.\.\.\.\.\.\.\.\.\.\.\.\.\.\.\.\.\.\.\.\.\.\. \.\.\.\.\.\.\.\.\.\.\.\.\.\.\.\.\.\.\.\.\.\.\.\.\.\.\.\.\.\.\.\.\.\.\.\.\.\.\.\.\.\.\.\.\.\.\.\.\.\.\.\.\.\.\.\.\.\.\.\.\.\.\.\.\.\.\.\.\.\.\.\.\.\.\.\.\.\.\.\.\.\.\.\.\.\.\.\.\.\.\.\.\.\.\.\.\.\.\.\.\.\.\.\.\.\.\.\.\.\.\.\.\.\.\.\.\.\.\.\.\.\.\.\.\.\.\.\.
ffffba fcdefe
meiguo chuantongji
ffffdef efeef
combo box
myan mar
Ġlxl gnou
tucan a
thre shold
zhangy ongxing
econo my
luxembo urg
lance lot
anth onyh
caoni ma
baji sitkechi
ffffbfee ffcb
gane shanwign
anunc ios
ffffafc fffdb
reposi toryname
gettvin fo
newsvo tedwr
austra lia
urlantz ick
ffffffeae fff
bgxz ck
knowle dge
blzsg cmt
authori ze
yidaliguojizhengzhi y
lianghuayan jiu
cordes man
zhongguoguoji jingjij
joshuak urlantzick
ouzhouguojizhengzhi j
lianheguo yataijingji
meiguochuantongji jin
anthonyh cordesman
bajisitkechi xufazhan
ganeshanwign araja
% >
/ "">
] "":
] ",#
_ $
a vo
a abi
a gk
a qv
a hk
a zzf
a qhv
b nk
b mv
b nv
b sbs
b pgr
b buz
c up
c rc
c yd
c mn
c jx
c rdt
c prg
d ne
d ang
d zfg
d xaq
d rdu
d pbv
d tpd
e on
e il
e hash
e pgv
e zhz
f li
f op
f ll
f vy
f xi
f ect
f yd
f nd
f rgz
f guq
f xeh
f chz
f rpi
g de
g gn
g ap
g jn
g jj
h se
h lx
h sv
h bz
h nk
h za
h zx
h jt
i is
i eg
i hm
i qw
i ek
j ct
j dm
j ep
j pf
j pb
k id
k te
k li
k me
k ex
k ec
k gu
k sh
k xt
k rp
k xu
k qk
k ft
k fv
k xv
l vi
l tu
l cn
l ma
l dap
m vi
m un
m ct
m fl
m jax
m fv
n gn
n ap
n ht
n ll
n sv
n bl
n ng
n zo
n mz
n sas
n buc
n rtg
n qeh
n bcv
n bqb
o me
o va
o aut
o cec
o pah
o cag
o asf
o xas
p ze
p ve
p il
p dd
p mu
p dhg
p brs
p pev
q si
q la
q dx
q gk
q ly
q ww
q wu
q bdb
q cag
q pes
q ctg
q bcv
q stt
q qys
r ho
r str
r der
r login
r wa
r zh
r hh
r bdc
r cbc
r qua
r ctc
r tea
s re
s ht
s qu
s dk
s wy
s wk
s wq
s lv
s daf
s buf
s gsz
s xtt
s gat
s fuh
t xx
t zw
t jh
t gz
t zwj
u la
u fo
u aw
u sc
u ji
v db
v sc
v tb
v sz
v rd
v dg
v wr
v dt
v rx
v je
w ke
w pl
w ew
w ditor
w cer
w sgt
w faq
w xag
w yrv
w pqe
x an
x gi
x my
x fd
x pu
x ztf
x sat
x ctf
y me
y xt
y hw
y bx
y ort
y qfg
y pcv
y xtt
y buq
y feg
y xez
z fbb
z fba
z buh
z tcg
z dez
ff l
ff ad
id p
id q
id z
an x
nt rs
nt ub
.. \""",""
ne b
de m
de yc
ffff af
ffff dbf
no tu
no ef
no zh
no zr
no za
no cs
co operation
co us
co hs
st j
st br
st anda
si j
ch ine
ce su
ce pq
ce pi
ce gv
ge v
da di
da sq
da dz
li z
vi ation
en z
ac uf
ac uz
er w
er db
mp z
on a
ro a
ro f
ro ce
ro au
ro cc
ro qd
ti p
cli p
ap hi
ap qd
ap yu
ap gq
ap eh
re k
re hu
re pc
re fh
se qu
se ion
se hh
se qr
se ds
se uz
get bytes
ty p
pe f
pe m
pe ug
pe icn
in dax
in nova
pa dt
pa hs
ss ug
ss cg
ss hv
le x
le gc
la ss
la ints
ri sm
ri culture
ex s
ex pi
os ra
os cd
os hi
os yu
ze sv
or v
or dos
sp er
sp bd
sp zc
sp zt
op bf
op cq
po ti
po gh
po fr
na j
na u
tu j
if d
if z
ec p
ec x
ec ze
ec pv
ec cbed
ec nxm
lo z
ar cs
ar hd
bd fdf
ad j
ad p
ad w
ad rd
ad yu
ad tf
ad bce
ad vis
ja j
mi an
ve b
ve m
ut j
un s
age r
gi o
fi ll
ms ru
sh and
sh it
]) ))&
]) '&
th f
th z
ke hu
fo z
fo de
fo es
tr m
fb tf
rce pt
rce js
rce aa
rce rm
rce cc
rce rs
rce za
rce fp
rce ds
rce ya
rce bp
rce qb
rce hd
rce nb
rce xf
rce od
rce ws
rce jb
rce jc
rce mm
rce vt
rce mr
rce lw
rce dp
rce rn
ct bu
ct sa
con g
ue m
ra qd
is b
is r
is w
is x
il d
il w
ab z
io x
al f
al s
al limg
ph f
ph u
ic f
ic j
dx ra
dx bb
dx hg
dx pb
sy p
sy y
sy z
net work
pt pt
pt zi
pt gz
su k
mo admin
mo ther
sc aa
sc ps
sc pr
sc anner
sa av
open ing
vo ters
eb pv
ml j
fun ds
ed on
ed rz
ed tf
so d
so x
so hq
lx z
bb w
bb zh
save fault
pro g
dbc ca
php sso
dy c
dy w
dy ee
dy hs
dy ub
ew c
ew f
ew q
veh update
ll b
ll check
dd rv
bo m
bo ke
bo hd
bo ud
ef r
ef ze
ef rc
ef gg
ef hq
dh y
cd m
xx gs
xx dh
xx yf
fl s
ba fr
rt x
rt qg
by o
by pe
by hi
hu d
hu l
qu j
ei k
ei q
ei u
wd r
wd sg
aa g
aa au
md oa
req z
cf gu
=' ;
bi p
wx c
wx j
wx p
wx yb
wa j
wa ipan
cc z
cc va
fe p
fe qg
fe sf
fe yc
fe av
us x
huawei mrd
="" ><
br l
fc j
fc bt
it l
sv t
ev z
uf s
tx c
tx h
bj b
bj z
xm f
wi w
null class
eo a
eo f
eo as
eo fz
cb zv
ju dy
zz tr
zz zz
zz pc
zz qc
uc p
uc w
ee az
web kit
do ac
do re
bc m
bc sg
hw f
hw o
hw frl
bf n
bf zc
bf yr
bf sr
bf yf
ps j
ps bt
dc j
dc q
bt fs
bt qb
ry n
ry te
ry za
ry dq
ea q
ea gb
dm r
spe llcheck
ao b
ao eb
ao cg
rp be
rp qu
rp cb
df xfg
pz te
af ts
sz hu
sz ui
lf j
cu m
vy b
vy c
vy e
vy p
ld q
dge f
ae pu
ae yh
xi p
es n
es gr
we m
we yu
we yi
we hd
wn f
wn r
pc j
pc qz
file id
rl r
qy qu
qy qb
ip i
ip m
eg x
eg dv
zn j
zn n
zn p
sk j
sk x
fu b
fu w
fu kq
hph fxk
wf j
wf n
wf ra
ny p
go e
py b
py x
py at
pd zt
yz f
yz sc
yz ai
yz tq
bg h
bg l
ox qb
rq pa
rq za
rq dv
rq eu
fff ef
ep qd
ep rh
rk f
rk s
sq zq
sq cg
sq hz
rf pa
rd j
Ġh aw
lk g
zg f
zg zu
zg at
zg tt
zq c
zq p
zq br
zq hs
bh e
fq j
jj hq
rth q
rb ct
rb cc
rb qs
dac ca
xw q
qd j
qd tf
day h
ku m
hy c
hy s
ji r
pw o
zy p
zy s
zy ff
qt l
qt m
qt fr
qt gq
jy p
bl b
bl m
bl p
pq h
pq s
pq w
pq zt
]== =&
ow k
ow sd
bz p
bz er
ye m
sbd u
zr bb
zr zd
qh q
rs w
rs ch
dr ub
zc j
zc zh
zc qg
nk n
nk r
nk s
xy b
xy p
xy rr
xy rz
comp laints
ag m
ag w
ag au
ag riculture
ng j
ng y
ng th
ng cd
ng yf
sg l
sg y
sg bf
sg rf
hono rk
zw z
tl v
vh p
zf j
ly o
dg v
dg y
dg fi
dg gv
qo z
qo ze
qo bf
qo gd
honor lnd
sm j
sm n
pr n
pr uc
pr sq
pr hr
qc ph
qc sf
qc qb
bx j
bx n
bx qb
zt j
zt tv
)|| '
qa zq
qa ya
fed v
rg m
rg ad
zs fe
zs ft
dk q
dk t
za si
nc r
qk c
qk j
qk t
yw bj
zb gs
zb qz
gx s
sf p
sf st
sj f
sj x
nx or
nx ps
nx fu
mh f
mj f
mj m
mt s
dt dd
px f
hh a
hh v
yq pa
lp b
yd si
yd da
wb qi
wb fileid
sd di
sd us
pf gt
zo zz
zo ae
zo qb
zj m
xe qe
pv n
sb fe
sb qf
yg w
yg zu
yg cr
he j
he y
he li
zx b
zx qv
zx cr
sr cb
kp ic
wo c
wo f
wo de
wo ub
wy ra
mg m
mg p
qe er
qe hs
sx si
fp fq
wv p
wv x
fg g
fg ti
fg gi
fg gz
yo a
yo v
cg q
show s
qx r
qx hu
ft zg
ww j
yi e
pk d
pk x
rh p
fy k
kz p
nj z
bq zu
bq as
uu i
uu on
wp uf
wp pv
at pt
fv w
xg ci
ds w
xc au
xc yc
pb ra
wg f
lr n
lr w
xo yv
yt w
yt zh
ls l
oe ff
bk n
bk t
gg b
mk f
mk j
mk m
qz ba
oc w
wk s
yc y
yc ci
nd w
nd gd
ya ff
ya ar
ya ye
ya zhouk
bp n
nq p
nq cb
nq zd
ns l
wc x
wc pc
yp sa
yf r
yf pc
yf zv
qp si
qp ti
qp ht
tv f
tv m
tv v
wbt g
fr x
fr ch
fr ance
fx ti
fx pq
cx bb
cx bh
ko h
ko m
wh s
wh qr
yb fa
yb sv
rx l
rx s
rx bt
rx qv
gt g
gt z
gc zlzl
fh a
fh l
wq n
wq af
aq au
aq tb
wu d
gq m
mv d
mq j
cq b
cq er
dv t
oo h
oo ab
et fb
cz pg
lg p
cy tu
cy pg
cy es
oy k
oy n
oy uc
oy du
ay be
ay sz
ay hc
rr zi
vk f
qs ru
ha j
\.\.\.\.\.\.\.\.\.\.\.\.\.\.\.\.\.\.\.\.\.\.\.\.\.\.\.\.\.\.\.\.\.\.\.\.\.\.\.\.\.\.\.\.\.\.\.\.\.\.\.\.\.\.\.\.\.\.\.\.\.\.\.\. \.\.\.\.\.\.\.\.\.\.\.\.\.\.\.\.\.\.\.\.\.\.\.\.\.\.\.\.\.\.\.\.
rz be
ua h
lv v
lv w
td p
yx l
yx q
yx ht
yx qs
bs st
bs fa
yv l
catch image
fk h
gr aph
zp m
mw j
exp door
lequ i
ni k
xb m
xb bd
gb w
vu o
vu q
wj b
wj f
wj m
nf pz
hd l
ey qc
ey hr
jt f
ub m
xq n
xq ht
xq rt
xq ei
xq zu
hk r
hk x
nl q
ud n
oa qi
oa qr
az ps
tk g
tk l
tk q
ada ed
jl b
nz ff
nz bu
nz ph
jd p
rcek g
nv b
nv f
nv r
od fe
od cb
ot re
ot fr
wz bd
banne r
ez bi
ez du
ez pb
jf j
jf n
jc jg
xd n
xd ut
uk g
uk y
pp rf
xeb i
ob gi
sql result
kv j
kv v
daf de
daf ef
nr rh
lq j
yk q
yk x
xp pe
ffffefa dfc
ffffefa dbfde
dbd h
ak t
oq ht
oz se
ffffeff fe
ffffeff dbcca
mr j
rcev g
atu z
kg l
kg w
qw er
rcei r
dp st
mz sq
cp fe
kh p
xh x
sys date
huawe ime
huawe inxt
pn gintegration
rceu y
fdd v
rceh l
fac g
ek d
Ġ> ]><
hx l
ffffefe deddb
ctr c
kt m
ccb zgh
cbb ecf
dca v
rcee l
pct f
eab v
bef q
cad z
src q
ede v
use delimiter
dae ef
asu o
cwjgdajg dsz
cwjgdajg dszg
ffffffe dac
Ġ""@ \
nsc s
analy tics
fffffd ffffff
far v
ffffffd dbcce
zfxxgk zn
ffffffaf acdf
xdy b
xdy d
ach f
ffffefbf ecce
ffffffbd bcda
ffffffef acde
asq h
rby b
ffffefed feeb
xqh e
oyz s
faq list
nxy c
nxy q
ffffffafa cea
tach url
ffffefcd bdce
dat tachurl
ffffffdff ece
wad t
honorb kk
eyz i
eyz q
wop q
aos f
cmi m
ffffffdfe eca
ffffffdfe deb
ffffffdfe eee
qsc i
qsc s
fffffe ffb
cpe q
ocg r
zpe a
pss v
wpy t
ffffffad feff
psh d
yes b
receivesms up
ybe i
wyy q
ypz d
ypz v
ffffffeda cee
ffffefff efca
qra f
xry q
ffffffc deece
qge h
zby f
war c
zfq d
bzy r
zsg c
eweb wditor
ffffffaff ccf
qsz d
Ġ}& __
honora ka
zan fav
zdb q
qss r
wpt d
pian fang
cqq d
qeg z
eqh c
yfg q
odh q
ffffffbf efdf
Ġha ving
Ġmq jo
cph b
axy t
label id
ffffffbfb bdd
ndh a
obr c
alihack xx
cby u
dsy t
fzy v
xft z
fpz b
pdf t
xdg r
ayz a
ysz a
ffffeffde eca
nru a
xdu q
ffffffcfb cea
wyd s
nah cnfa
ffffefefe cee
ffffefcfe edf
nfs l
yeu ou
aif ayin
eos f
ffffffafe ffb
cyf z
poverty relief
alle viation
teri al
iyy hv
dept code
ffffffcdf ddf
connector s
moto rola
ffffefddec da
fffffdfffb ea
lndg lx
zfgj jgl
downloa dattachurl
youse jinshu
gcaw ln
standa rd
sequ ence
peicn xm
innova tion
advis ory
waipan sudi
spellcheck er
yazhouk aifayin
yazhoukaifayin hang
& */-->'""></
' "");
) ).
) /*_*/
/ </
] (""
] __
` \'
a se
a la
a red
a qg
a xk
a hq
a sth
a qua
a ztg
a zgc
a qqr
b nt
b ro
b if
b ke
b wx
b xi
b qa
b mt
b qr
b wk
b xtg
b reh
b qdz
b auc
c ti
c gu
c sr
c seq
c tuz
c psd
c qeh
c xeq
d co
d le
d na
d tu
d un
d pt
d fw
d zm
d jy
d pv
d srr
d jpm
d anzhou
e me
e qa
e uu
e seq
e qyv
e sae
e aru
f pg
f ku
f gpc
f txg
g te
g pa
g ph
g tb
g wi
g do
g rk
g jq
g pv
g jk
h unt
h on
h fa
h pt
h nu
h zz
h rs
h dk
h fh
h zfx
h gek
i an
i po
i bt
i gh
i zr
i bv
i gw
i byq
i tong
i bdp
j xm
k ge
k mp
k th
k al
k js
k xx
k xy
k openid
k qo
k pv
k fx
l bu
l pt
l fw
l wf
l gh
l mg
l jl
m up
m cd
m xu
m zl
m kz
m rv
n ne
n ve
n cd
n do
n ki
n zu
n hh
n cfd
n byq
n paz
n rgq
n zcr
n zfz
n qcr
n qfs
o ta
o pa
o ar
o ji
o err
o gd
o du
o qv
o ui
o edc
o gsd
o mbv
o tpv
p ja
p mb
p fl
p pgc
p bhg
p opper
p puu
p pgq
p qts
q gn
q ho
q aw
q cn
q eo
q do
q pv
q edu
q bua
q tau
q pei
q srr
q bdr
q rdq
q rgc
q msc
q zcx
r vi
r to
r re
r gi
r ln
r jn
r jl
r dah
s nt
s mi
s fd
s ju
s rb
s wz
s qyc
s ghf
t ce
t ty
t fi
t sc
t wx
t jn
t kuw
u sp
u au
u fi
u cn
u hw
u qy
u ok
u lq
u hiy
v ge
v os
v sa
v jg
v zm
v ny
v sq
v ly
v jo
v gg
v mk
v fr
w pa
w un
w es
w qub
w stv
w zzf
w zcr
w thd
w tcq
x pa
x il
x bo
x do
x ga
x jy
x ere
x sg
x bk
x ni
x bba
x zgh
x pcg
x qyv
x zeg
x qtv
x rdz
x qgr
x shq
x nui
y to
y ms
y vy
y fm
y gk
y hy
y pw
y ng
y jk
y bgd
y rqg
y rqe
y xug
y fdv
z se
z fau
z lf
z ld
z rc
z rd
z sm
z apb
z pcv
z psd
z fas
z pdq
z joh
z drz
z alg
} `
Ġ 38
Ġ parameter
Ġ 64
Ġ 67
Ġ dim
ff ct
ff uf
ff pd
ff tv
ff tt
"": -[
"": {""
an si
ta bs
nt rt
nt ga
ne c
ne sd
ne yt
de hr
ffff cb
ffff deb
no st
no pr
no yf
co tb
co ali
st ff
st pd
st gc
st hs
st ud
st ore
ch p
ch un
ce j
ce gd
ce rh
ce hb
ge d
ge iv
da ma
li sta
vi sor
en dexec
ac gu
er ci
mp re
on r
on ly
on focus
on sive
ro j
ro an
ro af
ro yh
={ ${@
ap cq
re te
re cru
me z
se m
se ar
se gs
se as
get filter
get babyinfo
app m
ty f
pe ar
pe ut
pe dh
pe ez
in n
in r
in w
new bm
pa ok
ss pv
la ga
la bor
() `
ri f
ri p
ri pt
ex b
ex ri
ex di
ex dd
ex aa
ex ci
ex pr
ex bq
ex yc
os ae
os ua
ze m
ze pi
ze ya
ze cq
or j
or x
or sz
or rg
or qz
sp ce
op dz
po ri
po tr
po bb
po fu
po tv
tu cao
ec ph
ec su
ec yr
ec cq
ec ud
ec uh
lo m
ar gd
fa sf
bd j
bd se
bd ph
bd ok
bd uq
ad zz
ad pr
ja s
resp onsive
ve z
ve zq
di j
di l
un f
un m
un w
un iq
age ment
up d
up per
au z
tin puts
th l
fo zr
fo cs
tr j
fb fbf
fb qr
fb bbf
db sh
rce we
rce pc
rce rf
rce dr
rce zb
rce pb
rce wu
rce cr
rce bs
rce jr
rce jf
rce ob
rce lb
rce jz
rce cp
rce ym
rce wm
ct cf
ue km
ra ok
ra ts
str d
$_ $
aw a
aw n
is a
is q
is with
("" \
wor q
il g
Ġ2 6
ab pb
io k
io o
al q
al t
ph c
xa j
xa sg
ic u
my cak
dx gf
sy dc
sy pc
sy cs
sy eh
val ve
mb m
pt p
su fd
mo tor
sc b
sc m
sc rf
sc aq
nu y
sa j
sa zr
cn lu
eb fddf
pl p
pl r
kb p
kb jn
ed tu
ed ut
ed hh
ed hz
ed uv
so ef
so hg
ca au
bb ti
bb fv
bb fr
bb hz
save userinfo
ma tch
dbc cf
dy qa
dy ya
ew r
ew s
fw j
ll f
ll s
ll t
ll w
dd pr
bo mb
ef l
ef ar
ef ut
ef gc
]* /-->'""></
dh c
dh m
dh z
cd ge
cd zu
xx p
tb a
be td
ba ze
ba sis
rt gi
rt sb
by b
by pc
by du
by qc
by fs
by uh
pre g
ei t
ei z
wd u
wd fb
wd qe
aa v
aa y
aa yu
cf ge
cf dg
cf hz
sub widget
=' &
fd za
wa qq
wa zs
wa ha
im n
im z
cc us
cc rc
cc zd
cc gc
fe pt
fe yz
resume info
huawei pic
huawei atu
huawei aqm
br b
br gu
br pf
fc m
fc sz
fc qa
fc yf
fc cae
it c
it m
it n
it ment
ev y
jn j
jn p
tx f
tx m
bj c
bj h
bj m
bj y
wi wm
cl z
eo c
eo h
eo i
eo gu
cb x
cb gi
cb zs
cb mr
') ]&
zz zc
zz uq
ware house
ee z
ee us
web h
web htm
do j
do z
do bu
do za
bc zg
bc uz
hw p
hw z
hw cam
hw fig
hw tnn
hw sla
bf g
bf ut
dc m
dc pv
bt ga
bt gh
bt du
ry e
ry br
ry ha
ry hs
ea m
ea o
dm w
ao i
ao uf
ao hb
ao dz
rp sv
df ar
df ci
df pi
df ud
df tg
pz j
pz rb
pz gd
af k
af pg
af zf
'", (
sz f
sz m
sz x
sz gd
sz qh
sz fs
sz fg
vy j
ld p
baby born
ae k
ae m
ae q
ae gg
ae gt
xi r
zm j
es ga
we qt
wn b
pc br
pc zt
pc gm
pc acnxm
rl w
qy tb
qy qf
ip j
ip w
eg w
eg qq
eg bq
sk q
pu y
wf cd
ny d
ny g
ny ed
ny cd
())} `
query non
py f
py cg
py yc
cv p
cv x
pd cd
pd rv
ffffff fe
ffffff ee
ffffff cfe
ffffff dffcca
yz r
yz qv
yz uz
qq o
qq x
qq ga
qq hf
yy l
yy t
yy dd
yy sv
yy yy
bg st
bg ys
Ġx si
hi re
ox g
ox o
ox v
ox hu
ox cv
ox sf
ox kh
rq r
admin gs
rc j
rc ff
rc su
rc qs
ep k
ep x
ep qf
Ġd jpm
sq j
sq r
rf p
rf he
rf qv
rd ti
lk j
lk s
zg bea
tc k
tc m
zq h
zq t
zq ab
bh x
fq zz
efe ff
xiao ma
xiao zhe
jj c
rb m
rb bu
rb hu
xw p
xw s
xw t
qd p
qd ce
qd fd
ji j
qf qq
qf hh
qf acnxm
zh ai
union id
pw l
zy x
zy sa
qt j
qt dd
bl j
pq c
pq m
pq ze
pq dh
pq cu
yu b
gh m
gh r
ow l
bz rb
bz fz
ye j
ye z
ye yz
zr j
qh c
qh p
du q
du an
jq j
Ġr pel
dr ch
Ġo mbv
zc zt
zc rg
zc rh
zc yt
hg g
xy w
ag gu
ag ca
ag gv
ng ta
ng bu
ng fv
ng pb
ng fz
ng gz
sg re
sg zg
sg gc
zd fi
zd rd
zd qd
zd zy
qg j
qg ph
hn b
hn rc
vh m
zf qq
zf pq
zf sb
ly h
as l
as bs
dg g
dg r
dg gg
qo q
qo ch
qo pa
qo za
qo uu
qo yf
honor jat
sm alle
jo om
qc ra
qc yr
cat q
fs dg
bx er
bx ez
zt qq
zt fz
zt gf
pi i
qa j
ffffef bdbf
rg j
rg fq
rg bz
rg qv
rg tz
zs di
zs bf
zs fv
zk j
zk ung
dk a
dk j
dk k
zi r
qk z
yw b
yw w
yw z
zb ze
gx g
sf ri
sf gs
sj b
nx f
nx l
nx o
nx s
wr n
dt q
dt ff
dt ht
px dr
og tv
hh h
hh j
yq l
yd sb
wb gs
sd p
sd ri
sd qh
pf y
pf gs
pf pz
pf zv
zo i
zo j
zo dh
zo bi
xe y
xe si
xe qd
xe ug
xe ts
pv f
xin clude
xin sui
yg t
yg ch
yg ac
yg yz
yg bq
zx j
zx ht
zx es
zx zc
sr fe
sr zr
zv d
qr hz
wy c
wy ga
qv m
qv u
[]= '"");
sx j
sx p
sx z
sx ea
sx bg
fg b
fg p
fg zt
fg gf
yo f
yo z
yo th
cg g
cg ac
cg aa
show info
qx qg
qx fs
qx sf
yi z
pk s
pk z
rh a
rh l
Ġ} `
fy cf
fy pg
fy gh
fy hh
bq j
bq l
cs n
fv u
fv z
xg be
xg fh
ds resetpwd
xc st
xc fi
wg l
wg re
wg gu
lr j
lr z
xo c
xo tb
yt za
ls wp
dq n
oe qa
bv f
mk w
oc x
oc st
oc ga
oc ye
yc w
yc pt
nd qc
ya j
ya ce
nq w
nq ff
ns ar
wc ab
wc rd
wc qh
act z
qp p
qp be
xty h
iv n
iv r
fx f
fx ss
cx p
cx ev
cx cv
cx rd
cx zf
cx qb
ko a
rx v
rx ch
rx zc
gt d
gt f
gt j
gc p
gc z
wq j
wq m
wq ch
wq ce
wq th
aq ct
?# =@
ax p
ax au
ax ru
jx s
jx qu
gq n
mv m
mv x
cq l
cq gs
dv v
oo yd
hv b
hv d
hv p
et k
cz pa
cy bz
cy pf
oy ge
oy us
oy fs
rr cd
rr bi
vk n
vk r
vk x
vk tl
[...]
