{"<s>":0,"<pad>":1,"</s>":2,"<unk>":3,"<mask>":4,"[VAR]":5,"[CH]":6,"[OTHER]":7,"[U]":8,"[IP]":9,"[MAIL]":10,"[TIME]":11,"[ID]":12,"[VER]":13,"[NUM]":14,"!":15,"\"":16,"#":17,"$":18,"%":19,"&":20,"'":21,"(":22,")":23,"*":24,"+":25,",":26,"-":27,".":28,"/":29,"0":30,"1":31,"2":32,"3":33,"4":34,"5":35,"6":36,"7":37,"8":38,"9":39,":":40,";":41,"<":42,"=":43,">":44,"?":45,"@":46,"A":47,"B":48,"C":49,"D":50,"E":51,"F":52,"G":53,"H":54,"I":55,"J":56,"K":57,"L":58,"M":59,"N":60,"O":61,"P":62,"Q":63,"R":64,"S":65,"T":66,"U":67,"V":68,"W":69,"X":70,"Y":71,"Z":72,"[":73,"\\":74,"]":75,"^":76,"_":77,"`":78,"a":79,"b":80,"c":81,"d":82,"e":83,"f":84,"g":85,"h":86,"i":87,"j":88,"k":89,"l":90,"m":91,"n":92,"o":93,"p":94,"q":95,"r":96,"s":97,"t":98,"u":99,"v":100,"w":101,"x":102,"y":103,"z":104,"{":105,"|":106,"}":107,"~":108,"¡":109,"¢":110,"£":111,"¤":112,"¥":113,"¦":114,"§":115,"¨":116,"©":117,"ª":118,"«":119,"¬":120,"®":121,"¯":122,"°":123,"±":124,"²":125,"³":126,"´":127,"µ":128,"¶":129,"·":130,"¸":131,"¹":132,"º":133,"»":134,"¼":135,"½":136,"¾":137,"¿":138,"À":139,"Á":140,"Â":141,"Ã":142,"Ä":143,"Å":144,"Æ":145,"Ç":146,"È":147,"É":148,"Ê":149,"Ë":150,"Ì":151,"Í":152,"Î":153,"Ï":154,"Ð":155,"Ñ":156,"Ò":157,"Ó":158,"Ô":159,"Õ":160,"Ö":161,"×":162,"Ø":163,"Ù":164,"Ú":165,"Û":166,"Ü":167,"Ý":168,"Þ":169,"ß":170,"à":171,"á":172,"â":173,"ã":174,"ä":175,"å":176,"æ":177,"ç":178,"è":179,"é":180,"ê":181,"ë":182,"ì":183,"í":184,"î":185,"ï":186,"ð":187,"ñ":188,"ò":189,"ó":190,"ô":191,"õ":192,"ö":193,"÷":194,"ø":195,"ù":196,"ú":197,"û":198,"ü":199,"ý":200,"þ":201,"ÿ":202,"Ā":203,"ā":204,"Ă":205,"ă":206,"Ą":207,"ą":208,"Ć":209,"ć":210,"Ĉ":211,"ĉ":212,"Ċ":213,"ċ":214,"Č":215,"č":216,"Ď":217,"ď":218,"Đ":219,"đ":220,"Ē":221,"ē":222,"Ĕ":223,"ĕ":224,"Ė":225,"ė":226,"Ę":227,"ę":228,"Ě":229,"ě":230,"Ĝ":231,"ĝ":232,"Ğ":233,"ğ":234,"Ġ":235,"ġ":236,"Ģ":237,"ģ":238,"Ĥ":239,"ĥ":240,"Ħ":241,"ħ":242,"Ĩ":243,"ĩ":244,"Ī":245,"ī":246,"Ĭ":247,"ĭ":248,"Į":249,"į":250,"İ":251,"ı":252,"Ĳ":253,"ĳ":254,"Ĵ":255,"ĵ":256,"Ķ":257,"ķ":258,"ĸ":259,"Ĺ":260,"ĺ":261,"Ļ":262,"ļ":263,"Ľ":264,"ľ":265,"Ŀ":266,"ŀ":267,"Ł":268,"ł":269,"Ń":270,"\"\"":271,"=[":272,"ff":273,"]&":274,"AR":275,"VAR":276,"NU":277,"NUM":278,"\"\":":279,"\",":280,"id":281,"ER":282,"an":283,"ta":284,"nt":285,"-[":286,"\",\"\"":287,"..":288,"ne":289,"de":290,"ffff":291,"no":292,"co":293,"VER":294,"vno":295,"st":296,"si":297,"ch":298,"ce":299,"\"\":\"\"":300,"ge":301,"te":302,"ID":303,"da":304,"li":305,"čĊ":306,"vi":307,"en":308,"ac":309,"er":310,"to":311,"mp":312,"vice":313,"device":314,"unt":315,"on":316,"data":317,"anne":318,"channe":319,"channel":320,"ro":321,"]-[":322,"count":323,"ti":324,"tamp":325,"gn":326,"]-":327,"....":328,"ent":329,"HER":330,"OT":331,"OTHER":332,"\"\"\",\"\"":333,"sign":334,"\"\"\"\"":335,"cli":336,"client":337,"account":338,"ken":339,"token":340,"deviceid":341,"={":342,"ap":343,"re":344,"and":345,"me":346,"][":347,"se":348,"get":349,"roid":350,"android":351,"app":352,"}&":353,"test":354,"={\"\"":355,"ty":356,"pe":357,"in":358,"type":359,"Ġ[":360,"\"\":\"\"[":361,"........":362,"tion":363,"new":364,"]\\":365,"pa":366,"ffffffff":367,"ss":368,"]\"\"\",\"\"":369,"le":370,"la":371,"/[":372,"()":373,"ang":374,"ri":375,"ex":376,"news":377,"ser":378,"os":379,"\",#":380,"va":381,"ze":382,"or":383,"size":384,"CH":385,"\"\":[":386,"ver":387,"sp":388,"ho":389,"list":390,"page":391,"op":392,"=&":393,"po":394,"]\",\"\"":395,"na":396,"................":397,"com":398,"tu":399,"].":400,"if":401,"10":402,"):":403,"14":404,"ec":405,").":406,"lo":407,"ar":408,"fa":409,"bd":410,"ad":411,"\"\"\"\"\"\"\"\"":412,"end":413,"(#":414,"ja":415,"gu":416,"mi":417,"set":418,"name":419,"\"\"}&":420,"resp":421,"ve":422,"tude":423,"di":424,"ut":425,"ation":426,"onse":427,"response":428,"lang":429,"java":430,"time":431,"\"\":\"\"\",\"\"":432,"ute":433,"un":434,"rea":435,"]/[":436,"user":437,"chr":438,"16":439,"wri":440,"write":441,"('":442,"posi":443,"age":444,"}[":445,"exec":446,"oper":447,"={}&":448,"date":449,"hone":450,"gi":451,"phone":452,")\",#":453,"wang":454,"guan":455,"guanwang":456,"/.":457,"sion":458,"position":459,"ime":460,"ios":461,"13":462,"()\",#":463,"cont":464,"up":465,"{\"\"":466,"gs":467,"ht":468,"au":469,"fi":470,"sty":471,"style":472,"ms":473,"]/":474,"tin":475,"sh":476,"row":477,"])":478,"th":479,"ke":480,"fo":481,"auto":482,"tr":483,"................................":484,"/./.":485,"dex":486,"execute":487,"ext":488,"getlist":489,"operation":490,"update":491,"cess":492,"fb":493,"context":494,"bu":495,"db":496,"pri":497,"print":498,"xt":499,"]}&":500,"rce":501,"ct":502,"con":503,"ue":504,"for":505,"ra":506,"(\"\"\"\"\"\"\"\"":507,"&\"\"":508,"str":509,"\"\")":510,"$_":511,"aw":512,"version":513,"is":514,"\\\"\"":515,"ction":516,"(\"\"":517,"wor":518,"il":519,"Ġ2":520,"ab":521,"io":522,"lon":523,"lati":524,"gitude":525,"longitude":526,"latitude":527,"(\"\"\"\"":528,"al":529,"ph":530,"getin":531,"info":532,"der":533,"xa":534,"vle":535,"ic":536,"my":537,"code":538,"servle":539,"last":540,"dx":541,"\"\":\"\"}&":542,"sy":543,"writer":544,"\"\"\"\")":545,"().":546,".[":547,"val":548,"getwriter":549,"mb":550,"\\.":551,"net":552,"ream":553,"stream":554,"\\.\\.":555,"cla":556,"pt":557,"ln":558,"))":559,"updatetime":560,"lastupdatetime":561,"put":562,"=#":563,"true":564,"su":565,"access":566,"tch":567,"mo":568,"ifi":569,"wifi":570,"index":571,"{\"\"@":572,"putstream":573,"class":574,"mid":575,"mber":576,"deviceinfo":577,"sc":578,"ush":579,"member":580,"county":581,"nu":582,"11":583,"sa":584,"js":585,"clo":586,"arch":587,"close":588,"]=":589,"Ġjava":590,"search":591,"].[":592,"cn":593,"server":594,"imei":595,"]?":596,"clientid":597,"println":598,"ony":599,"[\"\"":600,"open":601,"vo":602,"work":603,":/":604,"([":605,"]:":606,"ste":607,"]\"\"}&":608,"--":609,"eb":610,"xwork":611,"${":612,"lse":613,"tail":614,"detail":615,"ml":616,"pl":617,"ssage":618,"').":619,"scri":620,"fun":621,"kb":622,"acti":623,"ed":624,"so":625,"ca":626,"reader":627,"comm":628,"message":629,"log":630,"IM":631,"TIM":632,"TIME":633,"=@":634,"lx":635,"($_":636,"untime":637,"tp":638,"runtime":639,"function":640,"bb":641,"json":642,"83":643,"save":644,"pro":645,"../":646,"che":647,"://":648,"sta":649,"ard":650,"\"\"\"\"):":651,"ma":652,"getmessage":653,"getmessagecount":654,"can":655,"mph":656,"symph":657,"symphony":658,"opensymphony":659,"dbc":660,"poc":661,"getdetail":662,"39":663,"times":664,"timestamp":665,"ify":666,"fast":667,"vss":668,"rmi":669,"verify":670,"autoverify":671,"awvss":672,"awvsscan":673,"org":674,"fastjson":675,"apa":676,"\"\"\"\"&":677,"next":678,"uage":679,"language":680,"getmy":681,"channels":682,"confi":683,"apache":684,"php":685,"login":686,"sun":687,"getmychannels":688,"/./././.":689,"mpl":690,"jdbc":691,"}}":692,"seti":693,"rowset":694,"rowseti":695,"jdbcrowseti":696,"jdbcrowsetimpl":697,"\"\"&\"\"":698,"key":699,"(&":700,"&\"\"\"\")":701,"&\"\"\"\")\"\"\"\"):":702,"dis":703,"http":704,"servlet":705,"dy":706,"ew":707,"ing":708,"tcher":709,"................................................................":710,"patcher":711,"dispatcher":712,"httpservlet":713,"httpservletresponse":714,"ram":715,"veh":716,"fw":717,"html":718,"00":719,"__":720,"send":721,"ll":722,"top":723,"asp":724,"dd":725,"bo":726,"ef":727,"savedeviceinfo":728,"mit":729,"Ġs":730,"jg":731,"live":732,"view":733,").(#":734,"ply":735,"]*":736,"reply":737,"dh":738,"\"\"\"\"\"\"\"\"):":739,"cd":740,"12":741,"../../":742,"redi":743,"hot":744,"xx":745,"redire":746,"tb":747,"]*[":748,"ssid":749,"Ġi":750,"be":751,"ration":752,"fl":753,"ror":754,"mic":755,"')\",#":756,"topic":757,"dyna":758,"dynamic":759,"ba":760,"tags":761,"sou":762,"ger":763,"rt":764,"\"\":\"\"-":765,"source":766,"by":767,"msg":768,"out":769,"memberaccess":770,"mac":771,"abi":772,"\"\"&":773,"\"\"}[":774,"Ġexecute":775,"flush":776,"xajg":777,"xajgdx":778,"gsend":779,"msgsend":780,"sendmsg":781,"\\.\\.\\.\\.":782,"redirect":783,"vate":784,"activate":785,"lxdh":786,"idfa":787,"devicedata":788,"activatedevicedata":789,"${#":790,"per":791,"error":792,"pre":793,"guration":794,"configuration":795,"hu":796,"()}":797,"datasource":798,"\"\"}":799,"xafw":800,"ind":801,":${#":802,"num":803,"tor":804,"qu":805,"commit":806,"ssion":807,"len":808,"ei":809,"autocommit":810,"script":811,"datasourcename":812,"20":813,"gnl":814,"_[":815,"wd":816,")&\"\"":817,"\"\":{\"\"@":818,"path":819,"common":820,"step":821,"aa":822,"getinputstream":823,"inputstream":824,"dxpt":825,"md":826,"={}[":827,"ognl":828,"req":829,"\"\");":830,"())":831,"Ġth":832,"sele":833,"cf":834,"sub":835,"else":836,"select":837,"['":838,"push":839,"Ġthen":840,"='":841,"action":842,"bi":843,"kind":844,"sang":845,"sangfor":846,"vert":847,"ur":848,"late":849,"Ġw":850,"opera":851,"resu":852,"lt":853,"wx":854,"username":855,"txt":856,"fd":857,"ci":858,"taction":859,"(\\\"\"":860,"huaw":861,"\\\"\").":862,"voke":863,"wa":864,"rm":865,"invoke":866,"im":867,"cc":868,"uts":869,";$":870,"\"\"])":871,"struts":872,"Ġis":873,"fe":874,"us":875,"|<":876,"Ġerror":877,"win":878,"all":879,"resume":880,"huawei":881,"Ġnext":882,"Ġresume":883,"servletaction":884,"servletactioncontext":885,">|":886,"lated":887,"uter":888,"outer":889,"string":890,"advert":891,"roo":892,"read":893,");":894,"=\"\"":895,"br":896,"false":897,"eric":898,"fc":899,"Ġfunction":900,"/./././././././.":901,"numeric":902,"getindex":903,"bubb":904,"bubble":905,"dateupdate":906,"getindexbubble":907,"Ġbd":908,"pla":909,"Ġif":910,"Ġto":911,"Ġlen":912,"Ġstep":913,")&\"\"\"\")\"\"\"\"):":914,"byval":915,"Ġisnumeric":916,"->|":917,"|<-":918,"buff":919,"buffer":920,"nce":921,"edreader":922,"inputstreamreader":923,"bufferedreader":924,"commons":925,"setposition":926,"met":927,"man":928,"metho":929,"it":930,"getruntime":931,"getresponse":932,"Ġ(\"\"":933,"loa":934,"vince":935,"sv":936,"=(":937,"province":938,"isset":939,"}}}":940,"place":941,"ev":942,"post":943,"apt":944,"board":945,"gethot":946,"gethotsearch":947,"cmd":948,"red":949,"\"\"\"\"\"\"\"\"&":950,"(\"\"\"\"\"\"\"\"[":951,"Ġand":952,"xapt":953,"uf":954,"jn":955,"tx":956,"93":957,"38":958,"................................................................................................................................":959,"]).":960,"]\",":961,"state":962,"bj":963,"setdeviceinfo":964,"word":965,")):":966,")).(#":967,"ech":968,"ter":969,"getreply":970,"getreplylist":971,"forname":972,"viewstate":973,"]\"\"\"\"\"\"\"\"":974,"\"\"\"\")\"\")":975,"]\"\"\"\"\"\"\"\")):":976,"48":977,"mode":978,"xm":979,"19":980,"stem":981,"bug":982,"char":983,"chec":984,"echo":985,":\"\"\"\"\"\"\"\"&":986,"math":987,"(\"\"\"\"\"\"\"\"->|":988,"(\"\"\"\"\"\"\"\"|<-":989,"(\"\"\"\"\"\"\"\"->|\"\"\"\"\"\"\"\"):":990,"(\"\"\"\"\"\"\"\"|<-\"\"\"\"\"\"\"\"):":991,"debug":992,"?{\"\"@":993,"lash":994,"wi":995,"null":996,"cl":997,"eo":998,"tur":999,"cb":1000,"Ġ(":1001,"')":1002,"activi":1003,"activity":1004,"getpage":1005,"operate":1006,"process":1007,"getpagedata":1008,"home":1009,"fin":1010,"ju":1011,"vlo":1012,"||":1013,"command":1014,"zz":1015,"favo":1016,"hottopic":1017,"vloger":1018,"favored":1019,"gerprint":1020,"fingerprint":1021,"content":1022,"uc":1023,"ware":1024,"gsm":1025,"brand":1026,"ee":1027,"ufac":1028,"bssid":1029,"hard":1030,"pwd":1031,"manufac":1032,"turer":1033,"hardware":1034,"manufacturer":1035,"arme":1036,"armeabi":1037,"Ġ:":1038,"Ġ(\"\"\"\"":1039,"keys":1040,"Ġ(\"\"\"\"\"\"\"\"":1041,"eval":1042,"Ġa":1043,"floa":1044,"aspx":1045,"tball":1046,"floatball":1047,"floatballnews":1048,"start":1049,"=${":1050,"]]":1051,"Ġchar":1052,"]\"\"":1053,":[":1054,"Ġ-":1055,"pass":1056,"fix":1057,"\\.\\.\\.\\.\\.\\.\\.\\.":1058,"ting":1059,"web":1060,"[[":1061,"setting":1062,"]]\",#":1063,"prefix":1064,"fau":1065,"rmh":1066,"jndi":1067,"getinit":1068,"getinitsetting":1069,"jw":1070,"jndiconfiguration":1071,"=/[":1072,"]\"\"}[":1073,"do":1074,"fault":1075,"bc":1076,"cover":1077,"scribe":1078,"subscribe":1079,"mysubscribe":1080,"getcover":1081,"getcoverlist":1082,"hw":1083,"bf":1084,"]=[":1085,"ps":1086,"swi":1087,"dc":1088,"vid":1089,"bt":1090,"sho":1091,"lxdhinvoke":1092,"mobi":1093,"mobile":1094,"ry":1095,"switch":1096,"==[":1097,"lea":1098,"\"\"}\",\"\"":1099,"{$":1100,"permi":1101,"(#_":1102,"video":1103,"ance":1104,"permission":1105,"Ġpermission":1106,"ans":1107,"ea":1108,"dm":1109,"getre":1110,"ebff":1111,"lop":1112,"uti":1113,"spe":1114,"\\[":1115,"ao":1116,"tblop":1117,"tblopuser":1118,"sms":1119,"para":1120,"rp":1121,"iswin":1122,"Ġ\"\"":1123,"root":1124,"trans":1125,"29":1126,"lease":1127,"release":1128,"df":1129,"pz":1130,"stance":1131,"af":1132,"config":1133,"'\",":1134,"15":1135,"?$_":1136,"translated":1137,"><":1138,"]:[":1139,"expre":1140,"expression":1141,"pg":1142,"sz":1143,"lf":1144,"ping":1145,"check":1146,"util":1147,"default":1148,"[\"\"[":1149,"]\"\"]=":1150,"constr":1151,"../../../../":1152,"bab":1153,"{'":1154,"&__":1155,"cial":1156,"special":1157,"getspecial":1158,"getspecialchannel":1159,"=&__":1160,"url":1161,"getlive":1162,"cu":1163,"flash":1164,"getflash":1165,"getflashadvert":1166,"img":1167,"enews":1168,"]?{\"\"@":1169,"getlivekind":1170,"vy":1171,"uctor":1172,"constructor":1173,"27":1174,"getvideo":1175,"getvideokind":1176,"]\",[":1177,"99":1178,"IP":1179,"fm":1180,"02":1181,"ld":1182,"Ġ{\"\"":1183,"instance":1184,"liveindex":1185,"ros":1186,"newinstance":1187,"getconstructor":1188,"baby":1189,"ster":1190,"getdynamic":1191,"dge":1192,"versioncode":1193,"latest":1194,"getlatest":1195,"getlatestversion":1196,"kxm":1197,"osj":1198,"ae":1199,"jwosj":1200,"kxmjwosj":1201,"judge":1202,"judgeactivity":1203,"'\",'":1204,"base":1205,"fbf":1206,"xi":1207,"gete":1208,"wxuser":1209,"meter":1210,"zm":1211,"parameter":1212,"es":1213,"tes":1214,"system":1215,"shop":1216,"parameters":1217,"64":1218,"ini":1219,"]--":1220,"we":1221,"event":1222,"Ġnew":1223,"gic":1224,"/./././././././././././././././.":1225,"lxl":1226,"quo":1227,"]):":1228,"vc":1229,"wn":1230,"pc":1231,"\"\";":1232,"file":1233,"rl":1234,"self":1235,"magic":1236,"quotes":1237,"ognlcontext":1238,"}:":1239,"'])":1240,"cent":1241,"qy":1242,"(@":1243,"ment":1244,"dir":1245,"gene":1246,"ip":1247,"git":1248,"genera":1249,"eg":1250,"zn":1251,"fro":1252,"method":1253,"43":1254,"])||":1255,"=/":1256,"checkcode":1257,"ress":1258,"25":1259,"replace":1260,"from":1261,"load":1262,"sk":1263,"pu":1264,".=\"\"":1265,"\"\"]:":1266,"posix":1267,"\"\"])?$_":1268,"mous":1269,"47":1270,"valid":1271,"())).":1272,"fu":1273,"])&":1274,"hph":1275,"wf":1276,"'))":1277,"cute":1278,"ny":1279,"hphm":1280,"ery":1281,"go":1282,"())}":1283,"18":1284,"svn":1285,"=(#":1286,"query":1287,"latednews":1288,"getrelatednews":1289,"password":1290,"vcode":1291,"33":1292,"py":1293,"==":1294,"validation":1295,"eventvalidation":1296,"cv":1297,"pd":1298,"52":1299,"Ġ0":1300,"stri":1301,"min":1302,"Ġ'":1303,"ffffff":1304,"yz":1305,"xxxx":1306,"\",\\":1307,"bin":1308,"=${(#_":1309,"qq":1310,"yy":1311,"buil":1312,"*@":1313,"@*":1314,"34":1315,"conta":1316,"viewstategenera":1317,"builder":1318,"))\",#":1319,"bg":1320,"cur":1321,"image":1322,"viewstategenerator":1323,"Ġwh":1324,"processbuilder":1325,"Ġ-\",":1326,"groo":1327,"groovy":1328,"................................................................................................................................................................................................................................................................":1329,"Ġx":1330,"hi":1331,"rent":1332,"ox":1333,"?{\"\"":1334,"upload":1335,"($":1336,"();":1337,"rq":1338,"Ġ1":1339,"Ġe":1340,"fie":1341,"keyword":1342,"86":1343,"field":1344,"})":1345,"jax":1346,"cal":1347,"current":1348,"admin":1349,"Ġ$":1350,"limit":1351,"fff":1352,"ution":1353,"btn":1354,"ditor":1355,"rc":1356,"ame":1357,"anony":1358,"mail":1359,"AI":1360,"MAI":1361,"MAIL":1362,"'\",#":1363,"gk":1364,"ep":1365,"case":1366,"anonymous":1367,"=(@":1368,"oppo":1369,"ajax":1370,"filen":1371,"filename":1372,"\\.\\.\\.\\.\\.\\.\\.\\.\\.\\.\\.\\.\\.\\.\\.\\.":1373,"sendsms":1374,"take":1375,"Ġd":1376,"28":1377,"rk":1378,"22":1379,"sq":1380,"css":1381,"rf":1382,"hpz":1383,"01":1384,"]&__":1385,"lay":1386,"Ġ<":1387,"hpzl":1388,"docu":1389,"document":1390,"]_":1391,"rd":1392,"boo":1393,"Ġh":1394,"lk":1395,"85":1396,"]==[":1397,"int":1398,"uid":1399,"kno":1400,"')(":1401,"56":1402,"insta":1403,"install":1404,"ki":1405,"zg":1406,"svg":1407,"known":1408,"unknown":1409,"actionid":1410,"tc":1411,"webs":1412,"75":1413,"35":1414,"ption":1415,"sobj":1416,"rpsobj":1417,"userlogin":1418,"fwzn":1419,"=\\":1420,"Ġ00":1421,"gsy":1422,"()).(#":1423,"sec":1424,"Ġp":1425,"Ġy":1426,"zq":1427,"32":1428,"remember":1429,"nurl":1430,"orer":1431,"plorer":1432,"explorer":1433,"tingsy":1434,"loginnum":1435,"rtnurl":1436,"operatingsy":1437,"operatingsystem":1438,"col":1439,"31":1440,"'])?":1441,"map":1442,"appl":1443,"vivo":1444,"95":1445,"usr":1446,"bh":1447,"82":1448,"=#_":1449,"fq":1450,"46":1451,"endtime":1452,"starttime":1453,"ysi":1454,"efe":1455,"[#":1456,"lic":1457,"xiao":1458,"();$":1459,"']:":1460,"|\"\"":1461,"physi":1462,"dirname":1463,"\"\"]:$_":1464,"physical":1465,"Ġ&":1466,"30":1467,"jj":1468,"('\\":1469,"Ġor":1470,"decode":1471,"rth":1472,"ck":1473,"\"\"))":1474,"ion":1475,"line":1476,"regi":1477,"txtpwd":1478,"rb":1479,"register":1480,"23":1481,"ret":1482,"tuser":1483,"pushinvoke":1484,"txtuser":1485,"tyzm":1486,"txtyzm":1487,"ga":1488,"dac":1489,"xw":1490,"leep":1491,"ack":1492,"qd":1493,"day":1494,";&":1495,"]!":1496,"ku":1497,"secret":1498,"ipconfig":1499,"obj":1500,"pub":1501,"disp":1502,"];":1503,"94":1504,"cvs":1505,"]!%":1506,"ognlutil":1507,"hy":1508,"meta":1509,"\\\"\":":1510,"\"\":\"\"\\\"\"":1511,"dbe":1512,"40":1513,"ji":1514,"vcodelogin":1515,"public":1516,"uest":1517,"txtkey":1518,"qf":1519,"zh":1520,"union":1521,"display":1522,"mu":1523,"Ġas":1524,"&{\"\"":1525,"cle":1526,"xiaomi":1527,"getuser":1528,"fields":1529,"city":1530,"country":1531,"Ġselect":1532,"ory":1533,"pw":1534,"center":1535,"zy":1536,"newslist":1537,"request":1538,"\"\"}}}":1539,"readline":1540,"qt":1541,"readlines":1542,"()\"\"\",\"\"":1543,"44":1544,"birth":1545,"birthday":1546,"err":1547,"usercenter":1548,"jy":1549,"]?{\"\"":1550,"more":1551,"Ġc":1552,"Ġm":1553,"bl":1554,"jsp":1555,"babybirthday":1556,"ajaxregister":1557,"21":1558,"&(":1559,"box":1560,"commondata":1561,"form":1562,"]}[":1563,"67":1564,"41":1565,"ton":1566,")(":1567,"74":1568,"pq":1569,"gd":1570,"yu":1571,"Ġunion":1572,"task":1573,"]==":1574,"]):$_":1575,"[]":1576,"mc":1577,"gh":1578,"ow":1579,"res":1580,"bz":1581,"ye":1582,"ioutil":1583,"ioutils":1584,"text":1585,"shopname":1586,"shopcode":1587,"').(#":1588,"die":1589,"gpc":1590,"Ġfrom":1591,"]));":1592,"sbd":1593,"searchpage":1594,"/./././././././././././././././././././././././././././././././.":1595,"26":1596,"];@":1597,"]].":1598,"errors":1599,"zr":1600,"()?":1601,"]'":1602,"cate":1603,")])":1604,"'\",'-":1605,");@":1606,")]):$_":1607,"\"\");@":1608,"lashes":1609,"pslashes":1610,"stripslashes":1611,")]);&":1612,"tostring":1613,"utton":1614,"04":1615,"55":1616,"vite":1617,"descri":1618,")?":1619,"ine":1620,"qh":1621,"geta":1622,"(\\":1623,")\",":1624,"rs":1625,"sbdh":1626,"clsbdh":1627,"dexec":1628,"daccess":1629,"deny":1630,"du":1631,"methodexec":1632,"methodaccess":1633,"denymethodexec":1634,"methodaccessor":1635,"denymethodexecution":1636,"88":1637,"meh":1638,"proper":1639,"jq":1640,"Ġr":1641,"Ġg":1642,"90":1643,"dr":1644,"49":1645,"gang":1646,"redirec":1647,"Ġo":1648,"fore":1649,"description":1650,"45":1651,"zc":1652,"hg":1653,"button":1654,"clu":1655,"nk":1656,"low":1657,"kbox":1658,"checkbox":1659,"buste":1660,"savegang":1661,"dbefore":1662,"bustedbefore":1663,"savegangster":1664,"xy":1665,"37":1666,"ere":1667,"zu":1668,"\"\":\"\"}[":1669,"keditor":1670,"getall":1671,"parm":1672,"03":1673,"getop":1674,"eration":1675,"getoperation":1676,"getoperationparm":1677,"24":1678,"comp":1679,"openid":1680,"clude":1681,"ag":1682,"$[":1683,"ng":1684,"ins":1685,"temp":1686,"):(":1687,"passwd":1688,"egration":1689,"ali":1690,"sg":1691,"fckeditor":1692,"gory":1693,"{\\\"\"":1694,"category":1695,"\"\":\"\"{\\\"\"":1696,"}\"\"\",\"\"":1697,"ect":1698,"zd":1699,"rin":1700,"60":1701,"getusersign":1702,"aava":1703,"]==&__":1704,"iner":1705,"container":1706,"qcom":1707,"hono":1708,"tips":1709,"Ġwhere":1710,"})).":1711,"'})).":1712,"[]{'":1713,"cfb":1714,"kirin":1715,"qg":1716,"getalltips":1717,"yr":1718,"42":1719,"Ġ#":1720,"checkcodecurrent":1721,"zw":1722,"hn":1723,"98":1724,"tl":1725,"ifu":1726,"tri":1727,"move":1728,"57":1729,"]));&":1730,"65":1731,"foo":1732,"61":1733,"36":1734,"vh":1735,"zzer":1736,"bash":1737,"fuzz":1738,"ifuzzer":1739,"zf":1740,"ly":1741,"Ġu":1742,"76":1743,"getrecent":1744,"getrecentdata":1745,"xk":1746,"as":1747,"qi":1748,"dg":1749,".\"\"":1750,"]=&":1751,"Ġbe":1752,"(\\[":1753,"Ġ/[":1754,"()\",\\":1755,"])\",\\":1756,"=\\[":1757,"81":1758,"Ġ/":1759,"qo":1760,"91":1761,"wl":1762,"clear":1763,"honor":1764,"sm":1765,"Ġal":1766,"70":1767,"jo":1768,"lean":1769,"boolean":1770,"pr":1771,"\",{\"\"":1772,"qc":1773,"cat":1774,"97":1775,"\\\"\"\",\"\"":1776,"fs":1777,"('[":1778,"Ġv":1779,"bx":1780,"zt":1781,"pi":1782,")||":1783,"qa":1784,"loader":1785,"classloader":1786,"fed":1787,"ffffef":1788,"))&(":1789,"Ġk":1790,")(('\\":1791,"}\",{\"\"":1792,"62":1793,"tar":1794,"jar":1795,"Ġl":1796,"rg":1797,"xu":1798,"Ġeval":1799,"Ġ7":1800,"zs":1801,"zk":1802,"84":1803,"add":1804,"zl":1805,"cod":1806,"17":1807,"></":1808,"dk":1809,"za":1810,"tit":1811,"daa":1812,"nc":1813,"exe":1814,"jarpath":1815,"twe":1816,"54":1817,"zi":1818,"property":1819,"qk":1820,"yw":1821,"?__":1822,"Ġ([":1823,"ru":1824,"51":1825,"ort":1826,"ble":1827,"details":1828,"50":1829,"email":1830,"title":1831,"Ġbetwe":1832,"Ġbetween":1833,"copy":1834,"compress":1835,"coding":1836,")&":1837,"79":1838,"80":1839,"padd":1840,"zb":1841,"ffffe":1842,"69":1843,"gx":1844,"sf":1845,"htm":1846,"())}&":1847,"getproperty":1848,"lower":1849,"tolower":1850,").(#_":1851,"contains":1852,"tolowercase":1853,"?{'":1854,"sj":1855,"'))).(#":1856,"rorstream":1857,"terrorstream":1858,"redirecterrorstream":1859,"})).(#":1860,"}:{'":1861,"integration":1862,"tout":1863,"'\",'/":1864,"}:{'/":1865,"getout":1866,"getoutputstream":1867,"())).(@":1868,"09":1869,"vitecode":1870,"\\.\\.\\.\\.\\.\\.\\.\\.\\.\\.\\.\\.\\.\\.\\.\\.\\.\\.\\.\\.\\.\\.\\.\\.\\.\\.\\.\\.\\.\\.\\.\\.":1871,"nx":1872,"mh":1873,"mj":1874,"mt":1875,"sts":1876,"wr":1877,"53":1878,"Ġj":1879,"etc":1880,"dt":1881,"px":1882,"Ġq":1883,"og":1884,"Ġend":1885,"yun":1886,"jpg":1887,"mem":1888,"Ġelse":1889,"Ġwhen":1890,"77":1891,"ange":1892,"binde":1893,"ok":1894,"])&\"\"":1895,"wdmc":1896,"Ġf":1897,"consu":1898,"distri":1899,"district":1900,"hh":1901,"ree":1902,"05":1903,"consult":1904,"consultdetails":1905,"Ġssid":1906,"\"\":\"\"\\[":1907,"78":1908,"yq":1909,"lp":1910,"=\"\"/":1911,"yd":1912,"?@":1913,"wb":1914,"72":1915,"Ġerr":1916,"cmdcmd":1917,"Ġpcmdcmd":1918,"sd":1919,"\"\":-":1920,"68":1921,"pf":1922,"zo":1923,"zj":1924,"reach":1925,"foreach":1926,"Ġn":1927,"xe":1928,"aliyun":1929,"pv":1930,"89":1931,"\\\"\"\",":1932,":#":1933,"59":1934,"sb":1935,"pay":1936,"Ġsleep":1937,"]==&":1938,"96":1939,"yzcode":1940,"==&__":1941,"vehbinde":1942,"substr":1943,"inc":1944,"paddress":1945,"gid":1946,"xin":1947,"yg":1948,"trim":1949,"btnsub":1950,"Ġt":1951,"he":1952,"=-[":1953,"07":1954,"exi":1955,"71":1956,";;":1957,"()):":1958,"wedaa":1959,"timeout":1960,"scripttimeout":1961,"]$[":1962,"zx":1963,"(\"\"->|":1964,"(\"\"|<-":1965,"(\"\"->|\"\");":1966,"(\"\"|<-\"\");":1967,"ecaa":1968,"08":1969,"58":1970,"92":1971,"\"\";}":1972,"(\"\"/":1973,"''":1974,".=":1975,")!":1976,")\",\"\"":1977,"sr":1978,"exists":1979,".$":1980,"range":1981,"\"\"]);":1982,"uname":1983,"zv":1984,"='[":1985,")\",\"\"\",":1986,"']\",\"\"":1987,"({$":1988,"|\"\";":1989,"}|\"\"":1990,"\"\"]):":1991,"\"\"\",\"\"\\\"\"\",":1992,"getpw":1993,"\"\")$":1994,"\"\"){":1995,"\\\"\"):(":1996,"(\"\"{$":1997,"));$":1998,"($_['":1999,"\"\"]);$":2000,"\"\"]))\",\"\"\",":2001,"\"\"])));$":2002,"=\"\"{$":2003,"=($":2004,"geteuid":2005,"getegid":2006,"}:\"\"))":2007,"}:\"\";}":2008,"'])?$_":2009,".=\"\"{$":2010,".=\"\"|\"\"":2011,".=\"\"({$":2012,"\"\"]:(":2013,"'))?@":2014,"==\"\")$":2015,"})\"\";":2016,"']:(":2017,"']:@":2018,")?$":2019,".\"\"|\"\";":2020,"=\"\"/\"\"){":2021,"()):''":2022,"(\"\"->|\"\");;$":2023,"(\"\"/\"\"\",\"\"\\\"\"\",":2024,")!=\"\"/\"\"){":2025,"']\",\"\"\\\"\"):(":2026,"}|\"\".$":2027,"getpwuid":2028,"}:\"\"))$":2029,"}:\"\";}$":2030,".=\"\"|\"\";$":2031,"()):'';$":2032,"Ġb":2033,"kp":2034,"63":2035,"=${[":2036,"jv":2037,"wo":2038,"qr":2039,"==&":2040,"wy":2041,"66":2042,"qv":2043,"[]=":2044,"ug":2045,"Ġ8":2046,"aca":2047,"mg":2048,"qe":2049,"Ġ4":2050,"wfxw":2051,"sx":2052,"Ġ3":2053,"={{":2054,"fp":2055,"\"\").":2056,"userid":2057,"</":2058,"wv":2059,"fg":2060,"73":2061,"=${(#":2062,"jk":2063,"87":2064,"<?":2065,"keyboard":2066,"ccc":2067,"cmds":2068,"yo":2069,"wap":2070,"cg":2071,"/./":2072,"show":2073,"))--":2074,"qx":2075,"ft":2076,"ww":2077,"yi":2078,"]\"\"\"\")":2079,"pk":2080,"\"\")\"\")":2081,"]\"\"\"\")):":2082,"06":2083,"mn":2084,"rh":2085,"Ġ}":2086,"fy":2087,"kz":2088,"ai":2089,"mar":2090,"bbb":2091,"\"\"\",":2092,"]=&__":2093,"nj":2094,"keywords":2095,"bq":2096,"Ġid":2097,"getsearch":2098,"getsearchkeywords":2099,"(\"\"[":2100,"uu":2101,"cs":2102,"?>":2103,"sleep":2104,"wp":2105,"../../../../../../../../":2106,"vitecodeinfo":2107,"at":2108,"?-":2109,"fv":2110,"wei":2111,"xml":2112,"ui":2113,"execution":2114,"xg":2115,"ds":2116,"xc":2117,"pb":2118,"wg":2119,"cce":2120,"lr":2121,"lu":2122,"xo":2123,"she":2124,"images":2125,"editor":2126,"link":2127,"yt":2128,"dff":2129,"Ġby":2130,"lastic":2131,"Ġelastic":2132,"Ġelasticsearch":2133,"ls":2134,"/./././././././././././././././././././././././././././././././././././././././././././././././././././././././././././././././.":2135,"\",[":2136,"tal":2137,"getclass":2138,"Ġxm":2139,"ids":2140,"dq":2141,"oe":2142,"params":2143,"iod":2144,"param":2145,"bk":2146,"ts":2147,"seta":2148,"pager":2149,"bv":2150,"iphone":2151,"period":2152,"lns":2153,"])--":2154,".././":2155,"gg":2156,"mk":2157,"reg":2158,"qz":2159,"wind":2160,"']":2161,"Ġxmlns":2162,"\"\":[{\"\"":2163,"].&":2164,"track":2165,"oc":2166,"window":2167,"wk":2168,"yc":2169,"nd":2170,"ya":2171,"por":2172,"bp":2173,"font":2174,"nq":2175,"ns":2176,"comment":2177,"\",@":2178,"()')(":2179,"include":2180,"wc":2181,"yp":2182,"rv":2183,"getrequest":2184,"\"\");}":2185,"act":2186,"address":2187,"idth":2188,"nhg":2189,"concat":2190,"yf":2191,"qp":2192,"Ġ\\":2193,"btnsearch":2194,"fgnl":2195,"hr":2196,"=@\\":2197,"=(@\\":2198,"={{[":2199,"xty":2200,"userdebug":2201,"tv":2202,"rock":2203,"chip":2204,"()&":2205,"................................................................................................................................................................................................................................................................................................................................................................................................................................................................................................................................":2206,"windows":2207,"art":2208,"rockchip":2209,"cra":2210,"wbt":2211,"aaca":2212,"session":2213,"]([":2214,"ssi":2215,"api":2216,"}]}&":2217,"object":2218,"iv":2219,"portal":2220,"ght":2221,"fr":2222,")=":2223,"'/":2224,"zhi":2225,"fx":2226,"ual":2227,"cx":2228,"ko":2229,"(\"\"*@":2230,"(\"\"@*":2231,"*@\"\");":2232,"@*\"\");":2233,"'[":2234,"tempid":2235,"wh":2236,"tbname":2237,"part":2238,"gv":2239,"ject":2240,"utf":2241,"cbxty":2242,"yb":2243,"gettake":2244,"gettakedata":2245,"Ġpg":2246,"dddk":2247,"aut":2248,"rx":2249,"txtname":2250,"gt":2251,"gc":2252,"jh":2253,"convert":2254,"=*":2255,"mport":2256,"wbtree":2257,"fh":2258,"wq":2259,"Ġ5":2260,"/_":2261,"aq":2262,"small":2263,"var":2264,"intext":2265,"encoding":2266,"tz":2267,"dec":2268,"ddl":2269,"()))":2270,"?#":2271,"Ġxml":2272,"about":2273,"wu":2274,"area":2275,"ax":2276,"/?":2277,"\",<":2278,"jx":2279,"commenttype":2280,"gq":2281,"wt":2282,"exce":2283,"Ġ6":2284,"qyi":2285,"mv":2286,"]')\",#":2287,"(\"\"\"\"*@":2288,"@*\"\"\"\"):":2289,"target":2290,"Ġ{":2291,"shell":2292,"rand":2293,"mq":2294,"oeg":2295,"Ġdddk":2296,"channelby":2297,"getchannelby":2298,"getchannelbyposition":2299,"waqd":2300,"cms":2301,"exception":2302,"cq":2303,"])\",":2304,"Ġ@":2305,"jcn":2306,"mx":2307,"wler":2308,"let":2309,"crawler":2310,"crawlergo":2311,"dv":2312,"Ġz":2313,"vea":2314,"auth":2315,"sis":2316,"rbqy":2317,"]#":2318,"cdd":2319,"\"\"]=":2320,")('":2321,"[(":2322,"frt":2323,"oo":2324,"Ġ#_":2325,"ywbh":2326,"fz":2327,"())(":2328,"hv":2329,"trpwd":2330,"txtrpwd":2331,"et":2332,"qb":2333,"exw":2334,"smalltext":2335,"blr":2336,"ehy":2337,"cz":2338,"]+":2339,"back":2340,"='#":2341,"szcompress":2342,"szparam":2343,"siscompress":2344,"szcompressparams":2345,"szparamsiscompress":2346,"]')":2347,"*@\"\");;":2348,"Ġ%":2349,"decla":2350,"safe":2351,"getdecla":2352,"getdeclared":2353,"lg":2354,"ccessi":2355,"\"\":[]}&":2356,"lsex":2357,"getnew":2358,"tasks":2359,"setaccessi":2360,"getnewtasks":2361,"setaccessible":2362,"?_":2363,"cy":2364,"oy":2365,"workjj":2366,"ddlsex":2367,"txtworkjj":2368,"ay":2369,"mphone":2370,"jyjj":2371,"getdeclaredfield":2372,"txtjyjj":2373,"hfor":2374,"lpfo":2375,"ywaqd":2376,"temail":2377,"gioeg":2378,"txtmphone":2379,"txtemail":2380,"tlblr":2381,"kzexw":2382,"jcnfrt":2383,"ehytlblr":2384,"hforjcnfrt":2385,"ywaqdqyi":2386,"rr":2387,"qfct":2388,"vk":2389,"brow":2390,"kuqfct":2391,"')]":2392,"weixin":2393,"bgr":2394,"}}&":2395,"]\"\"))":2396,"hf":2397,"qs":2398,"ha":2399,"Ġ--":2400,"Ġin":2401,"\\.\\.\\.\\.\\.\\.\\.\\.\\.\\.\\.\\.\\.\\.\\.\\.\\.\\.\\.\\.\\.\\.\\.\\.\\.\\.\\.\\.\\.\\.\\.\\.\\.\\.\\.\\.\\.\\.\\.\\.\\.\\.\\.\\.\\.\\.\\.\\.\\.\\.\\.\\.\\.\\.\\.\\.\\.\\.\\.\\.\\.\\.\\.\\.":2402,"rz":2403,":\\\"\"":2404,"browser":2405,"ses":2406,"............":2407,"............................":2408,"............................................................":2409,"............................................................................................................................................................................................":2410,"............................................................................................................................................................................................................................................................................................................................................................................................................................................................................................................................................................................................................................................................................................................................":2411,"Ġrf":2412,"gz":2413,"yyrq":2414,"&[":2415,"aspcms":2416,"ua":2417,"charset":2418,"itfor":2419,"ismj":2420,"Ġ</":2421,"moveupload":2422,"weixinmoveupload":2423,"/*":2424,"])\",#":2425,"lv":2426,"uue":2427,"ele":2428,"td":2429,")?#":2430,"('#":2431,"/'[":2432,"Ġnull":2433,"]\\\"\"\",\"\"":2434,"try":2435,"aaa":2436,"checkyy":2437,"?_=@":2438,"hm":2439,"yx":2440,"hs":2441,"year":2442,"'><":2443,"cr":2444,"=*&":2445,"rbgr":2446,"){":2447,"bs":2448,"yv":2449,"func":2450,"letter":2451,"]))":2452,"catch":2453,"kgo":2454,"like":2455,"boot":2456,");}":2457,"xman":2458,"?[":2459,"fk":2460,"Ġ9":2461,"Ġylpfo":2462,"](\"\"[":2463,"ncoding":2464,"getstring":2465,"unsafe":2466,"getencoding":2467,"ick":2468,"gr":2469,"eq":2470,"zp":2471,"mw":2472,"sdm":2473,"hc":2474,"exp":2475,"lequ":2476,"acr":2477,"not":2478,"ni":2479,"xb":2480,"(\"\"\"\"[":2481,".././.././":2482,"value":2483,"cllx":2484,"sea":2485,":#_":2486,"(\"\"\"\"\"\"\"\"\"\"\"\"\"\"\"\"&":2487,"dia":2488,"wbtreeid":2489,"mark":2490,"gb":2491,"vu":2492,"Ġwidth":2493,"wj":2494,"Ġdual":2495,"hq":2496,"Ġfi":2497,"xz":2498,"nf":2499,"mmous":2500,"database":2501,"Ġ%>":2502,"lti":2503,"wfd":2504,"hd":2505,"ey":2506,"jt":2507,"resource":2508,"../../../":2509,"kgoacr":2510,"cw":2511,"ub":2512,"yan":2513,"xq":2514,"this":2515,"plus":2516,"lia":2517,"hb":2518,"entar":2519,"gument":2520,"eventar":2521,"eventtarget":2522,"eventargument":2523,"vla":2524,"dz":2525,"np":2526,":\"\"\"\"&":2527,"sses":2528,"Ġew":2529,"cei":2530,"jr":2531,"hk":2532,"classes":2533,"ted":2534,"fopen":2535,"\\'":2536,"nl":2537,"llm":2538,"multi":2539,"ert":2540,"ud":2541,"Ġfill":2542,"import":2543,"tg":2544,"\",\\\"\"":2545,"def":2546,"tel":2547,"jm":2548,"oa":2549,"osp":2550,"phz":2551,"wfdz":2552,"dclasses":2553,"cludedclasses":2554,"ddllm":2555,"btnquery":2556,"\\\"\";":2557,"]().":2558,"]$":2559,"?(#_":2560,"xcludedclasses":2561,"getexcludedclasses":2562,"hz":2563,"getinstance":2564,"actioncontext":2565,"']).(#":2566,"az":2567,"gin":2568,"):((#":2569,"tq":2570,"setmemberaccess":2571,")))).(#":2572,"uploadtype":2573,"wfxwzl":2574,"tk":2575,"videovla":2576,"basetake":2577,"wfsj":2578,"uploadbasetake":2579,"author":2580,"videovlaue":2581,"ada":2582,"maj":2583,"multipart":2584,"\"\"]":2585,"Ġ(#_":2586,"jl":2587,"Ġ\",#":2588,"\"\"]=#":2589,"eight":2590,"efa":2591,"muw":2592,"]').(#":2593,"tas":2594,"hct":2595,"png":2596,"szgx":2597,"nb":2598,")))":2599,"kpm":2600,"Ġde":2601,"nz":2602,"jd":2603,"subject":2604,"av":2605,"Ġman":2606,"sync":2607,"xf":2608,"template":2609,"general":2610,"zwgk":2611,")='":2612,"shtml":2613,"skin":2614,"je":2615,"=-":2616,"Ġmhh":2617,"ys":2618,"Ġewl":2619,"cache":2620,"essage":2621,"(\"\"|<":2622,"--\"\");":2623,"-->|":2624,"]\"\"))\",\"\"":2625,"(\"\"|<--\"\");":2626,"(\"\"-->|":2627,"lnry":2628,"yrct":2629,"]=(":2630,"Ġwnj":2631,"(\"\"-->|\"\");":2632,"rcek":2633,"rlmaj":2634,"rlmajct":2635,"Ġakgoacr":2636,"lkyrct":2637,"Ġidvea":2638,"liamuw":2639,"phzlnry":2640,"phzlnrykpm":2641,"'='":2642,"yh":2643,"files":2644,"nv":2645,">&":2646,"dbms":2647,"getinvitecodeinfo":2648,"ql":2649,"od":2650,"&_":2651,"ot":2652,"wz":2653,"ws":2654,"banne":2655,"ez":2656,"car":2657,"jb":2658,"Ġex":2659,"jf":2660,"recei":2661,"ill":2662,"dfa":2663,"Ġ${":2664,"jc":2665,"xd":2666,"winnt":2667,"receive":2668,"Ġlike":2669,"banners":2670,"fwrite":2671,"tf":2672,"opr":2673,"aosp":2674,"setin":2675,"invite":2676,"setinvitecodeinfo":2677,"of":2678,"ia":2679,"uk":2680,"gethome":2681,"gethomebanners":2682,"vx":2683,"mf":2684,"abc":2685,"searchtype":2686,"Ġall":2687,"bxss":2688,"$$":2689,"find":2690,"acn":2691,"]\",(":2692,"pp":2693,"chn":2694,"'/></":2695,"ity":2696,"dfe":2697,"Ġnot":2698,"ticle":2699,"]+[":2700,"gf":2701,"xeb":2702,"gy":2703,")--":2704,"am":2705,"cut":2706,"Ġresponse":2707,"cif":2708,"xr":2709,"yzm":2710,"ob":2711,"erce":2712,"plug":2713,"commerce":2714,"getecommerce":2715,"getecommercedata":2716,"xuzhi":2717,"bfa":2718,"kk":2719,"msm":2720,"((":2721,"Ġef":2722,"pipe":2723,"/./././././././././././././././././././././././././././././././././././././././././././././././././././././././././././././././././././././././././././././././././././././././././././././././././././././././././././././././././././././././././././././././.":2724,"uv":2725,"ffe":2726,"strgk":2727,"xuzhitype":2728,"xise":2729,"fil":2730,"sn":2731,"xv":2732,"quick":2733,"cifill":2734,"Ġcl":2735,"]_[":2736,"book":2737,"sql":2738,"contro":2739,"cddb":2740,"goog":2741,"mm":2742,"Ġsystem":2743,"_*":2744,"google":2745,"../..//":2746,"adde":2747,"telphone":2748,"kv":2749,"color":2750,"cap":2751,"Ġheight":2752,"daf":2753,"lb":2754,"nr":2755,"pagecontext":2756,"(\"\"\"\"\"\"\"\"@*":2757,"')(#":2758,"*@\"\"\"\"\"\"\"\"):":2759,")(('#":2760,"table":2761,"jz":2762,"jump":2763,"toid":2764,"\\?":2765,"getuserinfo":2766,":\\":2767,"dee":2768,"htpasswd":2769,"jumpurl":2770,"Ġdelay":2771,"ong":2772,"order":2773,"jp":2774,"xs":2775,"result":2776,"uq":2777,"tic":2778,"lq":2779,"/><":2780,"fvh":2781,"yk":2782,"yow":2783,"vt":2784,"xp":2785,"eader":2786,"ffffefa":2787,"dfb":2788,"clzr":2789,"rcbj":2790,"bce":2791,"service":2792,"vog":2793,"secu":2794,"eca":2795,"drw":2796,"dialog":2797,"Ġefse":2798,"dbd":2799,"nh":2800,"ak":2801,"dxqq":2802,"colle":2803,"dpa":2804,"oq":2805,"elt":2806,"aoqt":2807,"ffffefc":2808,"ace":2809,"rity":2810,"hov":2811,"=<?":2812,"'\",'[":2813,"sert":2814,"addh":2815,"oz":2816,"=/../../../../":2817,"cac":2818,"visi":2819,"insert":2820,"kewv":2821,"sav":2822,"waitfor":2823,"deb":2824,"ffffeff":2825,"mr":2826,")))\",":2827,"eskewv":2828,"xebgd":2829,"Ġcldrw":2830,"yowr":2831,"eskewvfvh":2832,"'].":2833,"acuu":2834,"addheader":2835,"=${#":2836,"ller":2837,"insertmsg":2838,")))\",[":2839,"]'\",'[":2840,"]')}&":2841,"bff":2842,"\"\".\"\"":2843,"rcev":2844,"pic":2845,"Ġ<%":2846,"ocacn":2847,"eu":2848,"clzrxk":2849,"))>":2850,"qkq":2851,"]'))":2852,"Ġ=":2853,"ties":2854,"ref":2855,"condi":2856,"static":2857,"fdf":2858,"entry":2859,"ded":2860,"security":2861,"dw":2862,"duct":2863,"fn":2864,"condition":2865,"/*_*":2866,"ocacnfa":2867,"entrymode":2868,"product":2869,"ana":2870,"ghov":2871,"tt":2872,"article":2873,"cfe":2874,"fee":2875,"Ġ*":2876,"jnjv":2877,"ghovjnjv":2878,"ah":2879,"lc":2880,"none":2881,"properties":2882,"lw":2883,"=%":2884,"Ġtest":2885,"Ġfile":2886,"bak":2887,"anda":2888,"ries":2889,"]')(":2890,"Ġcrea":2891,"nw":2892,"invitecode":2893,"controller":2894,"dbf":2895,".&":2896,"getsubject":2897,"hwh":2898,"(\"\"([":2899,"Ġcreated":2900,"lh":2901,"searchlist":2902,"bm":2903,"ecb":2904,"goo":2905,"Ġconcat":2906,"hwe":2907,"=/../../../../../../../../":2908,"filter":2909,"input":2910,"edf":2911,"atu":2912,"');":2913,"bmo":2914,"uz":2915,"kg":2916,"lio":2917,"uh":2918,"getmobile":2919,"bind":2920,"bdc":2921,"qw":2922,"entries":2923,"rcei":2924,"acb":2925,":/../../../../":2926,"join":2927,"redirectaction":2928,"uct":2929,"wzg":2930,"dp":2931,"//":2932,"goods":2933,"story":2934,"bdb":2935,"vw":2936,"\",'":2937,"sessionkey":2938,"mz":2939,"history":2940,"tcl":2941,"cp":2942,"mei":2943,"cdf":2944,"plat":2945,"efb":2946,"aff":2947,"Ġ24":2948,"cnxm":2949,"platform":2950,"eda":2951,"ward":2952,"lj":2953,"lity":2954,"resid":2955,"ece":2956,"utility":2957,"fake":2958,"rpc":2959,"asdf":2960,"vg":2961,"ecf":2962,"um":2963,"Ġ22":2964,"formation":2965,"host":2966,"Ġst":2967,"............................................................................................................................................................................................................................................................................................................................................................................................................................................................................................................................................................................................................................................................................................................................[":2968,"mvc":2969,"kh":2970,"phpinfo":2971,"down":2972,"':":2973,"ka":2974,"collection":2975,"](":2976,"forward":2977,"=\"\"[":2978,"eff":2979,"oeb":2980,"xh":2981,"roke":2982,"bpbz":2983,"=%{":2984,"cm":2985,"dwr":2986,"kq":2987,"dea":2988,"ou":2989,"Ġre":2990,"\\.\\.\\.\\.\\.\\.\\.\\.\\.\\.\\.\\.\\.\\.\\.\\.\\.\\.\\.\\.\\.\\.\\.\\.\\.\\.\\.\\.\\.\\.\\.\\.\\.\\.\\.\\.\\.\\.\\.\\.\\.\\.\\.\\.\\.\\.\\.\\.\\.\\.\\.\\.\\.\\.\\.\\.\\.\\.\\.\\.\\.\\.\\.\\.\\.\\.\\.\\.\\.\\.\\.\\.\\.\\.\\.\\.\\.\\.\\.\\.\\.\\.\\.\\.\\.\\.\\.\\.\\.\\.\\.\\.\\.\\.\\.\\.\\.\\.\\.\\.\\.\\.\\.\\.\\.\\.\\.\\.\\.\\.\\.\\.\\.\\.\\.\\.\\.\\.\\.\\.\\.\\.\\.\\.\\.\\.\\.\\.":2991,"eng":2992,"]))&":2993,"sys":2994,"huawe":2995,"ffffefb":2996,"inf":2997,"bgv":2998,"vn":2999,"station":3000,"call":3001,"vq":3002,"searchword":3003,"gkzk":3004,"ntegration":3005,"')\",'":3006,"ym":3007,"]//[":3008,"rai":3009,"jsn":3010,"om":3011,"local":3012,"mys":3013,"newconfig":3014,"sche":3015,"Ġpre":3016,"schema":3017,"=:":3018,"bfb":3019,"gm":3020,"gw":3021,"roup":3022,"=($_":3023,"yuyan":3024,"lit":3025,"])?>":3026,"dda":3027,"\"\":\"\"\\\"\"[":3028,"feb":3029,"ung":3030,"too":3031,"')\",'<?":3032,"]\"\")":3033,"vow":3034,"eh":3035,"km":3036,"efda":3037,"cda":3038,"gl":3039,"['[":3040,"pn":3041,"rceu":3042,"))&":3043,"bots":3044,"cdy":3045,"ib":3046,"iag":3047,"wfs":3048,"markup":3049,"='.":3050,"])||(":3051,"rceq":3052,"Ġwui":3053,"'--":3054,"ceb":3055,"(\"\"\"\"@*":3056,"cdc":3057,"*@\"\"\"\"):":3058,"pkq":3059,"cfa":3060,"gbook":3061,"dj":3062,"Ġma":3063,"pack":3064,"Ġinformation":3065,"old":3066,"fea":3067,"edo":3068,"oi":3069,"wzgg":3070,")#":3071,"mhj":3072,"../..//../..//":3073,"fdd":3074,"zbv":3075,"ccde":3076,"nomys":3077,"ecms":3078,"modu":3079,"robots":3080,"look":3081,"............................................................................................................................................................................................................................................................................................................................................................................................................................................................................................................................................................................................................................................................................................................................&":3082,"module":3083,"/&":3084,"addd":3085,"are":3086,"lm":3087,"xn":3088,"bdf":3089,":{":3090,"afa":3091,"rceh":3092,"Ġiag":3093,"lxdhback":3094,"lookup":3095,"lxdhbackinvoke":3096,"Ġibmo":3097,"wget":3098,"Ġwfs":3099,"nslookup":3100,"emp":3101,"ron":3102,"sw":3103,"yal":3104,"cef":3105,"the":3106,"fcb":3107,"fac":3108,"rw":3109,"));":3110,"ewfq":3111,"jgoe":3112,"juwf":3113,"uy":3114,"guacuu":3115,"]//":3116,"keedo":3117,"||(":3118,"Ġajgoe":3119,"qomhj":3120,"oebkeedo":3121,"vowev":3122,"Ġwuiewfq":3123,"Ġibmoiag":3124,"juwfrow":3125,"guacuuwfs":3126,"Ġwuiewfqoebkeedo":3127,"ek":3128,"conf":3129,"dn":3130,"lz":3131,"fffffff":3132,"plugins":3133,"collections":3134,"\\\"\":[":3135,"ffdg":3136,"Ġ23":3137,"fakepath":3138,"bw":3139,"../..":3140,"inter":3141,"=<":3142,"cff":3143,"umn":3144,"miao":3145,"nonce":3146,"turn":3147,"visit":3148,">[":3149,"kf":3150,"yj":3151,"bac":3152,"vv":3153,"Ġ>":3154,"rceo":3155,"Ġwa":3156,"./":3157,"`&":3158,"Ġview":3159,"Ġdbms":3160,"tzxx":3161,"Ġviewbox":3162,"yimiao":3163,"element":3164,"panda":3165,"))>'":3166,"signatu":3167,"rigin":3168,"signature":3169,"afb":3170,"hx":3171,"wne":3172,"sams":3173,"fcf":3174,"rcex":3175,"bbs":3176,"doaction":3177,"column":3178,"empty":3179,"samsung":3180,"kx":3181,"uploads":3182,"exclude":3183,"Ġ((":3184,"')(('\\":3185,"\\']\\":3186,"))&('\\":3187,"excludeproperties":3188,"cab":3189,"sl":3190,"efd":3191,"nm":3192,"tobind":3193,"ddlhy":3194,"flo":3195,"Ġcount":3196,"=%{(#":3197,"ecmsfrom":3198,"ead":3199,".././.././.././.././":3200,"edb":3201,"sid":3202,"catid":3203,"qm":3204,"\"\"=\"\"":3205,"opm":3206,"marker":3207,"Ġstroke":3208,"myadmin":3209,"queryveh":3210,"addds":3211,"bdd":3212,"phpmyadmin":3213,"fclose":3214,"yid":3215,"hand":3216,"ik":3217,"qj":3218,"Ġaw":3219,"efec":3220,"=\\\"\"":3221,"vj":3222,"jiu":3223,"zdly":3224,"raise":3225,"'?":3226,"wm":3227,"eee":3228,"%=":3229,";.":3230,"ffffefe":3231,"alipay":3232,"?('\\":3233,"ctr":3234,"eeb":3235,"kn":3236,"qn":3237,"\"\"?":3238,"cea":3239,"unit":3240,"cbz":3241,"zdlygk":3242,"Ġop":3243,"rceg":3244,"beb":3245,"kt":3246,"one":3247,"Ġ46":3248,"project":3249,"Ġgroup":3250,"/*_*/":3251,"proc":3252,"aosi":3253,"ii":3254,"..\\":3255,"diaosi":3256,"rcey":3257,"stack":3258,"floor":3259,"face":3260,"ass":3261,"bn":3262,"edc":3263,"ite":3264,"ced":3265,"mszbv":3266,"wnemszbv":3267,"wnemszbvvh":3268,")*":3269,"fgd":3270,"ky":3271,"ccb":3272,"kw":3273,"ifs":3274,"solr":3275,"jgda":3276,"Ġwaitfor":3277,"(*":3278,"free":3279,"tag":3280,"tus":3281,"cwjgda":3282,"(*)\",":3283,"';":3284,"ucap":3285,"$(":3286,"Ġos":3287,"'&":3288,"gp":3289,");?>":3290,"dffc":3291,"aad":3292,"async":3293,"ddb":3294,"dataconfig":3295,"www":3296,"aeb":3297,"ffb":3298,".<":3299,"=../../../../../../../../":3300,"xj":3301,"efc":3302,"assign":3303,"tn":3304,"rn":3305,"tw":3306,"uw":3307,"vl":3308,"vz":3309,"mha":3310,"shi":3311,"alp":3312,"nony":3313,"Ġsc":3314,").\"\")":3315,"userfiles":3316,"nonymmous":3317,"kj":3318,"xl":3319,"Ġidw":3320,"vf":3321,"'?{\"\"@":3322,"gj":3323,"kl":3324,"pm":3325,"Ġ|":3326,"Ġmb":3327,"])</":3328,"tools":3329,"]%":3330,"dynamicdetail":3331,"origin":3332,"cyy":3333,"hl":3334,"vm":3335,"rj":3336,"par":3337,"curl":3338,"bla":3339,"entity":3340,"weight":3341,"__[":3342,"ial":3343,"envi":3344,"getmethod":3345,"rcen":3346,"csrf":3347,"Ġmd":3348,"environ":3349,"bcb":3350,"cbb":3351,"ray":3352,"bda":3353,"rcew":3354,"icle":3355,"iq":3356,"acce":3357,"unlink":3358,"searchcode":3359,"ddf":3360,"wbsearchcode":3361,"hj":3362,"Ġaiv":3363,"includes":3364,"download":3365,"kr":3366,"rfce":3367,"vd":3368,"vs":3369,"])&\"\"(\"\"":3370,"pj":3371,"cdb":3372,"dca":3373,"rcej":3374,"Ġmake":3375,"dri":3376,"fdc":3377,"cee":3378,"//[":3379,"rcbz":3380,"uo":3381,"ender":3382,"ors":3383,"rcee":3384,"queryvehicle":3385,"->":3386,"bca":3387,"=/../../../../../../../../../":3388,"==}}":3389,"..\\..\\":3390,"cru":3391,"csrftoken":3392,"tj":3393,"ecc":3394,"Ġimport":3395,"fj":3396,"serial":3397,"wbserial":3398,"caches":3399,"wbserialnum":3400,"ost":3401,"vb":3402,"ddd":3403,"kc":3404,"kd":3405,"claim":3406,"quicklogin":3407,"praise":3408,"width":3409,"ype":3410,"pct":3411,"getsession":3412,"subsid":3413,"vr":3414,"rcel":3415,"aac":3416,"hma":3417,"yn":3418,"leader":3419,")=\"\"&":3420,"bad":3421,"trib":3422,"]);":3423,"Ġiyo":3424,"Ġ@$":3425,"ttrib":3426,"alert":3427,"meizu":3428,"ttribute":3429,"silu":3430,"sgbh":3431,"setattribute":3432,"Ġiyoif":3433,"popen":3434,"\"\")))&(":3435,"\"\")')(#":3436,"]']')(":3437,"']=#":3438,"()))=":3439,"('#_":3440,"jef":3441,"()>":3442,"freemarker":3443,"\\')":3444,"hp":3445,"Ġweb":3446,"(\\'":3447,"leadermail":3448,"\\')')(":3449,"chajax":3450,"excyy":3451,"export":3452,"seachajax":3453,"savexcyy":3454,"inspe":3455,"inspect":3456,"ylist":3457,"subsidylist":3458,"ie":3459,"../.../":3460,"columnid":3461,"../.../.././":3462,"dl":3463,"eac":3464,"submit":3465,"webid":3466,"bde":3467,"]&[":3468,"rcer":3469,"tcha":3470,"rpph":3471,"qtf":3472,"[\\'":3473,"cj":3474,"dde":3475,"fca":3476,"den":3477,"/./././././././././././././././././././././././././././././././././././././././././././././././././././././././././././././././././././././././././././././././././././././././././././././././././././././././././././././././././././././././././././././././././././././././././././././././././././././././././././././././././././././././././././././././././././././././././././././././././././././././././././././././././././././././././././././././././././././././././././././././././././././././././././././././.":3478,"ux":3479,"zte":3480,"captcha":3481,"fef":3482,"ul":3483,"yl":3484,"rcet":3485,"ks":3486,"ffa":3487,"design":3488,"gar":3489,"jzg":3490,"pbe":3491,"Ġtr":3492,"-.":3493,"acity":3494,"soap":3495,"hier":3496,"Ġopacity":3497,"ati":3498,"cid":3499,"dfd":3500,"fami":3501,"aab":3502,"vp":3503,"site":3504,"ix":3505,"stk":3506,"tures":3507,"fck":3508,"rcrc":3509,"lya":3510,"ddlgs":3511,"family":3512,"ecd":3513,"strz":3514,"]=@":3515,"])&\"\"(\"\"\"\"":3516,"mgr":3517,"=__":3518,"/.\\.":3519,"rced":3520,"spa":3521,"qian":3522,"ih":3523,"zjdt":3524,"el":3525,"ig":3526,"yil":3527,"norm":3528,"bea":3529,"Ġthe":3530,"Ġ-&":3531,"normal":3532,"fda":3533,"nn":3534,"hierarch":3535,"&&":3536,"abd":3537,"mue":3538,"em":3539,"installer":3540,"=}}":3541,"hao":3542,"yanjiu":3543,"]\"\"\",":3544,"hai":3545,"ddgg":3546,"hua":3547,"render":3548,";}":3549,"eab":3550,"son":3551,"Ġ.":3552,"construct":3553,"cde":3554,"rcez":3555,"mat":3556,"accept":3557,"icon":3558,"inve":3559,"edd":3560,"cfd":3561,"invest":3562,"bid":3563,"cgi":3564,"Ġ;":3565,"gen":3566,"eea":3567,"tai":3568,"Ġreturn":3569,"ldd":3570,"Ġname":3571,"Ġ('":3572,"hwtas":3573,"upa":3574,"rcec":3575,"sdq":3576,"ntype":3577,"]?[":3578,"ov":3579,"])))":3580,"refer":3581,"ol":3582,"![":3583,"cdata":3584,"ler":3585,"aiyil":3586,"uj":3587,"bef":3588,"counter":3589,"cad":3590,"ccd":3591,"tm":3592,"body":3593,"invokeaccept":3594,"partcar":3595,"packcar":3596,"(__":3597,"jin":3598,"fbb":3599,"manual":3600,"prst":3601,"mes":3602,"vles":3603,"garden":3604,"mueun":3605,"gai":3606,"ence":3607,"dataimport":3608,"clt":3609,"fbe":3610,"dba":3611,"rces":3612,".<>":3613,"port":3614,"rcea":3615,"ffffefefec":3616,"syncresult":3617,"pictures":3618,"dce":3619,"mer":3620,"\"\"--":3621,"servea":3622,"spectr":3623,"Ġpreservea":3624,"atio":3625,"spectratio":3626,"Ġpreserveaspectratio":3627,"cba":3628,"circ":3629,"eec":3630,"iss":3631,"guw":3632,"fba":3633,"rcg":3634,"wlz":3635,")='&":3636,"Ġ?>":3637,":/../../../../../../../../":3638,"circle":3639,"nqtf":3640,"wyu":3641,"Ġtype":3642,"\"\")')(":3643,"eead":3644,"projects":3645,"cca":3646,"iz":3647,"Ġ48":3648,"research":3649,"logs":3650,"format":3651,"../.../.././../.../.././":3652,"wbdate":3653,"paytext":3654,"src":3655,"Ġ49":3656,"][]=":3657,"rcem":3658,"cast":3659,")#&":3660,"fcd":3661,"wbtreeids":3662,"yidaiyil":3663,"researchvalue":3664,"fde":3665,"glk":3666,"oh":3667,"core":3668,"lib":3669,"${@":3670,"ctx":3671,"uccess":3672,"bkl":3673,"issuccess":3674,"]>":3675,"ede":3676,"iw":3677,"nde":3678,"reference":3679,"aef":3680,"anyanjiu":3681,"dbb":3682,"rceb":3683,"rcef":3684,"phpunit":3685,"Ġ&&":3686,"jian":3687,"handler":3688,"efde":3689,"jiance":3690,"qianxin":3691,"Ġad":3692,"tui":3693,"dim":3694,"rcep":3695,"xinanyanjiu":3696,"xcyy":3697,"ffc":3698,"interface":3699,">?":3700,"acc":3701,"}&&":3702,"')\",@":3703,"glo":3704,"aea":3705,"nsdq":3706,"verd":3707,"].<":3708,"urltype":3709,"sfzm":3710,"item":3711,"ffffefefecfe":3712,"hlk":3713,"use":3714,"vce":3715,"Ġ10":3716,"anner":3717,"jkm":3718,"iu":3719,"cfdb":3720,"verdana":3721,"ffd":3722,"methodname":3723,"iy":3724,"ppr":3725,"Ġruntime":3726,"cord":3727,"chin":3728,"liang":3729,"status":3730,"processor":3731,"eefa":3732,"Ġ\"\"<":3733,"wech":3734,"spn":3735,"/.\\./.\\.":3736,"els":3737,"dit":3738,"]===}}":3739,"some":3740,"investors":3741,"=}}&":3742,"ddlrq":3743,"black":3744,"?&":3745,"aj":3746,"\",$":3747,"record":3748,"vsb":3749,"pbem":3750,"bfe":3751,"faf":3752,"fol":3753,"forms":3754,"able":3755,"])?>');":3756,"dsz":3757,"bbf":3758,"Ġavles":3759,"afd":3760,"\",\"\"[":3761,"cec":3762,"cbc":3763,"\"\")){$":3764,"drupa":3765,"compare":3766,"Ġ\"\"<\"\")){$":3767,"drupal":3768,"dcd":3769,"__);?>":3770,"Ġeun":3771,"ej":3772,"sort":3773,"array":3774,"aaf":3775,"blw":3776,"help":3777,"bfd":3778,"vti":3779,"cbe":3780,"qbj":3781,"bbc":3782,"applic":3783,"ssp":3784,"fad":3785,"thu":3786,"'/><":3787,"wechat":3788,"application":3789,"Ġrow":3790,"dae":3791,"acf":3792,"classid":3793,"payid":3794,":\\\"\"\\[":3795,"handlerstack":3796,"active":3797,"')&":3798,"jer":3799,"ffset":3800,"=/../../../":3801,"]}\"\"\",\"\"":3802,"qby":3803,"xbshell":3804,"ade":3805,"eed":3806,"ysh":3807,"stom":3808,"undo":3809,"cfc":3810,"'));":3811,"cbd":3812,"fui":3813,"bed":3814,"Ġ\"\");}":3815,"pagesize":3816,"struct":3817,"doc":3818,"==\"\");}":3819,"zga":3820,"\\.\\.\\.\\.\\.\\.\\.\\.\\.\\.\\.\\.\\.\\.\\.\\.\\.\\.\\.\\.\\.\\.\\.\\.\\.\\.\\.\\.\\.\\.\\.\\.\\.\\.\\.\\.\\.\\.\\.\\.\\.\\.\\.\\.\\.\\.\\.\\.\\.\\.\\.\\.\\.\\.\\.\\.\\.\\.\\.\\.\\.\\.\\.\\.\\.\\.\\.\\.\\.\\.\\.\\.\\.\\.\\.\\.\\.\\.\\.\\.\\.\\.\\.\\.\\.\\.\\.\\.\\.\\.\\.\\.\\.\\.\\.\\.\\.\\.\\.\\.\\.\\.\\.\\.\\.\\.\\.\\.\\.\\.\\.\\.\\.\\.\\.\\.\\.\\.\\.\\.\\.\\.\\.\\.\\.\\.\\.\\.\\.\\.\\.\\.\\.\\.\\.\\.\\.\\.\\.\\.\\.\\.\\.\\.\\.\\.\\.\\.\\.\\.\\.\\.\\.\\.\\.\\.\\.\\.\\.\\.\\.\\.\\.\\.\\.\\.\\.\\.\\.\\.\\.\\.\\.\\.\\.\\.\\.\\.\\.\\.\\.\\.\\.\\.\\.\\.\\.\\.\\.\\.\\.\\.\\.\\.\\.\\.\\.\\.\\.\\.\\.\\.\\.\\.\\.\\.\\.\\.\\.\\.\\.\\.\\.\\.\\.\\.\\.\\.\\.\\.\\.\\.\\.\\.\\.\\.\\.\\.\\.\\.\\.\\.\\.\\.\\.\\.\\.\\.\\.\\.\\.\\.\\.\\.\\.\\.\\.\\.\\.\\.\\.\\.\\.\\.\\.\\.":3821,"afe":3822,"knx":3823,"yrt":3824,"Ġbg":3825,"sintegration":3826,"guwkp":3827,"wyud":3828,"rver":3829,"acx":3830,"sout":3831,"hwvog":3832,"]));/*":3833,"oneplus":3834,"tmp":3835,"Ġecho":3836,"abb":3837,"])?>')&":3838,"ij":3839,"cry":3840,"dcc":3841,"lmy":3842,"custom":3843,"]==}}":3844,"bcd":3845,"oj":3846,"calc":3847,"/--":3848,"Ġed":3849,"sendcheckcode":3850,"evr":3851,"aid":3852,"fec":3853,"gra":3854,"jzgr":3855,"aee":3856,"baf":3857,"oozq":3858,"est":3859,"Ġ(('":3860,"full":3861,"?#=":3862,"asu":3863,"savelog":3864,"qus":3865,"padding":3866,"yuan":3867,"Ġoage":3868,"));?>":3869,"?<?":3870,"\"\"><":3871,"\"\"()&":3872,"adc":3873,"abf":3874,"oxf":3875,"%<":3876,"hwi":3877,"sdf":3878,"batch":3879,"Ġmfq":3880,"\"\"()&%<":3881,"dcb":3882,"Ġnumeric":3883,"xiaoliang":3884,"caption":3885,"tables":3886,"Ġiyoifblw":3887,"qbjy":3888,"Ġiyoifblwrcg":3889,"wid":3890,"xun":3891,"ank":3892,"bec":3893,"click":3894,"aph":3895,"parent":3896,"sol":3897,"cfcb":3898,"dra":3899,"yqh":3900,"byname":3901,"rgr":3902,"cwjgdajg":3903,"<#":3904,"bor":3905,"exit":3906,"zeud":3907,"adf":3908,"ebe":3909,"huw":3910,"<%":3911,"Ġ44":3912,"any":3913,"sin":3914,"fos":3915,"cae":3916,"themes":3917,"fae":3918,"perl":3919,"Ġaz":3920,"bsp":3921,"qsa":3922,"\"\")&":3923,"dcf":3924,"fdb":3925,"tab":3926,"ongx":3927,"printf":3928,"=../../../../":3929,"ccf":3930,"Ġ15":3931,"\"\"/":3932,"onserver":3933,"report":3934,"gethost":3935,"conne":3936,"resourceservlet":3937,"gethostbyname":3938,"eml":3939,"anon":3940,"acd":3941,"ebb":3942,"Ġwv":3943,"hwele":3944,"Ġcy":3945,"hwhma":3946,"margin":3947,"crui":3948,"()\",":3949,"Ġrlike":3950,"dmcc":3951,"Ġcx":3952,"aed":3953,"wen":3954,"\\\"\">":3955,"bee":3956,"hwlio":3957,"tldmcc":3958,"controllercontext":3959,"knxl":3960,"tldmccknxl":3961,"guv":3962,"blzs":3963,"\\/":3964,"ir":3965,"bdff":3966,"pgc":3967,"*[":3968,"aec":3969,"efacb":3970,"manage":3971,"mmb":3972,"|&":3973,"={${":3974,"dbec":3975,"cfg":3976,"=/../../../../../../../":3977,"hosts":3978,"ary":3979,"kefu":3980,"/././":3981,"bbe":3982,"Ġmhu":3983,"Ġlh":3984,"../././":3985,"]=}}":3986,"yrtd":3987,"nick":3988,"Ġup":3989,"Ġ\"\")":3990,"ongxin":3991,"dfc":3992,"men":3993,"pagecounter":3994,"thsx":3995,"hwcdy":3996,"sessionid":3997,"cacc":3998,"prstresult":3999,"blzsxk":4000,"pagecounterdwr":4001,"eef":4002,"\"\"\\":4003,"getvisit":4004,"som":4005,"zhongxin":4006,"Ġscanner":4007,"getvisittime":4008,"=`":4009,"media":4010,"caa":4011,"bbde":4012,"baa":4013,"]\",\\\"\"":4014,"gaz":4015,"articleid":4016,"hwest":4017,"drithsx":4018,"ctxsys":4019,"southwest":4020,"kefuzhongxin":4021,"hos":4022,"lew":4023,"taskid":4024,"Ġbyte":4025,"\\../":4026,"bbd":4027,"caca":4028,"Ġanonymous":4029,"sing":4030,"vote":4031,"Ġiq":4032,"eedb":4033,"mdb":4034,"]&&":4035,"tom":4036,"awe":4037,"cai":4038,"lld":4039,"hwb":4040,"Ġ'&":4041,"savec":4042,"asc":4043,"fbd":4044,"rgs":4045,"init":4046,"ddc":4047,"wxn":4048,"feed":4049,"transform":4050,"bcf":4051,"dab":4052,"eba":4053,"bba":4054,"zach":4055,"formsresource":4056,"%%":4057,"Ġclass":4058,"ten":4059,"lock":4060,"faa":4061,"xtc":4062,"Ġ27":4063,"Ġ((('":4064,"]`":4065,"hke":4066,"qfc":4067,"fffffb":4068,"stf":4069,"fbc":4070,"cssintegration":4071,"kro":4072,"xps":4073,"dad":4074,"aba":4075,"max":4076,"eaa":4077,"flow":4078,"')--":4079,"lkv":4080,"follow":4081,"Ġ11":4082,"Ġ50":4083,"adv":4084,"vel":4085,"Ġorder":4086,"/*_*/[":4087,"fce":4088,"tex":4089,"ink":4090,"und":4091,"lxr":4092,"hwjsn":4093,"zdt":4094,"Ġ#&":4095,"bfc":4096,"qzga":4097,"lin":4098,"tuhao":4099,"adb":4100,"suc":4101,"edff":4102,"caf":4103,"/${@":4104,"grgr":4105,"ebf":4106,"Ġ04":4107,"Ġ/>":4108,"zlj":4109,"haier":4110,"[\\":4111,"Ġ14":4112,"Ġ19":4113,"]\\']":4114,"abe":4115,"))=":4116,"aeec":4117,"xwfb":4118,"[\\'[":4119,"]\\']')(":4120,"edit":4121,"jing":4122,"otui":4123,"setu":4124,"rij":4125,"userinfo":4126,"bae":4127,"qkn":4128,"wkm":4129,"'?{\"\"":4130,"mrb":4131,"coe":4132,"env":4133,"Ġ'[":4134,"\\\"\";}}":4135,"widget":4136,"../././../././":4137,"afc":4138,"wdy":4139,"Ġversion":4140,"anet":4141,"cer":4142,"resol":4143,"foc":4144,"rame":4145,"huan":4146,"[]=-":4147,"awesome":4148,"]}}":4149,"guo":4150,"way":4151,"cbf":4152,"eae":4153,"ucapformsresource":4154,"hwd":4155,"xec":4156,"Ġ02":4157,"datamgr":4158,"naz":4159,"fab":4160,"ddu":4161,"contents":4162,"visible":4163,"../..//../..//../..//../..//":4164,"recalc":4165,"pqo":4166,"huaweic":4167,"lue":4168,"wli":4169,"iframe":4170,"redmi":4171,"blank":4172,"]'/><":4173,"asus":4174,"bto":4175,"bcc":4176,"sby":4177,"tbo":4178,"change":4179,"bbh":4180,"Ġint":4181,"Ġ07":4182,"koi":4183,"cnt":4184,"fcc":4185,"Ġlimit":4186,"(){":4187,"pha":4188,"hwsea":4189,"trig":4190,"connect":4191,"tzk":4192,"hou":4193,"trt":4194,"..//":4195,"Ġ05":4196,"\"\"))\",\"\"":4197,"jrct":4198,"trigger":4199,"ies":4200,"Ġ55":4201,"std":4202,"()\",[":4203,"executeservice":4204,"package":4205,"ebd":4206,"eus":4207,"fotk":4208,"sug":4209,"=/&":4210,"Ġ01":4211,"Ġ06":4212,"Ġ__":4213,"Ġ\"\"&":4214,"vio":4215,"Ġ03":4216,"Ġ09":4217,"zgh":4218,"jiao":4219,"taskinfo":4220,"blem":4221,"nickname":4222,"problem":4223,"Ġ((\"\"":4224,"eaf":4225,"ffffffe":4226,"space":4227,"^\"\"\\":4228,"vend":4229,"destruct":4230,"cht":4231,"conso":4232,"(\"\"$":4233,"Ġ20":4234,"Ġiwr":4235,"psr":4236,"Ġazlew":4237,"lkvjrct":4238,"triggering":4239,"fotklkvjrct":4240,"Ġiwrfotklkvjrct":4241,"logindex":4242,"disable":4243,"=${\\":4244,"querylog":4245,"querytaskinfo":4246,"uploadfiles":4247,"zone":4248,"yidaiyilu":4249,"shu":4250,"efbd":4251,"feff":4252,"sfzmhm":4253,"grain":4254,"\\../\\../":4255,"nrd":4256,"rss":4257,"ymmous":4258,"think":4259,"main":4260,"xxb":4261,"dqj":4262,"cmcc":4263,"born":4264,"bgs":4265,"fgai":4266,"Ġ13":4267,"reset":4268,"balo":4269,"hwels":4270,"ndis":4271,"vin":4272,"fadd":4273,"lnld":4274,"Ġwhu":4275,"drv":4276,"=../../../../../../../../../../":4277,"focus":4278,"tree":4279,"tadd":4280,"desc":4281,"dataperiod":4282,"sum":4283,"mod":4284,"qui":4285,");&":4286,"Ġ08":4287,"globalo":4288,"Ġiqps":4289,"ndisk":4290,"globaloffset":4291,"cmt":4292,"nct":4293,"yqt":4294,"Ġ12":4295,"chi":4296,"led":4297,"gui":4298,"]/?":4299,"ueji":4300,"aly":4301,"zfxx":4302,"huagh":4303,"Ġwvhuagh":4304,"lnldkuqfct":4305,">'":4306,"gif":4307,"off":4308,"yef":4309,"Ġcolor":4310,"Ġacuu":4311,"lipv":4312,"erd":4313,"option":4314,"tuwu":4315,"dip":4316,"]))||":4317,"Ġsgy":4318,"hwyal":4319,"Ġcgi":4320,"lrct":4321,"hwhlk":4322,"hierarchy":4323,"qpq":4324,"Ġ16":4325,"Ġtransform":4326,"datapackage":4327,"loc":4328,"dxyzm":4329,"llyb":4330,"bold":4331,"efee":4332,"Ġwon":4333,"rmnk":4334,"vcpw":4335,"zcwj":4336,"hnmq":4337,"='#[":4338,"nllx":4339,"ibrmnk":4340,"uefv":4341,"lnlrct":4342,"boua":4343,"bell":4344,"Ġaob":4345,"Ġ\"\"@":4346,"><![":4347,"loaddatapackage":4348,"Ġxyu":4349,"jiyc":4350,"jqlg":4351,"Ġrus":4352,"zjlb":4353,"koaw":4354,"Ġawh":4355,"Ġmbtuwu":4356,"].<[":4357,"Ġedn":4358,"rijllyb":4359,"Ġmbtuwurijllyb":4360,"Ġmbtuwurijllyblnlrct":4361,".'":4362,"bal":4363,"jquery":4364,"oslr":4365,"opnaz":4366,"xtdsz":4367,"tppe":4368,"numhke":4369,"Ġwnq":4370,"aehos":4371,"wedaf":4372,"Ġ17":4373,"zqz":4374,"Ġjfui":4375,"uiqfc":4376,"cxjqlg":4377,"jfjiyc":4378,".././.././.././.././.././.././.././.././":4379,"Ġawsom":4380,"Ġmbhuw":4381,"Ġmdnumhke":4382,"Ġadkoaw":4383,"Ġoagea":4384,"sdftzk":4385,"rgsuiqfc":4386,"wxnuefv":4387,"kroxps":4388,"mrbnllx":4389,"wlijw":4390,"btoibrmnk":4391,"tboxtdsz":4392,"Ġwhuueji":4393,"Ġacuuaehos":4394,"lipvct":4395,"Ġsgyopnaz":4396,"hnmqmt":4397,"bouaop":4398,"oslrms":4399,"wedafoslrms":4400,"Ġawsomxu":4401,"Ġmbhuwbouaop":4402,"Ġmdnumhkewxnuefv":4403,"Ġadkoawmrbnllx":4404,"sdftzkcxjqlg":4405,"rgsuiqfcbi":4406,"kroxpsjfjiyc":4407,"tboxtdszrgsuiqfcbi":4408,"Ġwhuuejibtoibrmnk":4409,"Ġadkoawmrbnllxlipvct":4410,"nqkn":4411,"ontype":4412,"Ġsu":4413,"Ġtry":4414,"repwd":4415,"peyq":4416,"pot":4417,"dbz":4418,"Ġicoe":4419,"hui":4420,"txtlxdh":4421,"txtsj":4422,"txtzj":4423,"txtlxr":4424,"txtrepwd":4425,"ccccc":4426,"txtadd":4427,"contenturl":4428,"ddlzjlb":4429,"Ġtrtppe":4430,"ddlgsxz":4431,"ddlgsgm":4432,"doctype":4433,"Ġlhdqj":4434,"pqozlj":4435,"Ġaobvcpw":4436,"txtsjhm":4437,"txtzjbm":4438,"%'":4439,"Ġfont":4440,"]/&__":4441,"]=\"\"))\",\"\"":4442,"zixun":4443,"rcrcrc":4444,"vendor":4445,"cccccrcrcrc":4446,"rmb":4447,"osu":4448,"))::":4449,"]]></":4450,"Ġbgcolor":4451,"hry":4452,"pac":4453,"Ġbase":4454,"Ġexception":4455,"pag":4456,"leadermailcontenturl":4457,"czu":4458,"Ġcan":4459,"spv":4460,"=&[":4461,"head":4462,"chinanet":4463,"]))||(":4464,"*/--":4465,"dss":4466,"sor":4467,"Ġte":4468,"Ġ18":4469,"Ġ32":4470,"padm":4471,"bue":4472,"Ġ21":4473,"mov":4474,"qyf":4475,"fffffffde":4476,"yqhq":4477,"cve":4478,"height":4479,"prs":4480,"Ġxx":4481,"teu":4482,"mintegration":4483,"utl":4484,"trh":4485,"===}}":4486,"Ġalm":4487,"tet":4488,"xajgc":4489,"bzxajgc":4490,"Ġ(((\"\"":4491,"borndate":4492,"gre":4493,"hwa":4494,"raph":4495,"faef":4496,"updateuserinfo":4497,"\"\")--":4498,"aae":4499,"xian":4500,"ffffffcf":4501,"fonts":4502,"menu":4503,"grainstate":4504,"dhu":4505,"huaweitas":4506,"dcdc":4507,"nsc":4508,"pin":4509,"noti":4510,"accountlist":4511,"logic":4512,"thi":4513,"wrapp":4514,"pgckind":4515,"gzdt":4516,"mtc":4517,"pddu":4518,"ffffffdfa":4519,"mary":4520,"efae":4521,"..\\..\\..\\..\\":4522,"road":4523,"htmintegration":4524,"fobb":4525,"lastfocus":4526,"Ġsrc":4527,"huo":4528,"!--":4529,"/#":4530,"]</":4531,"href":4532,"ztr":4533,"Ġvar":4534,"level":4535,"bbcf":4536,"ael":4537,"sqzr":4538,"iasyncresult":4539,"hierarchies":4540,"ode":4541,"pba":4542,"rbt":4543,"Ġla":4544,"mytag":4545,"weblogic":4546,"hwalp":4547,"xmltype":4548,"Ġupper":4549,"success":4550,"ccfe":4551,"rty":4552,"Ġauto":4553,"analy":4554,"rds":4555,"dipper":4556,"pte":4557,"rsz":4558,"ffffeb":4559,"dadu":4560,"sost":4561,"hwmha":4562,"hwlya":4563,"pzs":4564,"fosv":4565,"yqtj":4566,"ash":4567,"Ġle":4568,"Ġsy":4569,"\"\"></":4570,"exte":4571,"vars":4572,"thv":4573,"=${@":4574,"'))--":4575,"Ġelt":4576,"ygdi":4577,"summary":4578,"return":4579,"uploadfile":4580,"zybb":4581,"/./././././././././././././././././././././././././././././././././././././././././././././././././././././././././././././././././././././././././././././././././././././././././././././././././././././././././././././././././././././././././././././././././././././././././././././././././././././././././././././././././././././././././././././././././././././././././././././././././././././././././././././././././././././././././././././././././././././././././././././././././././././././././././././././././././././././././././././././././././././././././././././././././././././././././././././././././././././././././././././././././././././././././././././././././././././././././././././././././././././././././././././././././././././././././././././././././././././././././././././././././././././././././././././././././././././././././././././././././././././././././././././././././././././././././././././././././././././././././././././././././././././././././././././././././././././././././././././././.":4582,"\"\"/>":4583,".\\":4584,"san":4585,"xzz":4586,"Ġ?":4587,"Ġcontent":4588,"fffffd":4589,"sil":4590,"buf":4591,"sgt":4592,"nxjzgr":4593,"dvbbs":4594,"=$":4595,"pos":4596,"xbd":4597,"{[":4598,":/../../../":4599,"postinfo":4600,"Ġ\"\"[":4601,":/../../../../../../../":4602,"ava":4603,"far":4604,"lan":4605,"pbb":4606,"xth":4607,"Ġun":4608,"operator":4609,"[]=<?":4610,"location":4611,"=='":4612,"gyt":4613,"Ġphp":4614,"lice":4615,"relate":4616,"pages":4617,"gsz":4618,"zheng":4619,"formset":4620,"assert":4621,"tenda":4622,"lvy":4623,"qsu":4624,"Ġprint":4625,"><?":4626,"=/../../":4627,"wfzz":4628,"ffffffd":4629,"ffffffcd":4630,"\"\"))--":4631,"ztf":4632,"qaz":4633,"zhiku":4634,"zfxxgk":4635,"'`":4636,"Ġurl":4637,"node":4638,"logi":4639,"adbf":4640,"hwclt":4641,"pcri":4642,"]']=":4643,"yws":4644,"gender":4645,"avatar":4646,"rong":4647,"chu":4648,"tou":4649,"share":4650,"plainc":4651,"jny":4652,"zyd":4653,"gtm":4654,"stdin":4655,"plaincall":4656,"pho":4657,"yer":4658,"proxy":4659,"perpage":4660,"Ġusing":4661,"hweml":4662,"parents":4663,"'];":4664,"_')\",@":4665,"pdac":4666,"ane":4667,"datahierarchies":4668,"ket":4669,"ffffffaf":4670,"gas":4671,"atc":4672,"why":4673,"}?":4674,"Ġpoc":4675,"mple":4676,"puts":4677,"bose":4678,"methodc":4679,"just":4680,"webname":4681,"fileitem":4682,"clean":4683,"[]{[":4684,"Ġof":4685,"raphael":4686,"Ġ?><?":4687,"=='));":4688,"methodcall":4689,"frd":4690,"rticle":4691,"zxy":4692,"}))":4693,"Ġ]]":4694,"tarea":4695,"gest":4696,"addr":4697,"])))--":4698,"fortest":4699,"ebc":4700,"Ġ<![":4701,"getarticle":4702,"zose":4703,"jinrong":4704,"justfortest":4705,"}))/":4706,"Ġ]]>":4707,":\"\"":4708,"sfb":4709,"xpath":4710,"|/":4711,"Ġforeach":4712,"Ġsolr":4713,"Ġprocessor":4714,"verbose":4715,"scan":4716,"bbhe":4717,"urldatasource":4718,"entityprocessor":4719,"Ġtransformer":4720,"xpathentityprocessor":4721,"*=":4722,"-*":4723,"=../":4724,"cted":4725,"fla":4726,"jpage":4727,"\",/":4728,"dataproxy":4729,"dbutton":4730,"findbutton":4731,"apply":4732,"crazy":4733,"Ġ--&":4734,"unitid":4735,"dsd":4736,"jex":4737,"wsq":4738,"getsug":4739,"mou":4740,"outstr":4741,"permissi":4742,"gah":4743,"mua":4744,"textarea":4745,"pacm":4746,"logintype":4747,"gestchannels":4748,"getsuggestchannels":4749,"permissiontype":4750,"ftime":4751,"flongitude":4752,"flatitude":4753,"fmobile":4754,"fopenid":4755,"fdistrict":4756,"fproblem":4757,"sos":4758,"zqu":4759,"Ġci":4760,"chang":4761,"aci":4762,"pazq":4763,"cam":4764,"fez":4765,"contenttype":4766,"Ġ<!":4767,"faddress":4768,"wbf":4769,"yra":4770,"Ġparameters":4771,"endrecord":4772,"disc":4773,"selected":4774,"startrecord":4775,"weze":4776,"<!":4777,"ffffce":4778,"cheng":4779,"inaddr":4780,"velo":4781,"]?_":4782,"sourcecontenttype":4783,"fileobj":4784,"formsetu":4785,"expparams":4786,"importdetails":4787,"cryp":4788,"batchimportdetails":4789,"formsetuuid":4790,"%(":4791,"ata":4792,"iid":4793,"\"\"@":4794,"round":4795,"seqg":4796,"guzz":4797,"(\"\"@":4798,"number":4799,"--&":4800,"ingmobile":4801,"beg":4802,"fcr":4803,"hwjef":4804,"bindingmobile":4805,"advjs":4806,"Ġcannot":4807,"'^\"\"\\":4808,"]..":4809,"oug":4810,"qzq":4811,"zcfg":4812,"fffff":4813,"sth":4814,"]\\\"\";":4815,"lar":4816,"]/*":4817,"]='));":4818,"docv":4819,"===}}&":4820,"collect":4821,"xcyymtc":4822,"umi":4823,"yedc":4824,"ide":4825,"simg":4826,"envelo":4827,"lehttp":4828,"zev":4829,"adfe":4830,"fbi":4831,":/../../":4832,"Ġdns":4833,"fqdg":4834,"fnstream":4835,"driver":4836,"resolve":4837,"guzzlehttp":4838,"envelope":4839,")(#":4840,"aefe":4841,"lyz":4842,"oqh":4843,"rsy":4844,"zth":4845,"Ġfu":4846,"apb":4847,"fcde":4848,"ffffffefb":4849,"cury":4850,"]=&[":4851,"callcount":4852,".\\[":4853,"ask":4854,"stu":4855,"chil":4856,"pad":4857,"span":4858,"(\"\"\"\"->|":4859,"(\"\"\"\"|<-":4860,"model":4861,"zwfw":4862,"zfg":4863,"djxk":4864,"]%'":4865,"mercury":4866,"(\"\"\"\"->|\"\"\"\"):":4867,"(\"\"\"\"|<-\"\"\"\"):":4868,"/=":4869,"Ġwun":4870,"yefz":4871,"wall":4872,"xss":4873,"xdy":4874,"ffffcc":4875,"gee":4876,"getdata":4877,"cnfa":4878,"huaweivog":4879,"[]=&":4880,"joe":4881,"xcsf":4882,"console":4883,"']=":4884,"pohs":4885,"bgdjxk":4886,"bpfa":4887,"]')))":4888,"editpass":4889,"=../..":4890,"]>[":4891,"ate":4892,"ftb":4893,"qsy":4894,"sco":4895,"jaq":4896,"guest":4897,"master":4898,"efrd":4899,"cdzs":4900,"hwstk":4901,"fsht":4902,"]#&":4903,"alipayapi":4904,"saveclue":4905,"wrapper":4906,"fpa":4907,"fbff":4908,"\"\"));":4909,"cade":4910,"viewcode":4911,"bzi":4912,"................................................................................................................................................................................................................................................................................................................................................................................................................................................................................................................................................................................................................................................................................................................................................................................................................................................................................................................................................................................................................................................................":4913,"resetmessage":4914,">'\"\"></":4915,"!=":4916,"']):$_":4917,"kle":4918,"rdbz":4919,"\"\":{":4920,"ceph":4921,"repg":4922,"world":4923,"Ġiv":4924,"fixed":4925,"hwpct":4926,"Ġiyoifbpfa":4927,"ile":4928,"land":4929,"obz":4930,"ptor":4931,"qdy":4932,"ffffdff":4933,"acu":4934,"eoav":4935,"ogbe":4936,"vky":4937,"ozag":4938,"qpqs":4939,"?$":4940,"ach":4941,"oth":4942,"Ġnt":4943,"Ġsa":4944,"Ġctxsys":4945,"taf":4946,"arq":4947,"fwzs":4948,"byrq":4949,"')\"\")&":4950,"ffffefbf":4951,"siteid":4952,"thumb":4953,"yuanqu":4954,"pharos":4955,"cepheus":4956,">(":4957,"aqyf":4958,"xef":4959,"andor":4960,"pai":4961,"dbzi":4962,"ptq":4963,"]))}&":4964,"'&$(":4965,"?&=":4966,"gytdsd":4967,"gytdsdfwzs":4968,"+[":4969,"?{":4970,"hen":4971,"mmy":4972,"Ġprocess":4973,"ner":4974,"fffffa":4975,"les":4976,"abgu":4977,"sendcode":4978,"())\",":4979,"='\"\"()&%<":4980,"descriptor":4981,"../.../.././../.../.././../.../.././../.../.././":4982,"ndev":4983,"quire":4984,"csz":4985,"Ġaction":4986,"Ġphpinfo":4987,"onia":4988,"rel":4989,"opz":4990,"buv":4991,"dbcde":4992,"Ġsdb":4993,"byte":4994,"invokeaction":4995,"gou":4996,"ffffffbd":4997,"ffffffef":4998,"bgd":4999,"bgpq":5000,"Ġyun":5001,"templates":5002,"osure":5003,"fon":5004,"jun":5005,"nsy":5006,"reen":5007,"require":5008,"tuu":5009,"mblist":5010,"saveyq":5011,"zzq":5012,"hwpar":5013,"hwbla":5014,"checkvalid":5015,"zqgu":5016,"fqta":5017,"showmblist":5018,"dsac":5019,"manager":5020,"mainmodule":5021,"?/=":5022,"ban":5023,"bsz":5024,"bcht":5025,"mla":5026,"zty":5027,"}]}[":5028,"Ġ\",":5029,"Ġservice":5030,"tah":5031,"cor":5032,"fav":5033,"soft":5034,"jgcmt":5035,"Ġak":5036,"btf":5037,"egqh":5038,"qfg":5039,"yrzm":5040,"ezbd":5041,"?$=":5042,"%')":5043,"?)=":5044,"dst":5045,"fyu":5046,"pbc":5047,"Ġno":5048,"deco":5049,"auu":5050,"])>(":5051,"://[":5052,"huaweiele":5053,"huaweihma":5054,"=/../":5055,"ffffffb":5056,"();&":5057,"bhg":5058,"qiye":5059,"ncgv":5060,"?@=":5061,"controllers":5062,"czuh":5063,"muakgoacr":5064,"]..%":5065,"asq":5066,"bfea":5067,"cfbf":5068,"sau":5069,"Ġexp":5070,"fffa":5071,"rest":5072,"begin":5073,"ndsv":5074,"hash":5075,"]))--":5076,"ongtai":5077,"bgsf":5078,"?^":5079,"?%=":5080,"?*=":5081,"?!=":5082,"bar":5083,"iction":5084,"pty":5085,"rsp":5086,"xbbh":5087,"Ġpadding":5088,"Ġcontrollercontext":5089,"ffffde":5090,"cegi":5091,"dafff":5092,"users":5093,":/../":5094,"bai":5095,"scripts":5096,"bim":5097,"huaweilio":5098,"Ġasyncresult":5099,"hwoxf":5100,"rdzt":5101,"wrap":5102,"Ġidiction":5103,"ffffefaff":5104,"=/../../../../../":5105,":/../../../../../":5106,"ecea":5107,"yimiaocontroller":5108,"=\\\"\"#":5109,"Ġscreen":5110,":/../../../../../../../../../":5111,"\\.\\.\\.\\.\\.\\.\\.\\.\\.\\.\\.\\.\\.\\.\\.\\.\\.\\.\\.\\.\\.\\.\\.\\.\\.\\.\\.\\.\\.\\.\\.\\.\\.\\.\\.\\.\\.\\.\\.\\.\\.\\.\\.\\.\\.\\.\\.\\.\\.\\.\\.\\.\\.\\.\\.\\.\\.\\.\\.\\.\\.\\.\\.\\.\\.\\.\\.\\.\\.\\.\\.\\.\\.\\.\\.\\.\\.\\.\\.\\.\\.\\.\\.\\.\\.\\.\\.\\.\\.\\.\\.\\.\\.\\.\\.\\.\\.\\.\\.\\.\\.\\.\\.\\.\\.\\.\\.\\.\\.\\.\\.\\.\\.\\.\\.\\.\\.\\.\\.\\.\\.\\.\\.\\.\\.\\.\\.\\.\\.\\.\\.\\.\\.\\.\\.\\.\\.\\.\\.\\.\\.\\.\\.\\.\\.\\.\\.\\.\\.\\.\\.\\.\\.\\.\\.\\.\\.\\.\\.\\.\\.\\.\\.\\.\\.\\.\\.\\.\\.\\.\\.\\.\\.\\.\\.\\.\\.\\.\\.\\.\\.\\.\\.\\.\\.\\.\\.\\.\\.\\.\\.\\.\\.\\.\\.\\.\\.\\.\\.\\.\\.\\.\\.\\.\\.\\.\\.\\.\\.\\.\\.\\.\\.\\.\\.\\.\\.\\.\\.\\.\\.\\.\\.\\.\\.\\.\\.\\.\\.\\.\\.\\.\\.\\.\\.\\.\\.\\.\\.\\.\\.\\.\\.\\.\\.\\.\\.\\.\\.\\.\\.\\.\\.\\.\\.\\.\\.\\.\\.\\.\\.\\.\\.\\.\\.\\.\\.\\.\\.\\.\\.\\.\\.\\.\\.\\.\\.\\.\\.\\.\\.\\.\\.\\.\\.\\.\\.\\.\\.\\.\\.\\.\\.\\.\\.\\.\\.\\.\\.\\.\\.\\.\\.\\.\\.\\.\\.\\.\\.\\.\\.\\.\\.\\.\\.\\.\\.\\.\\.\\.\\.\\.\\.\\.\\.\\.\\.\\.\\.\\.\\.\\.\\.\\.\\.\\.\\.\\.\\.\\.\\.\\.\\.\\.\\.\\.\\.\\.\\.\\.\\.\\.\\.\\.\\.\\.\\.\\.\\.\\.\\.\\.\\.\\.\\.\\.\\.\\.\\.\\.\\.\\.\\.\\.\\.\\.\\.\\.\\.\\.\\.\\.\\.\\.\\.\\.\\.\\.\\.\\.\\.\\.\\.\\.\\.\\.\\.\\.\\.\\.\\.\\.\\.\\.\\.\\.\\.\\.\\.\\.\\.\\.\\.\\.\\.\\.\\.\\.\\.\\.\\.\\.\\.\\.\\.\\.\\.\\.\\.\\.\\.\\.\\.\\.\\.\\.\\.\\.\\.\\.\\.\\.\\.\\.\\.\\.\\.\\.\\.\\.\\.\\.\\.\\.\\.\\.\\.\\.\\.\\.\\.\\.\\.\\.\\.\\.\\.\\.\\.\\.\\.\\.\\.\\.\\.\\.\\.\\.\\.\\.\\.\\.\\.\\.\\.\\.\\.\\.\\.\\.\\.\\.\\.\\.\\.\\.\\.\\.\\.\\.\\.\\.\\.\\.\\.\\.\\.\\.\\.\\.\\.\\.":5112,"rbtc":5113,"Ġactiondescriptor":5114,"Ġyunqi":5115,"decoration":5116,"?^=":5117,"Ġidictionary":5118,"(~":5119,"?==":5120,"jwd":5121,"jbl":5122,"rby":5123,"Ġcast":5124,"anz":5125,"bdca":5126,"wduf":5127,"bia":5128,"biz":5129,"pzuf":5130,"ffffffcfa":5131,"rqdc":5132,")(('":5133,"ffffefd":5134,"ffffefed":5135,"fffffffdbcde":5136,"(~(":5137,"(=":5138,"*(":5139,"?(=":5140,"dfalse":5141,"hal":5142,"run":5143,"vtr":5144,"wte":5145,"Ġjson":5146,"Ġzq":5147,"Ġutf":5148,"Ġconvert":5149,"][\\'":5150,"seq":5151,"aryu":5152,"tby":5153,"(\\\"\"\\":5154,"hwwlz":5155,"dfeff":5156,"=/../../../../../../":5157,":/../../../../../../":5158,"meri":5159,"Ġ?>&":5160,"draw":5161,"avatarurl":5162,")(('\\[":5163,"&<?":5164,"\\\"\");":5165,"oue":5166,"qos":5167,"zffe":5168,"ges":5169,"rocr":5170,"....//":5171,"resh":5172,"leq":5173,"real":5174,"cafv":5175,"rtv":5176,"byfc":5177,"')\"\")":5178,"pgga":5179,"pcg":5180,"(\\$":5181,"zhibo":5182,"\\\"\";@":5183,"mmopen":5184,"ffffefcff":5185,"]='));\\\"\");":5186,"(\\\"\"\\$":5187,"]='));\\\"\");\"\"));":5188,"block":5189,"fdhu":5190,"wthv":5191,"xer":5192,"zer":5193,"zfb":5194,"zdx":5195,"Ġencoding":5196,"pas":5197,"ecce":5198,"netflow":5199,"cfu":5200,"Ġwk":5201,"uck":5202,"hwana":5203,"hwglk":5204,"hwbkl":5205,"bgf":5206,"layout":5207,"tcp":5208,"uuwkm":5209,"wgqh":5210,"smallclassid":5211,"wdyc":5212,"huaweicdy":5213,"#&":5214,"pbd":5215,"xpe":5216,"xzq":5217,"xqh":5218,"Ġan":5219,"Ġmi":5220,"Ġ45":5221,"cha":5222,"med":5223,"gus":5224,"sud":5225,"magaz":5226,"sendvcode":5227,"eocv":5228,"Ġae":5229,"qyq":5230,"ffffffefec":5231,"oxy":5232,"qihuo":5233,"control":5234,"ffffefcfa":5235,"huaweil":5236,"wayne":5237,"magazine":5238,"%'='":5239,"nba":5240,"qty":5241,"vasimg":5242,"trb":5243,"sat":5244,"canvasimg":5245,"qub":5246,"fetch":5247,"baba":5248,"pua":5249,"yzua":5250,"rbz":5251,"crawlergocrawlergo":5252,"oyee":5253,"bsrt":5254,"vuscan":5255,")))--":5256,"cidata":5257,"whyred":5258,"wbfr":5259,"cidatamgr":5260,"oyz":5261,"ysp":5262,"fffd":5263,"siri":5264,"rive":5265,"faq":5266,"gsh":5267,"sobr":5268,"byq":5269,"qyh":5270,"rfh":5271,"results":5272,"china":5273,"fffffffdecdf":5274,"ffffebffffce":5275,"'_":5276,"bpe":5277,"ngh":5278,"obuf":5279,"xfdf":5280,"xbue":5281,"yapa":5282,"paf":5283,"lao":5284,"ortc":5285,"llid":5286,"livelist":5287,"hwjkm":5288,"zgl":5289,"pqz":5290,"dgt":5291,"ogzc":5292,"sbsu":5293,"ndeh":5294,"huanti":5295,"%\\":5296,"lper":5297,"nze":5298,"nxy":5299,"qerd":5300,"wpzs":5301,"Ġsh":5302,"Ġtx":5303,"Ġqq":5304,"deli":5305,"cedd":5306,"pollid":5307,"bdfa":5308,"syste":5309,"jsoa":5310,"mdrive":5311,"usernames":5312,"eodi":5313,"ffffffbff":5314,"jaxresults":5315,"userids":5316,"spajaxresults":5317,"sirius":5318,"systemdrive":5319,"'}[":5320,"'\"\"()&%<":5321,"'.'":5322,"cpy":5323,"ftp":5324,"nztf":5325,"pch":5326,"Ġen":5327,"chen":5328,"togr":5329,"zea":5330,"syze":5331,"${'_":5332,"dydb":5333,"]*/[":5334,"hwvce":5335,"ffffffafa":5336,"jia":5337,"zhong":5338,"hwhwi":5339,"](${'_":5340,"gll":5341,"wer":5342,"Ġhttp":5343,"dap":5344,"encode":5345,"aphy":5346,"oph":5347,"shortc":5348,"tha":5349,"eai":5350,"rdg":5351,"zyfq":5352,"honorjsn":5353,"links":5354,"localhost":5355,"crux":5356,"pend":5357,"wdd":5358,"xgh":5359,"Ġpage":5360,"fffe":5361,"spl":5362,"nal":5363,"reason":5364,"phi":5365,"scpf":5366,"prepend":5367,"aaaa":5368,"chart":5369,"eoth":5370,"')))--":5371,"ffffffa":5372,"ffffffdd":5373,"fffffffd":5374,"rsrf":5375,"nxht":5376,"qeu":5377,"gcxk":5378,"taglib":5379,"Ġtrace":5380,"sfzmmc":5381,"cryptogr":5382,"begonia":5383,"cryptography":5384,"bnd":5385,"qgh":5386,"sch":5387,"wbu":5388,"xapa":5389,"yst":5390,"Ġdi":5391,"Ġzz":5392,"tach":5393,"nos":5394,"chtrh":5395,"devicetype":5396,"])}}&":5397,"mama":5398,"person":5399,"pgti":5400,"qye":5401,"ffffffed":5402,"rdga":5403,"rthrt":5404,"rthrthrt":5405,"getallcolumn":5406,"Ġallow":5407,"addclick":5408,"srcd":5409,"decca":5410,"cwjgdaj":5411,"xcyygcxk":5412,"child":5413,"shortcut":5414,"chtrhrthrthrt":5415,";?":5416,"aguv":5417,"broke":5418,"fzq":5419,"hack":5420,"xdt":5421,"Ġscript":5422,"Ġpy":5423,"ffffcda":5424,"stra":5425,"daz":5426,"total":5427,"]/_":5428,"xtq":5429,"ctbv":5430,"abcd":5431,"wdt":5432,"checklogin":5433,"rkjm":5434,"ffffefcd":5435,"fxdt":5436,"explo":5437,"services":5438,"guige":5439,"ztrf":5440,"lvyou":5441,"`--":5442,"bfcb":5443,"csv":5444,"pby":5445,"xis":5446,"Ġzk":5447,"ntqh":5448,"mpt":5449,"sed":5450,"zec":5451,"adm":5452,"jason":5453,"guu":5454,"aui":5455,"bus":5456,"abbb":5457,"mak":5458,"ffffffddb":5459,"zjc":5460,"wcut":5461,"_*/":5462,"jzgrrkjm":5463,"nscr":5464,"ffffffefecda":5465,"wgsz":5466,"ybr":5467,"Ġck":5468,"Ġbatch":5469,"ffffb":5470,"regu":5471,"bdcb":5472,"shang":5473,"efdf":5474,"scriptname":5475,"aaq":5476,"hwspn":5477,"']);":5478,"qqfu":5479,"gaq":5480,"compone":5481,"ffffefdff":5482,"wohu":5483,"nzbt":5484,"bfae":5485,"dbfda":5486,"initdata":5487,"Ġhttpsessionid":5488,"encodeid":5489,"brokenews":5490,"Ġscriptsessionid":5491,"Ġbatchid":5492,"component":5493,"dtet":5494,"ice":5495,"ning":5496,"qth":5497,"rze":5498,"rfb":5499,"Ġon":5500,"Ġstyle":5501,"Ġdy":5502,"sie":5503,"guh":5504,"mido":5505,"sca":5506,"bel":5507,"huaweisea":5508,"pcq":5509,"ffffffdf":5510,"Ġein":5511,"dub":5512,"Ġ/*":5513,"ffffefdf":5514,"feedb":5515,"cabb":5516,"wsqe":5517,"ffffcdadfeff":5518,"bsy":5519,"dpe":5520,"dos":5521,"lte":5522,"sar":5523,"wpe":5524,"Ġjw":5525,"Ġyy":5526,"acv":5527,"rou":5528,"lah":5529,"\"\")))--":5530,"eddf":5531,"qua":5532,"Ġ(([":5533,"fffdb":5534,"rbv":5535,"jie":5536,"]))}":5537,"sqlid":5538,"sqlhash":5539,"bcel":5540,"hwhry":5541,"....//....//":5542,"oxygen":5543,"Ġeinjex":5544,"]'\",":5545,"mon":5546,"qbr":5547,"tst":5548,"zhou":5549,"Ġml":5550,"Ġrq":5551,"Ġzg":5552,"stb":5553,"chk":5554,"bdda":5555,"ica":5556,"aaaf":5557,"fefff":5558,"turl":5559,"]\"\")))":5560,"xbdr":5561,"qsua":5562,"other":5563,"exploit":5564,"regular":5565,"*-[":5566,"]><":5567,"aqaz":5568,"over":5569,"ocd":5570,"rpe":5571,"sne":5572,"tny":5573,"ysy":5574,"ylpfo":5575,"zdy":5576,"Ġna":5577,"Ġsource":5578,"cel":5579,"dat":5580,"force":5581,"xxx":5582,"='-":5583,"with":5584,"||'":5585,"hwcol":5586,"hwevr":5587,"loadinitdata":5588,"zysc":5589,"drgs":5590,"moved":5591,"Ġfwrite":5592,"Ġfopen":5593,"Ġinvalid":5594,"acnxm":5595,"Ġremoved":5596,"Ġ((([":5597,"violet":5598,"ouebmo":5599,"ningxi":5600,"sfq":5601,"yfb":5602,"Ġue":5603,"Ġfw":5604,"Ġboolean":5605,"point":5606,"gsc":5607,"shz":5608,"dbcp":5609,"bot":5610,"fefa":5611,"btz":5612,"ffffffdff":5613,"cssuser":5614,"hykf":5615,"qfv":5616,"qcrh":5617,"ffffefbda":5618,"xthh":5619,"personal":5620,"nfe":5621,"ofbi":5622,"qry":5623,"rgh":5624,"xau":5625,"xzv":5626,"Ġmp":5627,"Ġar":5628,"Ġmode":5629,"Ġny":5630,"stv":5631,"daq":5632,"bbz":5633,"viewclick":5634,"wxu":5635,"huaweiels":5636,"hwmar":5637,"basedir":5638,"xyd":5639,"dfae":5640,"global":5641,"/.\\./.\\./.\\./.\\.":5642,"?<?=":5643,"jwdty":5644,"feedback":5645,"knt":5646,"rsc":5647,"sdy":5648,"ydh":5649,"Ġty":5650,"Ġmo":5651,"ffffbcb":5652,"simu":5653,"chan":5654,"ceye":5655,"paz":5656,"lav":5657,"opb":5658,"abff":5659,"cach":5660,"beus":5661,"cfcc":5662,"pcv":5663,"yzhc":5664,"dayf":5665,"tong":5666,"zuq":5667,"qah":5668,"fedf":5669,"czre":5670,"=%{(#_":5671,"tool":5672,"ffffbcbfefff":5673,"'||(":5674,"cro":5675,"crea":5676,"card":5677,"crq":5678,"pcam":5679,"wad":5680,"Ġec":5681,"Ġopen":5682,"sig":5683,"clist":5684,"lation":5685,"opper":5686,"ars":5687,"xtt":5688,"functions":5689,"huaweiyal":5690,"hwjer":5691,"honorb":5692,"honorhlk":5693,"../../../../../../../../../../":5694,"grus":5695,"ffffefcdbfda":5696,"localstart":5697,"asso":5698,"../././../././../././../././":5699,"notice":5700,"pbam":5701,"xzzx":5702,"photo":5703,"=$(":5704,"]}":5705,"_&":5706,"eva":5707,"esp":5708,"fang":5709,"group":5710,"lmi":5711,"nmf":5712,"xlink":5713,"Ġms":5714,"Ġdb":5715,"Ġry":5716,"Ġsafe":5717,"Ġdisable":5718,"hosin":5719,"msmn":5720,"bum":5721,"buq":5722,"sample":5723,"beqr":5724,"baog":5725,"echi":5726,"ldn":5727,"zdg":5728,"qgc":5729,"Ġsuhosin":5730,"zhengce":5731,"simulation":5732,"]\"\"}":5733,"fsz":5734,"gth":5735,"hid":5736,"pcb":5737,"sbzi":5738,"wge":5739,"Ġss":5740,"Ġ34":5741,"Ġjq":5742,"Ġ./":5743,"ria":5744,"bdbf":5745,"gua":5746,"gsgg":5747,"trv":5748,"pgg":5749,"sqv":5750,"savecar":5751,"zoneinfo":5752,"Ġtee":5753,"dadui":5754,"pbbm":5755,"yrah":5756,"baogao":5757,"eyz":5758,"npy":5759,"rbr":5760,"wop":5761,"xby":5762,"Ġjg":5763,"Ġqy":5764,"Ġlk":5765,"Ġjj":5766,"Ġly":5767,"dabh":5768,"reus":5769,"seo":5770,"exy":5771,"arba":5772,"lnd":5773,"bbef":5774,"fdce":5775,"lfy":5776,"jyxm":5777,"jybh":5778,"qiu":5779,"srv":5780,"Ġ=\"\")&":5781,"fakeparam":5782,"prstexport":5783,"ffffffafefee":5784,"create":5785,"msmnile":5786,"'\\\"\"":5787,"aos":5788,"cmi":5789,"czz":5790,"dzh":5791,"osi":5792,"pclist":5793,"wzy":5794,"ysgt":5795,"Ġta":5796,"Ġpe":5797,"Ġze":5798,"deff":5799,"teq":5800,"dadc":5801,"seh":5802,"love":5803,"guz":5804,"abr":5805,"sas":5806,"tbt":5807,"Ġwfi":5808,"afcd":5809,"validate":5810,"ffffffdfe":5811,"Ġyg":5812,"partment":5813,"picasso":5814,"yjdc":5815,"]/*_*/":5816,"glljbl":5817,"'\\\"\"`":5818,"=../../":5819,"dpz":5820,"dsq":5821,"dzu":5822,"pry":5823,"qsc":5824,"whi":5825,"zrq":5826,"zxu":5827,"Ġdx":5828,"Ġcf":5829,"Ġjy":5830,"coco":5831,"licai":5832,"acff":5833,"las":5834,"bdfb":5835,"gur":5836,"livepraise":5837,"rtz":5838,"bytes":5839,"qyt":5840,"qgz":5841,"ffffefdd":5842,"rgz":5843,"azas":5844,"edad":5845,"ffffefbfa":5846,"xecu":5847,"drvbinde":5848,"jinronglicai":5849,"[$":5850,"fan":5851,"gyw":5852,"ipadd":5853,"nta":5854,"oge":5855,"sqq":5856,"xge":5857,"Ġli":5858,"Ġkb":5859,"Ġeg":5860,"Ġox":5861,"Ġzw":5862,"police":5863,"useradmin":5864,"shib":5865,"autologin":5866,"ctc":5867,"]=../":5868,"edu":5869,"wfgz":5870,"pdg":5871,"jysfzmhm":5872,"Ġuk":5873,"ncwy":5874,"odpa":5875,"\"\"?><":5876,"/-->'\"\"></":5877,"followlist":5878,"followstatus":5879,"relatetype":5880,"zydjgcmt":5881,"pbcm":5882,"Ġwfioa":5883,"ipaddr":5884,"policebinde":5885,".</":5886,"fup":5887,"jes":5888,"nfu":5889,"pfb":5890,"yfq":5891,"zho":5892,"Ġer":5893,"Ġti":5894,"Ġse":5895,"Ġsp":5896,"Ġmy":5897,"Ġbj":5898,"Ġhw":5899,"Ġ30":5900,"Ġrequest":5901,"tawe":5902,"ffffd":5903,"fffffe":5904,"ffffdf":5905,"tea":5906,"spi":5907,"tud":5908,"tuq":5909,"xtb":5910,"afsi":5911,"gowohu":5912,"yzk":5913,"sqli":5914,"pqv":5915,"zrr":5916,"ffffeffdafff":5917,"eugowohu":5918,"zxyg":5919,"qzqe":5920,"kleeugowohu":5921,"jwdtyyjdc":5922,"Ġwfioakleeugowohu":5923,"cpe":5924,"dro":5925,"fper":5926,"mfunc":5927,"nrs":5928,"ocg":5929,"sbbs":5930,"yad":5931,"zpe":5932,"Ġro":5933,"Ġgn":5934,"Ġme":5935,"Ġra":5936,"Ġstring":5937,"Ġbh":5938,"Ġobject":5939,"Ġcontroller":5940,"\"\">":5941,"ffffdb":5942,"sibm":5943,"dao":5944,"davin":5945,"newfile":5946,"gsu":5947,"])/*_*/":5948,"\"\")\",@":5949,"phs":5950,"xaq":5951,"efdb":5952,"zzf":5953,"rpv":5954,"pzq":5955,"getlivepraise":5956,"qyv":5957,"qyz":5958,"pdr":5959,"]'||(":5960,"zdv":5961,"ffffefcf":5962,"wyl":5963,"aadf":5964,"hwdub":5965,"ashx":5966,"shiban":5967,"ncwywfgz":5968,"davinci":5969,"getlivepraiseimg":5970,"=;":5971,"]||(":5972,"ckeditor":5973,"czgh":5974,"dbu":5975,"pss":5976,"wzs":5977,"yff":5978,"Ġco":5979,"Ġja":5980,"Ġau":5981,"Ġil":5982,"Ġqh":5983,"dede":5984,"fffffac":5985,"cereus":5986,"channeltype":5987,"apz":5988,"sef":5989,"gettv":5990,"zeg":5991,"])?":5992,"conn":5993,"abae":5994,"dxs":5995,"sagit":5996,"mao":5997,"beeb":5998,"flv":5999,"huaweialp":6000,"fcrs":6001,"eoqi":6002,"ffffffefa":6003,"Ġxp":6004,"fffcd":6005,"rdu":6006,"dummy":6007,"redirecturl":6008,"Ġfputs":6009,"woff":6010,"yoai":6011,"xmlschema":6012,"huaweid":6013,"/*_*/(":6014,"extend":6015,"operators":6016,"fontawe":6017,"gettvlivelist":6018,"fontawesome":6019,"]|":6020,"ring":6021,"wbh":6022,"Ġce":6023,"Ġda":6024,"Ġpo":6025,"Ġfa":6026,"Ġlx":6027,"Ġtp":6028,"Ġdh":6029,"defs":6030,"ffffbff":6031,"sic":6032,"chopper":6033,"inket":6034,"trinket":6035,"ctf":6036,"forum":6037,"dxfa":6038,"quz":6039,"Ġwg":6040,"huaweimha":6041,"hwlld":6042,"aotf":6043,"]'/":6044,"]'><":6045,"pft":6046,"sysdummy":6047,"hwbnd":6048,"Ġsysibm":6049,"huaweilya":6050,"]<":6051,"aabc":6052,"aded":6053,"bra":6054,"bsf":6055,"dzy":6056,"dgas":6057,"fxtc":6058,"qbh":6059,"swf":6060,"tang":6061,"wpy":6062,"zsp":6063,"Ġsi":6064,"Ġio":6065,"Ġur":6066,"Ġxi":6067,"Ġrl":6068,"Ġpassword":6069,"Ġgk":6070,"datamg":6071,"seg":6072,"seu":6073,"jat":6074,"gsd":6075,"buc":6076,"(\"\"\"\"\"\"\"\"&":6077,"}}?":6078,"rtree":6079,"bfbd":6080,"bfed":6081,"swiper":6082,"rpb":6083,"ffffffad":6084,"rdpa":6085,"duv":6086,"zpci":6087,"templatefile":6088,"ffffefede":6089,"dimtable":6090,"sfbr":6091,"landgre":6092,"obzb":6093,"zdxzjc":6094,"datamgrtree":6095,"ari":6096,"badd":6097,"fsq":6098,"mrd":6099,"nby":6100,"psh":6101,"qtp":6102,"yin":6103,"zrt":6104,"Ġva":6105,"Ġho":6106,"Ġdo":6107,"Ġea":6108,"Ġow":6109,"Ġzv":6110,"ffany":6111,"nek":6112,"now":6113,"ceq":6114,"dag":6115,"tiffany":6116,"apu":6117,"getpwd":6118,"pah":6119,"paam":6120,"fail":6121,"bdw":6122,"bdde":6123,"mbo":6124,"jso":6125,"://\\":6126,"fwbz":6127,"Ġih":6128,"baef":6129,"preview":6130,"ccfa":6131,"fet":6132,"febu":6133,"cbed":6134,"bfzb":6135,"aeff":6136,"sgq":6137,"ffffefdfa":6138,"rgq":6139,"attach":6140,"filled":6141,"hwbln":6142,"options":6143,"ffffffdfaedb":6144,"analyses":6145,"worldfilled":6146,"withlove":6147,"fffffacfffcd":6148,"worldfilledwithlove":6149,"]^":6150,"bmh":6151,"dns":6152,"nqh":6153,"pdb":6154,"pdy":6155,"pbf":6156,"ppy":6157,"qre":6158,"sfdc":6159,"ydy":6160,"Ġtu":6161,"Ġph":6162,"Ġaa":6163,"Ġev":6164,"Ġvy":6165,"Ġfq":6166,"Ġga":6167,"Ġng":6168,"Ġbx":6169,"\"\"?>":6170,"stan":6171,"chou":6172,"accd":6173,"ers":6174,"orbi":6175,"tuz":6176,"bdcf":6177,"vewkm":6178,"abcf":6179,"phpe":6180,"icn":6181,"press":6182,"=''&":6183,"eoht":6184,"pcr":6185,"qyfq":6186,"qqf":6187,"lub":6188,"=<!--":6189,"landgrey":6190,"!':":6191,"!';":6192,"abdc":6193,"cau":6194,"oby":6195,"pra":6196,"rcd":6197,"wde":6198,"yes":6199,"Ġke":6200,"Ġln":6201,"Ġnu":6202,"Ġbb":6203,"Ġtb":6204,"Ġbi":6205,"Ġvalue":6206,"\",$_":6207,"sti":6208,"stpa":6209,"sia":6210,"={'":6211,"adcb":6212,"fir":6213,"dbuser":6214,"dbef":6215,"dbpw":6216,"abh":6217,"ptv":6218,"suz":6219,"ebfe":6220,"cag":6221,"orgc":6222,"phpcode":6223,"bede":6224,"quh":6225,"quu":6226,"hwtrt":6227,"'])}}&":6228,"qyd":6229,"ffffffdda":6230,"rsm":6231,"zft":6232,"))--&":6233,"ffffefffb":6234,"huaweiclt":6235,"touzi":6236,"xefh":6237,"])?'":6238,"phpeval":6239,"!':'":6240,"&_[":6241,"=../../../":6242,"dtrb":6243,"luc":6244,"ngd":6245,"plate":6246,"tpl":6247,"xfb":6248,"xue":6249,"xaw":6250,"xox":6251,"xfq":6252,"ysq":6253,"Ġge":6254,"Ġri":6255,"Ġfb":6256,"Ġxa":6257,"Ġcn":6258,"Ġca":6259,"Ġcb":6260,"Ġbc":6261,"Ġzy":6262,"ffde":6263,"fffc":6264,"ned":6265,"coo":6266,"leditor":6267,"lotus":6268,"gug":6269,"trace":6270,"xtg":6271,"strap":6272,"mouse":6273,"vod":6274,"getmyfeedback":6275,"jgzn":6276,"bao":6277,"rtcz":6278,"wai":6279,"ccu":6280,"huaweieml":6281,"zzv":6282,"rpq":6283,"rqg":6284,"rcq":6285,"zyqa":6286,"tempplate":6287,"ztg":6288,"wgtr":6289,"bootstrap":6290,"receivesms":6291,"internal":6292,"=../../../../../../":6293,"nbas":6294,"admini":6295,"getmyfeedbackhistory":6296,"&{":6297,"(/":6298,"ayy":6299,"bos":6300,"bxy":6301,"cqh":6302,"espv":6303,"frce":6304,"jec":6305,"lac":6306,"nch":6307,"pconnect":6308,"rpt":6309,"ybe":6310,"ypy":6311,"Ġvi":6312,"Ġap":6313,"Ġpa":6314,"Ġgs":6315,"Ġeo":6316,"Ġju":6317,"Ġzn":6318,"Ġzo":6319,"ida":6320,"noua":6321,"acde":6322,"getdatasource":6323,"zee":6324,"zeh":6325,"sheng":6326,"fbaa":6327,"bua":6328,"buh":6329,"dbname":6330,"dbcharset":6331,"ebg":6332,"stat":6333,"beaa":6334,"rtg":6335,"qfh":6336,"zhan":6337,"pqg":6338,"qgq":6339,"ncgz":6340,"tablepre":6341,"deefb":6342,"effs":6343,"queryvehtempplate":6344,"zhibohui":6345,"/\\/":6346,"bzh":6347,"csy":6348,"csc":6349,"czy":6350,"kin":6351,"lid":6352,"mdy":6353,"rad":6354,"wbr":6355,"wyy":6356,"wgah":6357,"xdh":6358,"yao":6359,"ypz":6360,"yag":6361,"zqy":6362,"Ġab":6363,"Ġso":6364,"Ġ]\",":6365,"Ġlf":6366,"Ġcurrent":6367,"Ġmu":6368,"Ġgh":6369,"Ġnk":6370,"Ġjo":6371,"nea":6372,"ness":6373,"des":6374,"acae":6375,"rebg":6376,"tyr":6377,"opg":6378,"fat":6379,"adgt":6380,"xai":6381,"Ġao":6382,"Ġ\"\"_":6383,"Ġ'_":6384,"ffffffeda":6385,"ffffffcda":6386,"ffffffbde":6387,"zhil":6388,"zug":6389,"qiy":6390,"ffffefdfb":6391,"zah":6392,"ffffefff":6393,"qrv":6394,"eqzg":6395,"ffffefbfb":6396,"fffffffdb":6397,"dapter":6398,"splus":6399,";</":6400,"cdh":6401,"fxy":6402,"nge":6403,"nph":6404,"qra":6405,"rdy":6406,"rrq":6407,"tfw":6408,"wyg":6409,"xry":6410,"xbhg":6411,"yos":6412,"ysc":6413,"yca":6414,"zst":6415,"zhu":6416,"Ġdf":6417,"Ġpz":6418,"fffb":6419,"idu":6420,"anli":6421,"del":6422,"ffffdfb":6423,"fffffeff":6424,"enda":6425,"onmouse":6426,"bddf":6427,"gub":6428,"tra":6429,"abyg":6430,"cloud":6431,"bbea":6432,"Ġwl":6433,"Ġwpr":6434,"fdda":6435,"zzdr":6436,"bcfa":6437,"zmhd":6438,"qyc":6439,"ffffffc":6440,"Ġxlink":6441,"Ġehr":6442,"Ġdur":6443,"rfv":6444,"yeyg":6445,"Ġglo":6446,"zcr":6447,"zfs":6448,"Ġ};&":6449,"czsc":6450,")='&__":6451,"ffffefcdecca":6452,"projectid":6453,")=\"\"&__":6454,"ftbq":6455,"strator":6456,"administrator":6457,"getdatasourceconfig":6458,"ath":6459,"fzqz":6460,"ndgt":6461,"ont":6462,"pfq":6463,"qar":6464,"sup":6465,"xsi":6466,"xph":6467,"};&":6468,"Ġ)":6469,"Ġgo":6470,"Ġyz":6471,"anyid":6472,"tav":6473,"need":6474,"defc":6475,"fffffc":6476,"totime":6477,"dataanaly":6478,"see":6479,"exu":6480,"spcd":6481,"arg":6482,"diy":6483,"abfa":6484,"album":6485,"netf":6486,"edcd":6487,"boye":6488,"was":6489,"rmx":6490,"cbn":6491,"rpd":6492,"afed":6493,"esg":6494,"fromtime":6495,"')))":6496,"())};&":6497,"ffffffbef":6498,"rdgb":6499,"Ġhq":6500,"zgv":6501,"companyid":6502,"cfba":6503,"yrg":6504,"zfz":6505,"sbs":6506,"substrsql":6507,"qrh":6508,"xoss":6509,"=*/-->'\"\"></":6510,"Ġ@@":6511,"seadapter":6512,"dfefbe":6513,"cwjgdajb":6514,"jingji":6515,"rtyt":6516,"operatorid":6517,"aciei":6518,"fffffadfefbe":6519,"fyug":6520,"deliver":6521,"personalmessage":6522,"dataanalyseadapter":6523,"%)":6524,"%(\"\"[":6525,"&:":6526,":</":6527,"@\"\"\",":6528,"fru":6529,"ming":6530,"meric":6531,"ojt":6532,"pma":6533,"qpy":6534,"rzq":6535,"xff":6536,"xor":6537,"xqq":6538,"zsq":6539,"Ġct":6540,"Ġcd":6541,"Ġzx":6542,"Ġexecution":6543,"Ġstack":6544,"depa":6545,"\"\":\"\"*":6546,"\"\"\",\"\"@":6547,"zez":6548,"loba":6549,"addb":6550,"pher":6551,"cdsi":6552,"tbc":6553,"bag":6554,"wxpe":6555,"|<%":6556,"huaweijef":6557,"fcce":6558,"doit":6559,"psd":6560,"dcv":6561,"pgv":6562,"qyu":6563,"ffffffeff":6564,"qdt":6565,"jiang":6566,"qhr":6567,"Ġorigin":6568,"qoac":6569,"fsrq":6570,"wppi":6571,"xmlrpc":6572,"shelper":6573,"cxzu":6574,"decry":6575,"]')--":6576,"Ġinput":6577,"nihao":6578,"]\"\")%)":6579,"`&('#_":6580,"handled":6581,"notify":6582,"Ġunhandled":6583,"Ġcipher":6584,"Ġwunu":6585,"wtei":6586,"Ġaeshelper":6587,"Ġduring":6588,"]\"\")%)\"\"\",\"\"@":6589,"--[":6590,"/\\":6591,"adeb":6592,"dpy":6593,"mra":6594,"nfq":6595,"qge":6596,"qdaf":6597,"rne":6598,"wty":6599,"wau":6600,"xfy":6601,"xwdt":6602,"zby":6603,"Ġne":6604,"Ġrk":6605,"Ġqo":6606,"Ġqa":6607,"dele":6608,"sichou":6609,"das":6610,"acfa":6611,"testring":6612,"pae":6613,"ssyv":6614,"ecfe":6615,"fig":6616,"dbhost":6617,"xag":6618,"xav":6619,"mote":6620,"clock":6621,"]=$":6622,"searchdate":6623,"(&('#_":6624,"Ġit":6625,"rtzc":6626,"quq":6627,"ufang":6628,"zzfr":6629,"jwgl":6630,"mobiledetail":6631,"rya":6632,"pcz":6633,"qya":6634,"pyxis":6635,"ffffffdfb":6636,"bgt":6637,"Ġeq":6638,"sqlin":6639,"Ġgq":6640,"xcsq":6641,"bkk":6642,":\\\"\"_":6643,"dbdb":6644,"ffffefbff":6645,"=../../../../../":6646,"\\\"\";}}\"\"":6647,"widgetconfig":6648,"routestring":6649,"cached":6650,"exynos":6651,"ffffffbefdfb":6652,"sichouzhil":6653,"/')":6654,"befd":6655,"dll":6656,"fdy":6657,"nbtf":6658,"obgf":6659,"psc":6660,"qrt":6661,"wby":6662,"xpy":6663,"zqq":6664,"Ġch":6665,"Ġus":6666,"Ġzm":6667,"Ġhi":6668,"Ġvh":6669,"ffn":6670,"nor":6671,"acfb":6672,"fao":6673,"namecode":6674,"gsv":6675,"cdfb":6676,"beff":6677,"fefb":6678,"|<#":6679,"plain":6680,"doub":6681,"bcda":6682,"bfef":6683,"pzg":6684,"pdt":6685,"rqe":6686,"qfr":6687,"mub":6688,"qtv":6689,"cfbe":6690,"dgye":6691,"qat":6692,"ffffefbdb":6693,"Ġkh":6694,"Ġlr":6695,"zsb":6696,"sft":6697,"oede":6698,"aqm":6699,"/?_":6700,"]))</":6701,"valuecode":6702,":\\/\\/":6703,"febb":6704,"badb":6705,"hwine":6706,"ffffffddbecb":6707,"Ġehrus":6708,"Ġglobal":6709,"&('#_":6710,"aor":6711,"bss":6712,"bzqz":6713,"fph":6714,"ktu":6715,"ogh":6716,"pge":6717,"qeb":6718,"rdh":6719,"wto":6720,"war":6721,"wru":6722,"zfq":6723,"Ġff":6724,"Ġlo":6725,"Ġeb":6726,"Ġrm":6727,"Ġbr":6728,"Ġbf":6729,"Ġfm":6730,"Ġzh":6731,"Ġtl":6732,"Ġqk":6733,"ffce":6734,"ffeb":6735,"taz":6736,"dep":6737,"dev":6738,"acca":6739,"fah":6740,"bdfe":6741,"guf":6742,"ptc":6743,"sai":6744,"bbba":6745,"xxe":6746,"wxbc":6747,"fdfa":6748,"invokefunction":6749,"')().":6750,"bcbb":6751,"sqct":6752,"rdt":6753,"rdce":6754,"Ġhk":6755,"rbze":6756,"qdr":6757,"gdt":6758,"htmucapformsresource":6759,"wysa":6760,"pbv":6761,"kou":6762,"ctrq":6763,"ffffefedbdca":6764,"ffffefcffcfb":6765,"/{":6766,"]__[":6767,"`?":6768,"aty":6769,"asz":6770,"afee":6771,"bge":6772,"bzy":6773,"cze":6774,"fei":6775,"gys":6776,"kon":6777,"nse":6778,"zsg":6779,"Ġfc":6780,"Ġjn":6781,"Ġbt":6782,"Ġpu":6783,"Ġcv":6784,"Ġzc":6785,"nei":6786,"dedb":6787,"dau":6788,"eri":6789,"gethistory":6790,"ops":6791,"nao":6792,"ture":6793,"bdce":6794,"reak":6795,"suo":6796,"edfa":6797,"tpd":6798,"eweb":6799,"ddt":6800,"baed":6801,"aace":6802,"huaweistk":6803,"]\"\"><":6804,"hwstf":6805,"psq":6806,"ffffffaff":6807,"ffffffcff":6808,"yzcg":6809,"imagefield":6810,"zhe":6811,"qtd":6812,"]'&":6813,"zcq":6814,"xuh":6815,"Ġfv":6816,"\\\"\"\",\\\"\"":6817,"cyrc":6818,"bfad":6819,"engxian":6820,"]\"\")--":6821,"guoji":6822,"prsb":6823,"bottom":6824,"gethistorylist":6825,"azh":6826,"aarq":6827,"bln":6828,"cyu":6829,"dlg":6830,"fge":6831,"isie":6832,"mhu":6833,"nxt":6834,"nsz":6835,"oau":6836,"qaf":6837,"qsz":6838,"rra":6839,"zge":6840,"ztb":6841,"Ġ}&":6842,"Ġhtml":6843,"Ġba":6844,"Ġqf":6845,"Ġbl":6846,"Ġform":6847,"Ġzu":6848,"Ġza":6849,"Ġnx":6850,"tau":6851,"ceh":6852,"lie":6853,"indi":6854,"ecdb":6855,"shb":6856,"trg":6857,"ctb":6858,"abda":6859,"dxzt":6860,"sae":6861,"bbec":6862,"basic":6863,"feeb":6864,"huaweipct":6865,"=\"\";":6866,"hww":6867,"aocz":6868,"afdb":6869,"fuq":6870,"yzra":6871,"sqleditor":6872,"zqi":6873,"disposi":6874,"Ġmv":6875,"zrh":6876,"zcz":6877,"honora":6878,"qodr":6879,"prh":6880,"ffffefdfe":6881,"nxdb":6882,"rvj":6883,"ppp":6884,"ffffefafa":6885,"downapp":6886,"ffffefeda":6887,"bcbc":6888,"setup":6889,"Ġ/*&":6890,"disposition":6891,"afdf":6892,"bsh":6893,"bpy":6894,"bqq":6895,"cye":6896,"ore":6897,"oag":6898,"odg":6899,"pdbe":6900,"sans":6901,"uap":6902,"wsy":6903,"ybh":6904,"zan":6905,"zdb":6906,"zbc":6907,"Ġgu":6908,"Ġbu":6909,"Ġfl":6910,"Ġei":6911,"Ġlt":6912,"Ġuf":6913,"Ġdm":6914,"Ġ{'":6915,"Ġld":6916,"Ġcur":6917,"Ġrb":6918,"ffef":6919,"ffbf":6920,"tat":6921,"noy":6922,"acdc":6923,"Ġ[<!":6924,"lei":6925,"navy":6926,"fas":6927,"sha":6928,"bur":6929,"busi":6930,"ctq":6931,"sui":6932,"jsb":6933,"logout":6934,"aabd":6935,"ciie":6936,"fece":6937,"closure":6938,"Ġ--[":6939,"dcfa":6940,"dfu":6941,"cul":6942,"wedadu":6943,"loadstruct":6944,"pdv":6945,"pdru":6946,"Ġxo":6947,"linejoin":6948,"qdv":6949,"jiufang":6950,"rsrv":6951,"Ġvq":6952,"wofs":6953,"hblah":6954,"defcf":6955,"Ġdepartment":6956,"ffffefedeefb":6957,"blahblah":6958,"soapenv":6959,"\\../\\../\\../\\../":6960,"Ġsales":6961,"begininvokeaction":6962,"wddm":6963,"needloadstruct":6964,"aecd":6965,"dors":6966,"fxa":6967,"hpy":6968,"isin":6969,"lun":6970,"nbf":6971,"oefc":6972,"qss":6973,"qbg":6974,"qcloud":6975,"sry":6976,"wpt":6977,"yeg":6978,"yxg":6979,"zry":6980,"Ġut":6981,"Ġgi":6982,"Ġpt":6983,"Ġsun":6984,"Ġqu":6985,"Ġvc":6986,"Ġqg":6987,"daec":6988,"tica":6989,"apq":6990,"tuv":6991,"])}}?":6992,"tru":6993,"buu":6994,"sag":6995,"maro":6996,"dhg":6997,"Ġivt":6998,"beec":6999,"beef":7000,"previo":7001,"webfonts":7002,"ryfu":7003,"pzdd":7004,"zmt":7005,"])||'":7006,"loadsearch":7007,"puu":7008,"qqc":7009,"sqh":7010,"zqfa":7011,"mui":7012,"Ġcg":7013,"pqhe":7014,"Ġok":7015,"cludeprevio":7016,"dgts":7017,"qcr":7018,"pian":7019,"xud":7020,"bqgd":7021,"yfga":7022,"=*[":7023,"dpac":7024,"modules":7025,"interval":7026,"resolution":7027,"sbya":7028,"../.../.././../.../.././../.../.././../.../.././../.../.././../.../.././":7029,"xpet":7030,"xdts":7031,"xoxo":7032,"\"\":\"\"*\"\"\",\"\"":7033,"ffffefbdbfff":7034,"individ":7035,"isincludeprevio":7036,"isincludeprevious":7037,">_":7038,"aefd":7039,"cpt":7040,"cqq":7041,"ctuu":7042,"esz":7043,"gkb":7044,"hyz":7045,"qfb":7046,"qeg":7047,"rzg":7048,"rrh":7049,"xmb":7050,"ypf":7051,"zation":7052,"zao":7053,"Ġfo":7054,"Ġxt":7055,"Ġfe":7056,"Ġcu":7057,"Ġtc":7058,"ffz":7059,"ffffbe":7060,"stic":7061,"chat":7062,"\"\":\"\"\"\"\",\"\"":7063,"acdb":7064,"tocol":7065,"seih":7066,"ffffffffbfcb":7067,"spu":7068,"tua":7069,"tug":7070,"adfb":7071,"gsg":7072,"aum":7073,"msz":7074,"thq":7075,"fbyu":7076,"bud":7077,"dbyf":7078,"phq":7079,"mbda":7080,"logback":7081,"bbbe":7082,"prompt":7083,"protocol":7084,"cancel":7085,"babd":7086,"aaeb":7087,"winiframe":7088,"huaweipar":7089,"huaweibla":7090,"fcca":7091,"eezz":7092,"hwpot":7093,"showiniframe":7094,"dfde":7095,"pzf":7096,"oxzz":7097,"anonymou":7098,"rfq":7099,"Ġhj":7100,"Ġhel":7101,"Ġyw":7102,"smar":7103,"qcar":7104,"ztv":7105,"Ġ79":7106,"rui":7107,"ydv":7108,"Ġtg":7109,"srz":7110,"qeh":7111,"wpke":7112,"oozr":7113,"uaap":7114,"ffffefada":7115,"products":7116,"treetemp":7117,"sortby":7118,"anonymousec":7119,":;":7120,"`'&":7121,"bty":7122,"beca":7123,"epz":7124,"gao":7125,"losure":7126,"mzk":7127,"qfq":7128,"qeai":7129,"rbh":7130,"uri":7131,"uali":7132,"xdq":7133,"yec":7134,"ytp":7135,"Ġhu":7136,"Ġfd":7137,"Ġdc":7138,"Ġgene":7139,"Ġqc":7140,"Ġzj":7141,"Ġgeneral":7142,"neg":7143,"dai":7144,"lito":7145,"tome":7146,"pex":7147,"exchange":7148,"opq":7149,"tuh":7150,"lov":7151,"adbc":7152,"under":7153,"gia":7154,"mono":7155,"loginchk":7156,"dyda":7157,"Ġsv":7158,"beae":7159,"bah":7160,"baae":7161,"\"\"}]":7162,"length":7163,"wdinfo":7164,"cfh":7165,"cfde":7166,"Ġwto":7167,"fdfb":7168,"bjw":7169,"bcad":7170,"bfu":7171,"pgq":7172,"aefa":7173,"qyb":7174,"puz":7175,"Ġhl":7176,"zqa":7177,"qdg":7178,"zrg":7179,"]'\"\"}]":7180,"zcg":7181,"getallpraise":7182,"Ġvg":7183,"Ġjx":7184,"Ġtv":7185,"oeabr":7186,"rvl":7187,"bcee":7188,"feba":7189,"facd":7190,".././.././.././.././.././.././.././.././.././.././.././.././.././.././.././.././":7191,"zquz":7192,"disclosure":7193,"Ġwunuaap":7194,"runscript":7195,"]\"\"}\",{\"\"":7196,"white":7197,"attachment":7198,"business":7199,"individuali":7200,"getallpraisetome":7201,"individualization":7202,"=../.../.././../.../.././../.../.././../.../.././../.../.././../.../.././":7203,"?[\"\"":7204,"azz":7205,"abdf":7206,"abdd":7207,"bcfe":7208,"eqh":7209,"fsc":7210,"fbdc":7211,"ndy":7212,"pgus":7213,"qzy":7214,"wqq":7215,"ycs":7216,"zsz":7217,"zdu":7218,"Ġsize":7219,"Ġword":7220,"Ġki":7221,"Ġtext":7222,"Ġnc":7223,"Ġnone":7224,"Ġface":7225,"Ġbody":7226,"Ġblack":7227,"Ġapplication":7228,"Ġ\\\"\">":7229,"Ġbold":7230,"Ġconsole":7231,"\",(":7232,"defi":7233,"silk":7234,"\"\":\"\"<!":7235,"accw":7236,"sei":7237,"pes":7238,"pewyl":7239,"pewpke":7240,"Ġ[[":7241,"serif":7242,"verflow":7243,"spsh":7244,"bdfd":7245,"guq":7246,"vetica":7247,"div":7248,"htc":7249,"aua":7250,"shjd":7251,"xtv":7252,"ioxf":7253,"xae":7254,"suh":7255,"nubia":7256,"caz":7257,"logo":7258,"dddd":7259,"efcb":7260,"efdxs":7261,"Ġsans":7262,"viewport":7263,"aafb":7264,"feq":7265,"dofe":7266,"hwfrd":7267,"bfda":7268,"rpio":7269,"xiu":7270,"znl":7271,"yyba":7272,"Ġwhite":7273,"zhang":7274,"qts":7275,"Ġmr":7276,"duk":7277,"Ġgray":7278,"Ġoverflow":7279,"aggre":7280,"zdz":7281,"qgf":7282,"Ġlg":7283,"ffffeffff":7284,"xeh":7285,"Ġtq":7286,"Ġbreak":7287,"comments":7288,"expanda":7289,"nbfc":7290,"huaweioxf":7291,"theme":7292,"uyeb":7293,"cffc":7294,"items":7295,"consolas":7296,"chiron":7297,"Ġlambda":7298,"silver":7299,"scorpio":7300,"invokeactionmethod":7301,"Ġakpewyl":7302,"Ġwkseih":7303,"Ġcontrollerbase":7304,"arial":7305,"lucida":7306,"Ġcursor":7307,"Ġsunsans":7308,"maroon":7309,"Ġhelvetica":7310,"Ġgeneva":7311,"underline":7312,"monospace":7313,"pewpkeeus":7314,"aggrega":7315,"expandable":7316,"Ġwkseihpewpkeeus":7317,"'>":7318,"aedd":7319,"esi":7320,"fpy":7321,"fyg":7322,"hrc":7323,"ico":7324,"ish":7325,"nbg":7326,"ofh":7327,"srq":7328,"tan":7329,"xbz":7330,"yue":7331,"yfg":7332,"|(":7333,"Ġve":7334,"Ġvo":7335,"Ġee":7336,"Ġrd":7337,"ffcc":7338,"ffffbf":7339,"acfe":7340,"acdf":7341,"oni":7342,"rec":7343,"reh":7344,"newsid":7345,"zei":7346,"ara":7347,"ark":7348,"dian":7349,"upi":7350,"shv":7351,"xtz":7352,"jsj":7353,"${(#_":7354,"stati":7355,"mag":7356,"quan":7357,"Ġwq":7358,"wxk":7359,"huaweiwlz":7360,");</":7361,"fccf":7362,"zzsho":7363,"Ġag":7364,"Ġaq":7365,"aeg":7366,"pure":7367,"ffffffade":7368,"ffffffbdff":7369,"rqc":7370,"Ġej":7371,"kie":7372,"rbq":7373,"owkp":7374,"agg":7375,"yrv":7376,"zfv":7377,"Ġlq":7378,"xet":7379,"Ġtk":7380,"sxpq":7381,"wkn":7382,"oohr":7383,"defef":7384,"dfav":7385,"ofid":7386,"refresh":7387,"exportforms":7388,"eacd":7389,"nzeb":7390,"uyebanner":7391,"zzshouyebanner":7392,"$($":7393,"$(&('#_":7394,"=.././.././.././.././.././.././.././.././.././.././.././.././.././.././.././.././":7395,"]||":7396,"bded":7397,"epy":7398,"fry":7399,"fpua":7400,"han":7401,"hxg":7402,"mal":7403,"odh":7404,"ozu":7405,"pandor":7406,"qcu":7407,"qxy":7408,"rge":7409,"wdh":7410,"wry":7411,"xsd":7412,"yar":7413,"zguv":7414,"Ġic":7415,"Ġpl":7416,"Ġdd":7417,"Ġcc":7418,"Ġrp":7419,"Ġku":7420,"ffu":7421,"nopic":7422,"acdd":7423,"accf":7424,"oname":7425,"pew":7426,"ley":7427,"rili":7428,"spq":7429,"ecca":7430,"bdu":7431,"adfa":7432,"gut":7433,"sets":7434,"foradd":7435,"iso":7436,"long":7437,"edcf":7438,"caoy":7439,"prouse":7440,"cfec":7441,"feda":7442,"huaweiana":7443,"huaweiglk":7444,"huaweibkl":7445,"brp":7446,"models":7447,"bcce":7448,"szrd":7449,"eszz":7450,"front":7451,"pdq":7452,"ffffffbf":7453,"Ġha":7454,"Ġhg":7455,"zgc":7456,"muaaq":7457,"cityforadd":7458,"jyta":7459,"gds":7460,"]'--":7461,"Ġrn":7462,"sgf":7463,"zdq":7464,"qgt":7465,"qgv":7466,"Ġuw":7467,"proname":7468,"qcg":7469,"zsd":7470,"yqb":7471,"Ġnq":7472,"qet":7473,"you":7474,"pbs":7475,"cddf":7476,"]\"\"))--":7477,"xzcu":7478,"ginkgo":7479,"$$$":7480,"]'))--":7481,"huaweif":7482,"gwyzk":7483,"caba":7484,"slide":7485,"shichang":7486,"../..//../..//../..//../..//../..//../..//../..//../..//":7487,"Ġxxe":7488,"xiancheng":7489,"ffffffefefda":7490,"xzqb":7491,"oyza":7492,"xghh":7493,"sfqe":7494,"aggregates":7495,"pandora":7496,"muaaqowkp":7497,"</[":7498,"`)--":7499,"ayu":7500,"bzq":7501,"blfy":7502,"edi":7503,"fth":7504,"fuck":7505,"otb":7506,"odc":7507,"qor":7508,"rau":7509,"sjo":7510,"zsy":7511,"Ġht":7512,"Ġes":7513,"Ġzi":7514,"idea":7515,"deda":7516,"deeb":7517,"ffffbb":7518,"chz":7519,"cez":7520,"daae":7521,"liao":7522,"acab":7523,"tisan":7524,"]--[":7525,"apd":7526,"getsys":7527,"information":7528,"orfu":7529,"natri":7530,"ecda":7531,"lot":7532,"adca":7533,"gue":7534,"execsync":7535,"tinym":7536,"fbfe":7537,"rceew":7538,"ctg":7539,"\"\")().":7540,"abt":7541,"abed":7542,"abfd":7543,"mbv":7544,"nus":7545,"saq":7546,"soqv":7547,"bbaf":7548,"efeb":7549,"efcd":7550,"efqd":7551,"Ġsg":7552,"Ġsk":7553,"cdce":7554,"Ġik":7555,"Ġiu":7556,"topicsta":7557,"bafd":7558,"bahg":7559,"byre":7560,"quc":7561,"brs":7562,"player":7563,"xmjz":7564,"bcba":7565,"bfsh":7566,"ryrf":7567,"pgac":7568,"xiay":7569,"qyg":7570,"pui":7571,"Ġel":7572,"Ġdg":7573,"rdz":7574,"rbsr":7575,"Ġmq":7576,"gdq":7577,"fsgs":7578,"qai":7579,"xug":7580,"Ġfk":7581,"atsd":7582,"dffe":7583,"oeti":7584,"cxpg":7585,"fhd":7586,"otfz":7587,"aebb":7588,"cwjgdajgdm":7589,"pinqihuo":7590,"................................................................................................................................................................................................................................................................................................................................................................................................................................................................................................................................................................................................................................................................................................................................................................................................................................................................................................................................................................................................................................................................................................................................................................................................................................................................................................................................................................................................................................................................................................................................................................................................................................................................................................................................................................................................................................................................................................................................................................................................................................................................................................................................":7591,"shangpinqihuo":7592,"chattopicsta":7593,"smartisan":7594,"itemsparam":7595,"getsysnotice":7596,"natrium":7597,"tinymce":7598,"&'\\\"\"`":7599,"=../..//../..//../..//../..//../..//../..//../..//../..//":7600,"_;":7601,"aeee":7602,"btp":7603,"bccb":7604,"csq":7605,"dor":7606,"esc":7607,"fyz":7608,"gong":7609,"kow":7610,"lgx":7611,"ncf":7612,"npq":7613,"pth":7614,"rxy":7615,"wsz":7616,"xos":7617,"xra":7618,"xyy":7619,"xfg":7620,"zbz":7621,"Ġ`":7622,"Ġbo":7623,"Ġrt":7624,"Ġpc":7625,"ffea":7626,"taa":7627,"tac":7628,"deea":7629,"ceu":7630,"dah":7631,"via":7632,"channelid":7633,"]-(":7634,"sev":7635,"pev":7636,"pesh":7637,"inan":7638,"exin":7639,"exhu":7640,"bdba":7641,"guc":7642,"buj":7643,"dby":7644,"xts":7645,"\"\")_;":7646,"abef":7647,"abbf":7648,"suq":7649,"cah":7650,"bbpd":7651,"dygd":7652,"efce":7653,"xxgi":7654,"bead":7655,"bags":7656,"ccg":7657,"ccr":7658,"feg":7659,"huaweijkm":7660,"fcfa":7661,"bjo":7662,"charac":7663,"cbch":7664,"')]=":7665,"bcv":7666,"bfcc":7667,"dfv":7668,"><!--":7669,"pytd":7670,"rcr":7671,"zgq":7672,"tcg":7673,"Ġyu":7674,"kua":7675,"qfz":7676,"Ġgl":7677,"drh":7678,"Ġoi":7679,"Ġvw":7680,"ogyh":7681,"Ġbk":7682,"Ġbq":7683,"yirili":7684,"adab":7685,"odrf":7686,"wsdc":7687,"xdzz":7688,"acea":7689,"bffa":7690,"bffb":7691,"handle":7692,");?>=":7693,"=../../../../../../../../../../../../":7694,"badc":7695,"jiaoyirili":7696,"scope":7697,"ffffffcfaedf":7698,"realme":7699,"nxyh":7700,"laccnfa":7701,"treetempurl":7702,"xiaying":7703,";(":7704,"bsq":7705,"bccc":7706,"dpdr":7707,"fxg":7708,"fdef":7709,"nan":7710,"ose":7711,"odb":7712,"qdbe":7713,"sde":7714,"wtb":7715,"wcg":7716,"yge":7717,"zpy":7718,"ztaf":7719,"Ġ33":7720,"Ġqd":7721,"Ġgd":7722,"Ġzl":7723,"\"\"}}":7724,"idi":7725,"note":7726,"stt":7727,"tik":7728,"rei":7729,"osqa":7730,"\",#_":7731,"zef":7732,"poyr":7733,"eccs":7734,"faac":7735,"ads":7736,"jak":7737,"]/*[":7738,"trz":7739,"Ġ28":7740,"abaf":7741,"getmycollection":7742,"Ġie":7743,"Ġiw":7744,"bei":7745,"bytc":7746,"aaee":7747,"Ġww":7748,"huaweivce":7749,"huaweihwi":7750,"cbg":7751,"finder":7752,"webfont":7753,"afce":7754,"../../../../../../":7755,"ffffffafb":7756,"Ġxq":7757,"Ġxv":7758,"rck":7759,"]![":7760,"yet":7761,"]'`":7762,"rsb":7763,"Ġgg":7764,"Ġux":7765,"Ġft":7766,"Ġnh":7767,"Ġni":7768,"Ġnj":7769,"Ġbw":7770,"cgcv":7771,"/*[":7772,"expan":7773,"pics":7774,"dcae":7775,"ppru":7776,"third":7777,"..\\..\\..\\..\\..\\..\\..\\..\\":7778,"fpat":7779,"ffffefafffea":7780,"silkroad":7781,"%\"\"":7782,"]@":7783,"bte":7784,"cph":7785,"dvc":7786,"eyg":7787,"hcg":7788,"mxw":7789,"nzy":7790,"oec":7791,"oyy":7792,"qec":7793,"wed":7794,"xsz":7795,"xqfg":7796,"yty":7797,"yang":7798,"zdh":7799,"zfu":7800,"zauu":7801,"Ġac":7802,"Ġll":7803,"Ġqt":7804,"Ġzf":7805,"nee":7806,"ffffdd":7807,"ffffbfb":7808,"noh":7809,"liu":7810,"tix":7811,"rev":7812,"appname":7813,"paq":7814,"pagedir":7815,"tub":7816,"faeb":7817,"bdfc":7818,"dig":7819,"shf":7820,"rceok":7821,"abfb":7822,"cnm":7823,"cao":7824,"cafb":7825,"bbcd":7826,"bbfe":7827,"propag":7828,"stapp":7829,"https":7830,"bodt":7831,"efca":7832,"Ġsl":7833,"Ġsw":7834,"qud":7835,"aaed":7836,"eeet":7837,"btqu":7838,"ryff":7839,"rpi":7840,"babe":7841,"cui":7842,"yzae":7843,"qqdt":7844,"Ġeh":7845,"})&":7846,"Ġhx":7847,"zgg":7848,"zgr":7849,"zhz":7850,"zcbb":7851,"qgr":7852,"zws":7853,"joh":7854,"prz":7855,"fsr":7856,"Ġvn":7857,"ffffefdde":7858,"Ġjv":7859,"Ġqm":7860,"Ġtn":7861,"pky":7862,"lrv":7863,"nsroot":7864,"nzbg":7865,"otsb":7866,"booklive":7867,"ffffefadefcf":7868,"ffffeffdfd":7869,"fcfd":7870,"aadb":7871,"bcbf":7872,"zhengzhi":7873,"ffffefcfadfb":7874,"lavender":7875,"ewebeditor":7876,"expanded":7877,"propaganda":7878,"?-[":7879,"axy":7880,"bedd":7881,"dza":7882,"lra":7883,"nrce":7884,"nry":7885,"ndt":7886,"qteu":7887,"qbuv":7888,"qrdg":7889,"rrfh":7890,"sbh":7891,"wec":7892,"xba":7893,"xcur":7894,"yss":7895,"yea":7896,"zdd":7897,"zyy":7898,"Ġ39":7899,"Ġuc":7900,"Ġmethod":7901,"Ġpd":7902,"ffdf":7903,"fffffad":7904,"cobv":7905,"ceed":7906,"erh":7907,"onk":7908,"online":7909,"route":7910,"apg":7911,"apr":7912,"seb":7913,"lag":7914,"label":7915,"ortom":7916,"ecfb":7917,"aru":7918,"bdcc":7919,"gsa":7920,"msh":7921,"shq":7922,"shao":7923,"]))\",":7924,"trq":7925,"rceen":7926,"rcevy":7927,"ral":7928,"allow":7929,"scce":7930,"sah":7931,"lxfs":7932,"bbgt":7933,"getmyortom":7934,"plylist":7935,"quf":7936,"aaea":7937,"eeff":7938,"bfdd":7939,"swipe":7940,"eafb":7941,"afda":7942,"afef":7943,"pggq":7944,"puv":7945,"ffffffedb":7946,"Ġxg":7947,"tcr":7948,"Ġpk":7949,"ckfinder":7950,"gav":7951,"Ġmk":7952,"rsf":7953,"Ġgv":7954,"Ġgw":7955,"Ġog":7956,"Ġoh":7957,"zcyf":7958,"ereplylist":7959,"zub":7960,"company":7961,"ffffefdda":7962,"rud":7963,"sfr":7964,"Ġnn":7965,"zxfe":7966,"Ġbv":7967,"qxsc":7968,"pbfa":7969,"qzer":7970,"nqbg":7971,"Ġzp":7972,"eyda":7973,"kkg":7974,"meizhou":7975,"affd":7976,"aeba":7977,"aacd":7978,"eaba":7979,"silush":7980,"nsyq":7981,"photoswipe":7982,"getmyortomereplylist":7983,"dte":7984,"ding":7985,"fyy":7986,"ftl":7987,"fputs":7988,"mor":7989,"nbh":7990,"npaf":7991,"nqeu":7992,"oss":7993,"oqq":7994,"oog":7995,"ofy":7996,"rfav":7997,"sxy":7998,"uzx":7999,"xsy":8000,"xeg":8001,"xzy":8002,"zra":8003,"Ġrc":8004,"Ġji":8005,"Ġbz":8006,"Ġzr":8007,"Ġ60":8008,"ffac":8009,"nteh":8010,"debf":8011,"chv":8012,"cefb":8013,"ling":8014,"town":8015,"datamodels":8016,"rota":8017,"appmak":8018,"pei":8019,"inaw":8020,"ris":8021,"spzh":8022,"opi":8023,"nav":8024,"ecde":8025,"arpe":8026,"adfc":8027,"gushi":8028,"executesql":8029,"fbfd":8030,"rceno":8031,"formid":8032,"razq":8033,"xaf":8034,"eddb":8035,"bbed":8036,"bbya":8037,"botf":8038,"Ġsj":8039,"cdff":8040,"bet":8041,"bey":8042,"bedb":8043,"beed":8044,"baeb":8045,"cfq":8046,"huaweispn":8047,"fcu":8048,"zzg":8049,"bcbd":8050,"hwtel":8051,"bfq":8052,"dcs":8053,"eayt":8054,"pgh":8055,"babf":8056,"qyr":8057,"pyhz":8058,"ffffffbfb":8059,"Ġxw":8060,"Ġdk":8061,"Ġdq":8062,"uidvewkm":8063,"qdre":8064,"Ġcw":8065,"yeyc":8066,"Ġrw":8067,"Ġkq":8068,"zai":8069,"Ġjm":8070,"pfv":8071,"Ġnv":8072,"oygi":8073,"aebf":8074,"bcaf":8075,"paging":8076,"/./././././././././././././././././././././././././././././././././././././././././././././././././././././././././././././././././././././././././././././././././././././././././././././././././././././././././././././././././././././././././././././././././././././././././././././././././././././././././././././././././././././././././././././././././././././././././././././././././././././././././././././././././././././././././././././././././././././././././././././././././././././././././././././././././././././././././././././././././././././././././././././././././././././././././././././././././././././././././././././././././././././././././././././././././././././././././././././././././././././././././././././././././././././././././././././././././././././././././././././././././././././././././././././././././././././././././././././././././././././././././././././././././././././././././././././././././././././././././././././././././././././././././././././././././././././././././././././././././././././././././././././././././././././././././././././././././././././././././././././././././././././././././././././././././././././././././././././././././././././././././././././././././././././././././././././././././././././././././././././././././././././././././././././././././././././././././././././././././././././././././././././././././././././././././././././././././././././././././././././././././././././././././././././././././././././././././././././././././././././././././././././././././././././././././././././././././././././././././././././././././././././././././././././././././././././././././././././././././././././././././././././././././././././././././././././././././././././././././././././././././././././././././././././././././././././././././././././././././././././././././././././././././././././././././././././././././././././././././././././././././././././././././././././././././././././././././././././././././././././././././././././././././././././././././././././././.":8077,"software":8078,"ningxia":8079,"fupin":8080,"delivered":8081,"appmaker":8082,"\\__":8083,"afff":8084,"afea":8085,"bdea":8086,"bedc":8087,"becc":8088,"bgee":8089,"cth":8090,"czh":8091,"cyg":8092,"dqfv":8093,"fsy":8094,"kzt":8095,"nic":8096,"ndd":8097,"ndh":8098,"oor":8099,"pdc":8100,"qaa":8101,"rph":8102,"tre":8103,"wrt":8104,"wgd":8105,"yyz":8106,"Ġwd":8107,"Ġps":8108,"Ġany":8109,"ffffbc":8110,"fffffdb":8111,"sit":8112,"vie":8113,"acbc":8114,"]-&":8115,"sez":8116,"peb":8117,"peq":8118,"lets":8119,"orub":8120,"fabe":8121,"bdcd":8122,"fia":8123,"trd":8124,"abbd":8125,"myfile":8126,"]==(":8127,"plu":8128,"caff":8129,"bev":8130,"beda":8131,"beac":8132,"baaa":8133,"quill":8134,"aafe":8135,"cfv":8136,"urse":8137,"fdg":8138,"fead":8139,"bject":8140,"wordpress":8141,"mathquill":8142,"Ġaf":8143,"bcs":8144,"bfcd":8145,"pzv":8146,"cug":8147,"babyname":8148,"aeda":8149,"aeeb":8150,"xiang":8151,"weta":8152,"puh":8153,"bgq":8154,"Ġxk":8155,"fffac":8156,"Ġdv":8157,"sqsf":8158,"zgqt":8159,"Ġpq":8160,"rbs":8161,"hydro":8162,"dua":8163,"qgb":8164,"Ġuj":8165,"honorhry":8166,"joaciei":8167,"Ġlj":8168,"Ġlw":8169,"Ġqw":8170,"Ġfy":8171,"Ġts":8172,"qrconnect":8173,"[]=../":8174,"csbe":8175,"atsh":8176,"vka":8177,"aced":8178,"deddb":8179,"uwenda":8180,"jianshe":8181,"padmin":8182,"sthru":8183,"sauz":8184,"tcpdf":8185,"ystt":8186,"ybrb":8187,"gywm":8188,"nrsg":8189,"character":8190,"hydrogen":8191,"/../../../../../../../../":8192,"`=`":8193,"aml":8194,"aecb":8195,"bdaa":8196,"bcdc":8197,"dongtai":8198,"ess":8199,"frh":8200,"jsc":8201,"mzy":8202,"nbaf":8203,"ody":8204,"qau":8205,"qbz":8206,"rzy":8207,"wedf":8208,"xsc":8209,"xcei":8210,"yor":8211,"Ġjs":8212,"Ġqi":8213,"Ġ62":8214,"neng":8215,"chb":8216,"geo":8217,"lintegration":8218,"viq":8219,"acda":8220,"acfc":8221,"gnu":8222,"..../":8223,"pea":8224,"insu":8225,"ssbg":8226,"opu":8227,"eccf":8228,"bddc":8229,"gsb":8230,"gsf":8231,"gsq":8232,"buy":8233,"dbh":8234,"dbs":8235,"rcesz":8236,"raw":8237,"abqc":8238,"dxyy":8239,"classname":8240,"nui":8241,"]:</":8242,"-->&":8243,"ebaa":8244,"edrc":8245,"dbcc":8246,"cdcd":8247,"bece":8248,"fly":8249,"bace":8250,"baidu":8251,"output":8252,"qug":8253,"quv":8254,"ccbb":8255,"fede":8256,"huaweicol":8257,"huaweievr":8258,"zzz":8259,"zzba":8260,"]\"\"--":8261,"webmail":8262,"hwart":8263,"bfcf":8264,"dcqq":8265,"eade":8266,"afcc":8267,"szss":8268,"szau":8269,"aece":8270,"aetc":8271,"weyr":8272,"nyqt":8273,"pdu":8274,"Ġpm":8275,"Ġpv":8276,"gag":8277,"qdq":8278,"qtzy":8279,"pqe":8280,"ghf":8281,"xycd":8282,"asd":8283,"fsf":8284,"ztt":8285,"nxjzg":8286,"pfh":8287,"lrx":8288,"ayn":8289,"rrbf":8290,"americ":8291,"callback":8292,"facc":8293,"eebc":8294,"aadc":8295,"tomcat":8296,"hwaqm":8297,"pteh":8298,"passthru":8299,"zglxt":8300,"maoyi":8301,"jsono":8302,"rsmzglxt":8303,"fffffefffbff":8304,"onmouseover":8305,"statistic":8306,"fffffadfffac":8307,"nxjzgrsmzglxt":8308,"=_[":8309,"aadd":8310,"adef":8311,"bpr":8312,"bedf":8313,"cyz":8314,"dty":8315,"dlb":8316,"eyy":8317,"ien":8318,"jhy":8319,"lsk":8320,"obr":8321,"oaf":8322,"ofq":8323,"occb":8324,"oduv":8325,"psy":8326,"qdd":8327,"sad":8328,"vvo":8329,"wff":8330,"wqh":8331,"xrbv":8332,"yry":8333,"ycegi":8334,"zau":8335,"zsh":8336,"zpg":8337,"zyz":8338,"tak":8339,"neo":8340,"nedc":8341,"deditor":8342,"simple":8343,"chh":8344,"ceaa":8345,"aps":8346,"pabz":8347,"left":8348,"zes":8349,"spuc":8350,"pageindex":8351,"tuo":8352,"bdh":8353,"adbb":8354,"('/":8355,"gim":8356,"dbda":8357,"rcedx":8358,"abea":8359,"icq":8360,"lng":8361,"suu":8362,"jsk":8363,"sogi":8364,"bbda":8365,"bbab":8366,"bbca":8367,"boea":8368,"efef":8369,"]*&":8370,"Ġiy":8371,"befb":8372,"baff":8373,"aada":8374,"fdz":8375,"ccs":8376,"feac":8377,"feee":8378,"huaweimar":8379,"bru":8380,"brv":8381,"eece":8382,"Ġah":8383,"Ġav":8384,"bcde":8385,"bccf":8386,"psg":8387,"dcca":8388,"rpf":8389,"dfha":8390,"aedb":8391,"aeed":8392,"nyrc":8393,"ffffffada":8394,"oxqv":8395,"Ġek":8396,"sqrb":8397,"rfss":8398,"zgbf":8399,"Ġpi":8400,"Ġyb":8401,"\\\"\":-":8402,"qft":8403,"qfre":8404,"Ġmx":8405,"toni":8406,"gdv":8407,"bzbi":8408,"Ġrg":8409,"Ġoj":8410,"alibaba":8411,"alihack":8412,"qgg":8413,"zwj":8414,"Ġug":8415,"qoi":8416,"Ġvp":8417,"Ġkg":8418,"sfv":8419,"Ġjk":8420,"Ġqx":8421,"Ġfg":8422,"Ġfh":8423,"yqst":8424,"xeq":8425,"Ġtw":8426,"qrr":8427,"pkw":8428,"yasuo":8429,"nsfe":8430,"frzt":8431,"zhijian":8432,"backup":8433,"xzxk":8434,"odgu":8435,"acee":8436,"affc":8437,"shijian":8438,"aabb":8439,"bidx":8440,"driverclassloader":8441,"driverclassname":8442,"phicomm":8443,"nfeu":8444,"basicdatasource":8445,"\"\"}}:\"\"":8446,"nengyuan":8447,"jsonobject":8448,")&__":8449,"_.":8450,"adee":8451,"aefc":8452,"bfbf":8453,"bdec":8454,"cne":8455,"cby":8456,"dpq":8457,"esy":8458,"effe":8459,"fpe":8460,"fengxian":8461,"jst":8462,"jsearch":8463,"jyz":8464,"jlk":8465,"jet":8466,"mfb":8467,"nsp":8468,"nxu":8469,"qed":8470,"rzz":8471,"rdf":8472,"rqq":8473,"sge":8474,"sapb":8475,"ttf":8476,"tbdw":8477,"wfb":8478,"wbz":8479,"wsca":8480,"yph":8481,"yqub":8482,"zup":8483,"zil":8484,"zip":8485,"Ġfoo":8486,"Ġzt":8487,"ffec":8488,"tao":8489,"fffffed":8490,"dam":8491,"enix":8492,"accb":8493,"erg":8494,"append":8495,"]\\/":8496,"pav":8497,"riva":8498,"exfs":8499,"zehi":8500,"opt":8501,"tupian":8502,"ecfs":8503,"ecyf":8504,"ecaz":8505,"bdbd":8506,"adht":8507,"vels":8508,"gione":8509,"folist":8510,"rceaw":8511,"rcevo":8512,"rcepy":8513,"rcebk":8514,"cts":8515,"abec":8516,"getinfolist":8517,"dxb":8518,"dxq":8519,"ptsu":8520,"saf":8521,"edfb":8522,"bbbb":8523,"bbbf":8524,"__);":8525,"boss":8526,"Ġix":8527,"befa":8528,"baac":8529,"qur":8530,"cft":8531,"waqh":8532,"feu":8533,"huaweijer":8534,"itf":8535,"homecustom":8536,"||'&":8537,"hwvky":8538,"eaff":8539,"rpg":8540,"rpu":8541,"afac":8542,"afbd":8543,"checkyq":8544,"ldk":8545,"aebd":8546,"aead":8547,"ffffffcde":8548,"Ġdw":8549,"documentelement":8550,"Ġhv":8551,"Ġpw":8552,"Ġyh":8553,"fqft":8554,"qdz":8555,"pqtu":8556,"zrv":8557,"zrx":8558,"zrza":8559,"Ġrx":8560,"Ġgx":8561,"Ġol":8562,"xyft":8563,"zuk":8564,"sgv":8565,"zdj":8566,"zds":8567,"Ġub":8568,"Ġ//":8569,"job":8570,"prg":8571,"Ġvk":8572,"ffffefcfb":8573,"Ġkx":8574,"Ġkz":8575,"sfzh":8576,"pxbq":8577,"yunqi":8578,"Ġbn":8579,"defde":8580,"adae":8581,"xfga":8582,"ffffefcda":8583,"fddf":8584,"facv":8585,"eebf":8586,"facecbc":8587,"siluban":8588,"pbet":8589,"hwask":8590,"pinpai":8591,"santoni":8592,"farr":8593,"phoenix":8594,"qsyi":8595,"zfbz":8596,"%'='&":8597,"qbrq":8598,"jiangtang":8599,"dxyylc":8600,"jsearchfront":8601,"silubanlie":8602,"adea":8603,"bsk":8604,"baca":8605,"bdaf":8606,"cteu":8607,"dsy":8608,"dzz":8609,"eco":8610,"eor":8611,"eecf":8612,"fdh":8613,"fzy":8614,"gray":8615,"pfc":8616,"pptq":8617,"qfu":8618,"qfet":8619,"tid":8620,"wan":8621,"wst":8622,"wos":8623,"waa":8624,"wea":8625,"xte":8626,"xft":8627,"zbh":8628,"{{":8629,"}`&":8630,"Ġ_":8631,"Ġparams":8632,"ffbd":8633,"ffca":8634,"ffcb":8635,"ffee":8636,"ffont":8637,"dead":8638,"ffffbfa":8639,"cozv":8640,"course":8641,"stop":8642,"ceea":8643,"geria":8644,"daba":8645,"dapf":8646,"acac":8647,"acbe":8648,"onload":8649,"gndt":8650,"\"\"\",\"\"\",[":8651,"ape":8652,"sslv":8653,"levels":8654,"pofz":8655,"nard":8656,"tuf":8657,"ecff":8658,"fabc":8659,"bdbb":8660,"fik":8661,"dboy":8662,"rcemb":8663,"rcetp":8664,"rcefw":8665,"rcepz":8666,"rcemg":8667,"rcewk":8668,"ctl":8669,"ctv":8670,"ioe":8671,"xat":8672,"syqg":8673,"truetype":8674,"moa":8675,"[\"\"\\/":8676,"ebbs":8677,"mlu":8678,"plg":8679,"caed":8680,"bbee":8681,"lly":8682,"Ġsq":8683,"redian":8684,"beaf":8685,"baea":8686,"macro":8687,"cfeb":8688,"subsite":8689,"Ġwi":8690,"Ġwu":8691,"fdt":8692,"fdv":8693,"fes":8694,"=\"\"[\"\"\\/":8695,"cbcc":8696,"contentid":8697,"eeae":8698,"]\"\"/":8699,"psgs":8700,"afde":8701,"afur":8702,"getlivelist":8703,"cuh":8704,"wepb":8705,"())}`&":8706,"ffffffede":8707,"Ġxy":8708,"Ġeu":8709,"Ġdj":8710,"Ġdt":8711,"Ġhh":8712,"kia":8713,"zgd":8714,"Ġpn":8715,"Ġye":8716,"Ġyq":8717,"Ġcj":8718,"jqk":8719,"Ġrv":8720,"Ġgj":8721,"Ġuq":8722,"Ġkw":8723,"Ġlp":8724,"addtt":8725,"ncca":8726,"mtk":8727,"Ġqj":8728,"Ġql":8729,"Ġqn":8730,"Ġqv":8731,"Ġfr":8732,"pfg":8733,"pfx":8734,"srr":8735,"ftpadmin":8736,"Ġ}`&":8737,"ytv":8738,"yazh":8739,"ypch":8740,"eyqu":8741,"jmm":8742,"]$(":8743,"adad":8744,"cachedata":8745,"bcea":8746,"bfbc":8747,"party":8748,"bcaa":8749,"ndeg":8750,"folder":8751,"*/-->'\"\"></":8752,"prsd":8753,"farz":8754,"rsyjg":8755,"pchm":8756,"yfbt":8757,"wbhe":8758,"kindeditor":8759,"]'&$(":8760,"quanqiu":8761,"gionee":8762,"sslvpn":8763,"addttffont":8764,"&$":8765,"'}}":8766,")]=":8767,")]));":8768,"=.":8769,"bbdc":8770,"becd":8771,"cxy":8772,"capi":8773,"ddbf":8774,"fpz":8775,"fresh":8776,"imb":8777,"jen":8778,"jos":8779,"jly":8780,"nbz":8781,"oef":8782,"pdf":8783,"pbz":8784,"qsp":8785,"rtb":8786,"uju":8787,"wch":8788,"wph":8789,"wbe":8790,"wpg":8791,"xpz":8792,"xdg":8793,"yrq":8794,"zsi":8795,"zph":8796,"zaf":8797,"|=[":8798,"]&{\"\"@":8799,"dez":8800,"defd":8801,"ceg":8802,"cert":8803,"dafd":8804,"viy":8805,"acbb":8806,"acaf":8807,"tok":8808,"apc":8809,"apth":8810,"ina":8811,"()`&":8812,"vah":8813,"tuc":8814,"tut":8815,"ecfd":8816,"bdr":8817,"adcd":8818,"addf":8819,"ves":8820,"userpass":8821,"])];@":8822,"thd":8823,"fbfb":8824,"fbaf":8825,"dbq":8826,"rcero":8827,"rcegu":8828,"rceph":8829,"rcebo":8830,"rcery":8831,"rcesq":8832,"rcenk":8833,"rcexo":8834,"abab":8835,"abee":8836,"pttd":8837,"ebfa":8838,"edqv":8839,"bbcb":8840,"jgk":8841,"cdfd":8842,"Ġig":8843,"baee":8844,"Ġwr":8845,"fdq":8846,"redorder":8847,"]\",'":8848,"cbff":8849,"zzd":8850,"bcdd":8851,"hwbac":8852,"hwjny":8853,"hwfla":8854,"bfeb":8855,"shopex":8856,"eafe":8857,"getrefresh":8858,"afrr":8859,"'\",[":8860,"szca":8861,"aes":8862,"aede":8863,"znx":8864,"gov":8865,"Ġ''\",":8866,"ffffffbda":8867,"contact":8868,"imageupload":8869,"();$_":8870,"rfg":8871,"rdq":8872,"Ġyo":8873,"linecap":8874,"qfk":8875,"zhq":8876,"gdp":8877,"Ġrz":8878,"zcs":8879,"Ġvx":8880,"ffffefef":8881,"ffffefedff":8882,"Ġko":8883,"zsr":8884,"Ġjl":8885,"dtd":8886,"sbv":8887,"njp":8888,"]))}?":8889,"nfzt":8890,"xrfb":8891,"bcec":8892,"bced":8893,"//]=":8894,"cpcf":8895,"bfba":8896,"bfbe":8897,"ddae":8898,"afaf":8899,"));//]=":8900,"fffffffda":8901,"afbc":8902,"cbaf":8903,"rsyc":8904,"ffffffefbecf":8905,"();&|=[":8906,"qiyezixun":8907,"ptyq":8908,"nghr":8909,"sichouzhilu":8910,"..../..../":8911,"insuredorder":8912,"rsyjgdw":8913,")]=$_":8914,"&/":8915,"/'/":8916,"/\",/":8917,"aho":8918,"asy":8919,"ayz":8920,"bdeb":8921,"bbdd":8922,"ctui":8923,"fecf":8924,"ftai":8925,"gmy":8926,"gnotify":8927,"jlx":8928,"ocfu":8929,"ppx":8930,"qgi":8931,"rch":8932,"rpl":8933,"sdh":8934,"slice":8935,"tsd":8936,"wna":8937,"whh":8938,"xal":8939,"ysz":8940,"zue":8941,"Ġrs":8942,"Ġmethodname":8943,"ffbe":8944,"ann":8945,"nte":8946,"deu":8947,"defa":8948,"dedf":8949,"chw":8950,"dasheng":8951,"lithi":8952,"acbd":8953,"acpu":8954,"gnq":8955,"gnv":8956,"]-*":8957,"getshell":8958,"pam":8959,"zet":8960,"arn":8961,"faz":8962,"dik":8963,"unk":8964,"reaid":8965,"upfile":8966,"fib":8967,"])\"\"&":8968,"])}?":8969,"then":8970,"keu":8971,"fbde":8972,"dbad":8973,"xtd":8974,"rcepe":8975,"rceos":8976,"rcebd":8977,"rcems":8978,"rcerk":8979,"rcelk":8980,"rceck":8981,"rcejy":8982,"rcely":8983,"rcemk":8984,"isho":8985,"abbe":8986,"abcc":8987,"mylist":8988,"dxrb":8989,"lni":8990,"))//":8991,"suv":8992,"mowang":8993,"scu":8994,"nul":8995,"cnk":8996,"vok":8997,"ebcd":8998,"cas":8999,"caec":9000,"caef":9001,"tpv":9002,"bbk":9003,"bbad":9004,"bbbc":9005,"stareaid":9006,"Ġsm":9007,"Ġii":9008,"Ġir":9009,"Ġiz":9010,"beab":9011,"beee":9012,"sourcestring":9013,"aaff":9014,"aaab":9015,"cfef":9016,"biao":9017,"fdl":9018,"ciq":9019,"wak":9020,"fev":9021,"fcdb":9022,"fcbf":9023,"=(/\",/":9024,"')\",":9025,"finish":9026,"jul":9027,"zzce":9028,"eefb":9029,"bttg":9030,"dfrc":9031,"vyk":9032,"aeab":9033,"qqi":9034,"rfz":9035,"Ġhm":9036,"Ġhy":9037,"Ġyi":9038,"\"\":\"\"\\\"\"@":9039,"qtq":9040,"Ġcq":9041,"Ġmn":9042,"bzo":9043,"qhk":9044,"Ġru":9045,"Ġgm":9046,"Ġoa":9047,"Ġoq":9048,"zuh":9049,"zdrc":9050,"zfh":9051,"Ġuv":9052,"dggd":9053,"Ġ/\"\"/":9054,"jov":9055,"zaq":9056,"nxpf":9057,"zjb":9058,"Ġnz":9059,"xinwen":9060,"Ġtt":9061,"yczg":9062,"qpqf":9063,"when":9064,"ybs":9065,"cyrb":9066,"yxbt":9067,"xzbb":9068,"eyut":9069,"plugin":9070,"xsfi":9071,"ffffefade":9072,"bces":9073,"acec":9074,"acef":9075,"ffffefffa":9076,"efbe":9077,"affb":9078,"afab":9079,"bacc":9080,"Ġ>]>":9081,"ffffefefa":9082,"ffffefedefef":9083,"/*_*/([":9084,"aacf":9085,"badf":9086,"aabf":9087,"spacelist":9088,"ffffffcfeefa":9089,"pbya":9090,"createelement":9091,"validatenum":9092,"dbuz":9093,"firstareaid":9094,"xawxyd":9095,"cookie":9096,"delete":9097,"appendchild":9098,"&/).":9099,"lithium":9100,"=\"\"&":9101,"_\"\")\",@":9102,"afbf":9103,"azq":9104,"aeca":9105,"aedf":9106,"avles":9107,"befe":9108,"cdec":9109,"dry":9110,"dfbf":9111,"dfff":9112,"dsat":9113,"edac":9114,"frq":9115,"fbdb":9116,"gly":9117,"hang":9118,"his":9119,"jno":9120,"jch":9121,"jpy":9122,"jpw":9123,"jow":9124,"mnt":9125,"nck":9126,"ouz":9127,"pli":9128,"pqq":9129,"qtb":9130,"ract":9131,"rfdf":9132,"sra":9133,"sdg":9134,"sges":9135,"wbg":9136,"wsrv":9137,"xed":9138,"xpg":9139,"xyz":9140,"xbh":9141,"xpq":9142,"ypt":9143,"Ġfor":9144,"Ġcode":9145,"ffcf":9146,"taq":9147,"\",\"\"]\"\"/":9148,"deaf":9149,"defu":9150,"noqv":9151,"sto":9152,"cho":9153,"dav":9154,"dafb":9155,"dadf":9156,"vip":9157,"enu":9158,"rosh":9159,"aprd":9160,"osac":9161,"zek":9162,"orbe":9163,"sppg":9164,"opzz":9165,"navi":9166,"adfd":9167,"adcc":9168,"gup":9169,"mil":9170,"undefi":9171,"auv":9172,"shg":9173,"buk":9174,"bul":9175,"xtf":9176,"xtsh":9177,"rceri":9178,"rceup":9179,"rceby":9180,"rcehw":9181,"rceeg":9182,"rceyu":9183,"rcewy":9184,"abad":9185,"abeb":9186,"myk":9187,"ebsc":9188,"eduq":9189,"cafc":9190,"tpq":9191,"ddff":9192,"ddda":9193,"efuf":9194,"Ġsb":9195,"xxxy":9196,"beea":9197,"flh":9198,"bafe":9199,"aaad":9200,"Ġwb":9201,"Ġwt":9202,"fdfe":9203,"feh":9204,"febd":9205,"fcs":9206,"wiq":9207,"cbad":9208,"eeef":9209,"Ġay":9210,"bcfb":9211,"bcbe":9212,"hwane":9213,"pgr":9214,"qyqs":9215,"pug":9216,"==}}&":9217,"ffffffddf":9218,"yyev":9219,"hiv":9220,"hinews":9221,"rqh":9222,"fffefd":9223,"Ġdl":9224,"Ġpx":9225,"Ġym":9226,"zqht":9227,"qds":9228,"qtg":9229,"Ġmg":9230,"Ġmh":9231,"Ġmw":9232,"Ġrh":9233,"Ġot":9234,"yrqu":9235,"Ġul":9236,"jog":9237,"Ġvj":9238,"Ġlu":9239,"rgc":9240,"xui":9241,"zij":9242,"zbq":9243,"Ġnw":9244,"Ġtd":9245,"yohg":9246,"lrwf":9247,"oequ":9248,"Ġ--><!--":9249,"eqzh":9250,"deede":9251,"aceb":9252,"ffffeffde":9253,"bffc":9254,"hweva":9255,"afaa":9256,"bebv":9257,"cbbf":9258,"fcaq":9259,"icons":9260,"aeaf":9261,"draz":9262,"single":9263,"rszh":9264,"oqhz":9265,"csza":9266,"ffffffafafef":9267,"xaug":9268,"yfft":9269,"huaweidub":9270,"fsqc":9271,"tfwj":9272,"Ġ--><!--/":9273,"'||'":9274,"/\"\"><":9275,"atb":9276,"aacb":9277,"afcb":9278,"bpq":9279,"bqh":9280,"cbdc":9281,"cbdb":9282,"dop":9283,"dsc":9284,"dgaz":9285,"dqrv":9286,"ezy":9287,"edaa":9288,"fty":9289,"ftur":9290,"jif":9291,"jfb":9292,"jvy":9293,"jxk":9294,"jmx":9295,"kny":9296,"lur":9297,"nfb":9298,"nrth":9299,"nru":9300,"oopb":9301,"qid":9302,"qbbz":9303,"qccu":9304,"rry":9305,"umail":9306,"uwy":9307,"wab":9308,"wjy":9309,"xfw":9310,"ydg":9311,"zen":9312,"zbb":9313,"Ġdataanalyseadapter":9314,"nose":9315,"corn":9316,"cool":9317,"chd":9318,"cetc":9319,"daee":9320,"dabc":9321,"enc":9322,"acs":9323,"acfd":9324,"tis":9325,"gni":9326,"meg":9327,"mev":9328,"sso":9329,"leb":9330,"lak":9331,"law":9332,"risk":9333,"adz":9334,"contract":9335,"htq":9336,"msl":9337,"])[":9338,"fbzh":9339,"dbed":9340,"rceli":9341,"rceut":9342,"rcesc":9343,"rcedy":9344,"rcetb":9345,"rcetk":9346,"xaa":9347,"xah":9348,"xaz":9349,"sur":9350,"suisho":9351,"mok":9352,"scl":9353,"saa":9354,"ebbf":9355,"plk":9356,"actice":9357,"edda":9358,"edds":9359,"socg":9360,"lxq":9361,"bbfa":9362,"bbeb":9363,"Ġsn":9364,"jgl":9365,"jgo":9366,"Ġij":9367,"flk":9368,"rtq":9369,"aaac":9370,"Ġwf":9371,"Ġwp":9372,"fdn":9373,"cbv":9374,"cbcb":9375,"Ġai":9376,"bcq":9377,"bcff":9378,"bccd":9379,"bfde":9380,"bfca":9381,"eaab":9382,"eaea":9383,"afca":9384,"iniconfig":9385,"]--&":9386,"weq":9387,"qyo":9388,"puq":9389,"wft":9390,"pds":9391,"ffffffadfe":9392,"Ġet":9393,"rczu":9394,"sqda":9395,"rdv":9396,"Ġhp":9397,"Ġya":9398,"Ġyl":9399,"xwo":9400,"qdu":9401,"jih":9402,"qtz":9403,"qtgb":9404,"Ġmm":9405,"rsd":9406,"Ġgz":9407,"Ġom":9408,"Ġou":9409,"zuv":9410,"templets":9411,"vhk":9412,"Ġui":9413,"assets":9414,"honorlld":9415,"practice":9416,"qcsi":9417,"Ġvv":9418,"qav":9419,"ffffefbd":9420,"Ġkd":9421,"Ġkk":9422,"xua":9423,"xuu":9424,"zat":9425,"sfh":9426,"Ġqe":9427,"zjk":9428,"Ġnl":9429,"Ġnr":9430,"wvu":9431,"fytv":9432,"?>&":9433,"odpb":9434,"bfab":9435,"bfaf":9436,"secure":9437,"dwtable":9438,"=/../../../../../../../../../../":9439,"jiuge":9440,"fcaf":9441,"aaba":9442,"sitegray":9443,"dcbf":9444,"]`)":9445,".'||'":9446,"ffffffddaf":9447,"discuz":9448,"worldclient":9449,"qdyi":9450,"honorbnd":9451,"cpeg":9452,"/{${":9453,"cyez":9454,"hyzx":9455,"'||'.":9456,"suishoupa":9457,"%[":9458,"?.":9459,"affe":9460,"bdac":9461,"bbdb":9462,"befc":9463,"dli":9464,"dth":9465,"ddy":9466,"eaca":9467,"etyr":9468,"jrc":9469,"jxo":9470,"lge":9471,"mxy":9472,"nrq":9473,"npcq":9474,"nsqv":9475,"olive":9476,"oat":9477,"pcd":9478,"prtv":9479,"psed":9480,"qag":9481,"rjr":9482,"song":9483,"wva":9484,"who":9485,"wil":9486,"wgk":9487,"xny":9488,"xzfg":9489,"yaa":9490,"yep":9491,"zpt":9492,"zhw":9493,"Ġcmd":9494,"Ġfs":9495,"Ġzs":9496,"ffbc":9497,"tae":9498,"deq":9499,"defb":9500,"deca":9501,"ffffca":9502,"nou":9503,"ces":9504,"cedb":9505,"cebe":9506,"cehz":9507,"tec":9508,"dada":9509,"dadd":9510,"linq":9511,"eru":9512,"remote":9513,"sehandle":9514,"pel":9515,"letv":9516,"lat":9517,"ricorn":9518,"spt":9519,"naqd":9520,"tuk":9521,"loj":9522,"loyi":9523,"bdm":9524,"bddd":9525,"bdbe":9526,"adce":9527,"adba":9528,"adcf":9529,"guide":9530,"dire":9531,"gik":9532,"fij":9533,"msc":9534,"kel":9535,"fogq":9536,"fbcd":9537,"dbfb":9538,"dbeb":9539,"rcemi":9540,"rceau":9541,"rceil":9542,"rcehu":9543,"rcejq":9544,"rcemh":9545,"rcefk":9546,"rceuk":9547,"abv":9548,"abce":9549,"abcb":9550,"xats":9551,"mby":9552,"lnj":9553,"saz":9554,":/../..//":9555,":/..//":9556,"ebae":9557,"edce":9558,"edfq":9559,"cak":9560,"tpu":9561,"bbaa":9562,"mai":9563,"bez":9564,"flc":9565,"bafc":9566,"aafd":9567,"cfyt":9568,"Ġwm":9569,"Ġwz":9570,"fdff":9571,"ccpq":9572,"feaa":9573,"wik":9574,"')}":9575,"juk":9576,"Ġax":9577,"jwh":9578,"doaq":9579,"bfce":9580,"rpz":9581,"dfg":9582,"pzi":9583,"pzfc":9584,"><[":9585,"aeac":9586,"]--/*_*/":9587,"pcpd":9588,"znk":9589,"=/../..//":9590,"=/..//":9591,"pud":9592,"Ġhe":9593,"Ġhz":9594,"zgyz":9595,"Ġpp":9596,"Ġyk":9597,"rbht":9598,"qtt":9599,"Ġcp":9600,"Ġmt":9601,"gha":9602,"ghq":9603,"ghs":9604,"yess":9605,"drz":9606,"Ġoe":9607,"Ġoy":9608,"sgqu":9609,"yrgr":9610,"Ġua":9611,"Ġuh":9612,"zahr":9613,"sjd":9614,"Ġje":9615,"Ġqr":9616,"Ġfn":9617,"wbk":9618,"sds":9619,"fpb":9620,"))--/*_*/":9621,"njec":9622,"dsn":9623,"yfhe":9624,"wulv":9625,"xbtr":9626,"adaf":9627,"dfee":9628,"capricorn":9629,"=/../../../..//":9630,"=/../../../../../..//":9631,"=/../../../../..//":9632,"=/../../../../../../../..//":9633,":/../../../..//":9634,":/../../../../../..//":9635,":/../../../../..//":9636,"ecee":9637,"afae":9638,"=/../../../../../../../../..//":9639,":/../../../../../../../..//":9640,":/../../../../../../../../..//":9641,"ccaa":9642,"dszg":9643,"=/../../..//":9644,"dccq":9645,"=../../../../../../../":9646,"=/../../../../../../..//":9647,"hwbmh":9648,"fffffdfffefd":9649,":/../../..//":9650,":/../../../../../../..//":9651,"nodeid":9652,"ffffefbfedfa":9653,"\\.\\.\\.\\.\\.\\.\\.\\.\\.\\.\\.\\.\\.\\.\\.\\.\\.\\.\\.\\.\\.\\.\\.\\.\\.\\.\\.\\.\\.\\.\\.\\.\\.\\.\\.\\.\\.\\.\\.\\.\\.\\.\\.\\.\\.\\.\\.\\.\\.\\.\\.\\.\\.\\.\\.\\.\\.\\.\\.\\.\\.\\.\\.\\.\\.\\.\\.\\.\\.\\.\\.\\.\\.\\.\\.\\.\\.\\.\\.\\.\\.\\.\\.\\.\\.\\.\\.\\.\\.\\.\\.\\.\\.\\.\\.\\.\\.\\.\\.\\.\\.\\.\\.\\.\\.\\.\\.\\.\\.\\.\\.\\.\\.\\.\\.\\.\\.\\.\\.\\.\\.\\.\\.\\.\\.\\.\\.\\.\\.\\.\\.\\.\\.\\.\\.\\.\\.\\.\\.\\.\\.\\.\\.\\.\\.\\.\\.\\.\\.\\.\\.\\.\\.\\.\\.\\.\\.\\.\\.\\.\\.\\.\\.\\.\\.\\.\\.\\.\\.\\.\\.\\.\\.\\.\\.\\.\\.\\.\\.\\.\\.\\.\\.\\.\\.\\.\\.\\.\\.\\.\\.\\.\\.\\.\\.\\.\\.\\.\\.\\.\\.\\.\\.\\.\\.\\.\\.\\.\\.\\.\\.\\.\\.\\.\\.\\.\\.\\.\\.\\.\\.\\.\\.\\.\\.\\.\\.\\.\\.\\.\\.\\.\\.\\.\\.\\.\\.\\.\\.\\.\\.\\.\\.\\.\\.\\.\\.\\.\\.\\.\\.\\.\\.\\.\\.\\.\\.\\.\\.\\.\\.\\.\\.\\.\\.\\.\\.\\.\\.\\.\\.\\.\\.\\.\\.\\.\\.\\.\\.\\.\\.\\.\\.\\.\\.\\.\\.\\.\\.\\.\\.\\.\\.\\.\\.\\.\\.\\.\\.\\.\\.\\.\\.\\.\\.\\.\\.\\.\\.\\.\\.\\.\\.\\.\\.\\.\\.\\.\\.\\.\\.\\.\\.\\.\\.\\.\\.\\.\\.\\.\\.\\.\\.\\.\\.\\.\\.\\.\\.\\.\\.\\.\\.\\.\\.\\.\\.\\.\\.\\.\\.\\.\\.\\.\\.\\.\\.\\.\\.\\.\\.\\.\\.\\.\\.\\.\\.\\.\\.\\.\\.\\.\\.\\.\\.\\.\\.\\.\\.\\.\\.\\.\\.\\.\\.\\.\\.\\.\\.\\.\\.\\.\\.\\.\\.\\.\\.\\.\\.\\.\\.\\.\\.\\.\\.\\.\\.\\.\\.\\.\\.\\.\\.\\.\\.\\.\\.\\.\\.\\.\\.\\.\\.\\.\\.\\.\\.\\.\\.\\.\\.\\.\\.\\.\\.\\.\\.\\.\\.\\.\\.\\.\\.\\.\\.\\.\\.\\.\\.\\.\\.\\.\\.\\.\\.\\.\\.\\.\\.\\.\\.\\.\\.\\.\\.\\.\\.\\.\\.\\.\\.\\.\\.\\.\\.\\.\\.\\.\\.\\.\\.\\.\\.\\.\\.\\.\\.\\.\\.\\.\\.\\.\\.\\.\\.\\.\\.\\.\\.\\.\\.\\.\\.\\.\\.\\.\\.\\.\\.\\.\\.\\.\\.\\.\\.\\.\\.\\.\\.\\.\\.\\.\\.\\.\\.\\.\\.\\.\\.\\.\\.\\.\\.\\.\\.\\.\\.\\.\\.\\.\\.\\.\\.\\.\\.\\.\\.\\.\\.\\.\\.\\.\\.\\.\\.\\.\\.\\.\\.\\.\\.\\.\\.\\.\\.\\.\\.\\.\\.\\.\\.\\.\\.\\.\\.\\.\\.\\.\\.\\.\\.\\.\\.\\.\\.\\.\\.\\.\\.\\.\\.\\.\\.\\.\\.\\.\\.\\.\\.\\.\\.\\.\\.\\.\\.\\.\\.\\.\\.\\.\\.\\.\\.\\.\\.\\.\\.\\.\\.\\.\\.\\.\\.\\.\\.\\.\\.\\.\\.\\.\\.\\.\\.\\.\\.\\.\\.\\.\\.\\.\\.\\.\\.\\.\\.\\.\\.\\.\\.\\.\\.\\.\\.\\.\\.\\.\\.\\.\\.\\.\\.\\.\\.\\.\\.\\.\\.\\.\\.\\.\\.\\.\\.\\.\\.\\.\\.\\.\\.\\.\\.\\.\\.\\.\\.\\.\\.\\.\\.\\.\\.\\.\\.\\.\\.\\.\\.\\.\\.\\.\\.\\.\\.\\.\\.\\.\\.\\.\\.\\.\\.\\.\\.\\.\\.\\.\\.\\.\\.\\.\\.\\.\\.\\.\\.\\.\\.\\.\\.\\.\\.\\.\\.\\.\\.\\.\\.\\.\\.\\.\\.\\.\\.\\.\\.\\.\\.\\.\\.\\.\\.\\.\\.\\.\\.\\.\\.\\.\\.\\.\\.\\.\\.\\.\\.\\.\\.\\.\\.\\.\\.\\.\\.\\.\\.\\.\\.\\.\\.\\.\\.\\.\\.\\.\\.\\.\\.\\.\\.\\.\\.\\.\\.\\.\\.\\.\\.\\.\\.\\.\\.\\.\\.\\.\\.\\.\\.\\.\\.\\.\\.\\.\\.\\.\\.\\.\\.\\.\\.\\.\\.\\.\\.\\.\\.\\.\\.\\.\\.\\.\\.\\.\\.\\.\\.\\.\\.\\.\\.\\.\\.\\.\\.\\.\\.\\.\\.\\.\\.\\.\\.\\.\\.\\.\\.\\.\\.\\.\\.\\.\\.\\.\\.\\.\\.\\.\\.\\.\\.\\.\\.\\.\\.\\.\\.\\.\\.\\.\\.\\.\\.\\.\\.\\.\\.\\.\\.\\.\\.\\.\\.\\.\\.\\.\\.\\.\\.\\.\\.\\.\\.\\.\\.\\.\\.\\.\\.\\.\\.\\.\\.\\.\\.\\.\\.\\.\\.\\.\\.\\.\\.\\.\\.\\.\\.\\.\\.\\.\\.\\.\\.\\.\\.\\.\\.\\.\\.\\.\\.\\.\\.\\.\\.\\.\\.\\.\\.\\.\\.\\.\\.\\.\\.\\.\\.\\.\\.\\.\\.\\.\\.\\.\\.\\.\\.\\.\\.\\.\\.\\.\\.\\.\\.\\.\\.\\.\\.\\.\\.\\.\\.\\.\\.\\.\\.\\.\\.\\.\\.\\.\\.\\.\\.\\.\\.\\.\\.\\.\\.\\.\\.\\.\\.\\.\\.\\.\\.\\.\\.\\.\\.\\.\\.\\.\\.\\.\\.\\.\\.\\.\\.\\.\\.\\.":9654,"jieshao":9655,"icasehandle":9656,"honorbln":9657,"rbrh":9658,"prys":9659,"bsfg":9660,"kona":9661,"suishoupaicasehandle":9662,"&`'&":9663,"<>'":9664,"azy":9665,"ahww":9666,"blog":9667,"bzz":9668,"bcdf":9669,"becf":9670,"cge":9671,"dif":9672,"ddbe":9673,"edef":9674,"ebdb":9675,"eqyt":9676,"eyqb":9677,"frl":9678,"fcfe":9679,"jfo":9680,"jtv":9681,"npe":9682,"nfh":9683,"oesg":9684,"pmi":9685,"pbh":9686,"prds":9687,"que":9688,"qlk":9689,"qjb":9690,"uai":9691,"wjw":9692,"wzq":9693,"wqv":9694,"wrpc":9695,"xing":9696,"xter":9697,"xbf":9698,"xog":9699,"xcfu":9700,"ytb":9701,"ydu":9702,"zso":9703,"zag":9704,"zspv":9705,"}{":9706,"Ġkey":9707,"Ġpath":9708,"ffh":9709,"\",<?":9710,"idve":9711,"ania":9712,"tation":9713,"deec":9714,"deed":9715,"non":9716,"nope":9717,"chy":9718,"cet":9719,"ceff":9720,"ceshi":9721,"gem":9722,"tev":9723,"dal":9724,"vision":9725,"acba":9726,"acbf":9727,"ermq":9728,"gnh":9729,"gnk":9730,"gny":9731,"reb":9732,"revision":9733,"getwechat":9734,"newsin":9735,"pab":9736,"pao":9737,"pau":9738,"sshu":9739,"lev":9740,"ric":9741,"vaf":9742,"poi":9743,"poj":9744,"podh":9745,"nat":9746,"nagi":9747,"loe":9748,"lou":9749,"arf":9750,"fag":9751,"adff":9752,"guk":9753,"mib":9754,"vek":9755,"sions":9756,"upl":9757,"upu":9758,"upfiles":9759,"fio":9760,"foqs":9761,"trf":9762,"bub":9763,"dbk":9764,"rcent":9765,"rcepl":9766,"rcelx":9767,"rcedh":9768,"rcejw":9769,"rcerl":9770,"rcecv":9771,"rceyw":9772,"rcesx":9773,"ctt":9774,"\"\")\",":9775,"abaa":9776,"mbl":9777,"mox":9778,"memberinfo":9779,"ebbe":9780,"eddd":9781,"lxo":9782,"bbfd":9783,"bbae":9784,"star":9785,"fwg":9786,"efcf":9787,"bade":9788,"byae":9789,"bygr":9790,"aaec":9791,"aaef":9792,"aafc":9793,"cfs":9794,"Ġwo":9795,"ltc":9796,"fdfd":9797,"ccac":9798,"ccbf":9799,"feae":9800,"huaweitrt":9801,"fcad":9802,"fcfb":9803,"fcdd":9804,"jnl":9805,"bjk":9806,"clk":9807,"clm":9808,"juv":9809,"eeda":9810,"eeeb":9811,"Ġat":9812,"websiteid":9813,"bcdb":9814,"hwsne":9815,"bfac":9816,"bfdi":9817,"szg":9818,"aeef":9819,"vcx":9820,"qys":9821,"qyw":9822,"futures":9823,"Ġxr":9824,"rfk":9825,"Ġhc":9826,"kiw":9827,"tcq":9828,"Ġyv":9829,"xwk":9830,"kuw":9831,"zhg":9832,"zhk":9833,"zhr":9834,"zydt":9835,"pqgd":9836,"gdu":9837,"ghd":9838,"drg":9839,"Ġocc":9840,"zui":9841,"zuu":9842,"joi":9843,"Ġkf":9844,"Ġlc":9845,"Ġlv":9846,"ncsb":9847,"htmlintegration":9848,"Ġjc":9849,"pfrz":9850,"zol":9851,"hel":9852,"srh":9853,"srhr":9854,"xcq":9855,"=*-[":9856,"aqcu":9857,"ayce":9858,"oayf":9859,"bfaa":9860,"dfba":9861,"ffffefcfffdb":9862,"ffffeffdf":9863,"bfbb":9864,"=<%":9865,"bacd":9866,"bacf":9867,"aebc":9868,"dcaa":9869,"followuser":9870,"#&=":9871,"qghq":9872,"components":9873,"sarr":9874,"]))}\\":9875,"....//....//....//....//":9876,"qryu":9877,"crqf":9878,"ffffefbfafdf":9879,"ntad":9880,"sqlinjec":9881,"]'/></":9882,"ybeu":9883,"rrqv":9884,"wygc":9885,"ffffbcfffffb":9886,"undefined":9887,"getwechatmemberinfo":9888,"sqlinjection":9889,")</":9890,"=..\\..\\..\\..\\..\\..\\..\\..\\":9891,"ale":9892,"abdb":9893,"bacb":9894,"cun":9895,"cpqg":9896,"dqq":9897,"dzq":9898,"eph":9899,"eecb":9900,"ebdd":9901,"fcea":9902,"fcec":9903,"jmp":9904,"jsu":9905,"jdh":9906,"jur":9907,"jry":9908,"jrk":9909,"mos":9910,"mcn":9911,"mtb":9912,"mvy":9913,"nsq":9914,"ofcr":9915,"pfu":9916,"wcu":9917,"wly":9918,"wbbs":9919,"xio":9920,"xdx":9921,"xpt":9922,"xvo":9923,"xdu":9924,"xpqz":9925,"xqfr":9926,"yaf":9927,"yxy":9928,"ybq":9929,"zpw":9930,"zpq":9931,"zog":9932,"Ġchr":9933,"Ġ58":9934,"ffda":9935,"ffab":9936,"ntv":9937,"dei":9938,"decd":9939,"deci":9940,"coq":9941,"cedc":9942,"dare":9943,"dabd":9944,"daed":9945,"lite":9946,"encry":9947,"acad":9948,"erable":9949,"roc":9950,"entifi":9951,"mek":9952,"meu":9953,"appro":9954,"ssc":9955,"exa":9956,"exten":9957,"osql":9958,"spy":9959,"eccd":9960,"arqz":9961,"fafa":9962,"fafb":9963,"fazhan":9964,"bddb":9965,"adda":9966,"addc":9967,"adsd":9968,"mig":9969,"miter":9970,"veu":9971,"upk":9972,"audit":9973,"fih":9974,"shh":9975,"shw":9976,"keq":9977,"kev":9978,"foy":9979,"buo":9980,"rcege":9981,"rceto":9982,"rcesy":9983,"rceeb":9984,"rcewx":9985,"rcehy":9986,"rcedk":9987,"rcerv":9988,"rcemv":9989,"islrwf":9990,"\\./.\\./.\\./.\\./.\\.":9991,"voz":9992,"workitem":9993,"ebbb":9994,"mlh":9995,"mlk":9996,"kby":9997,"edca":9998,"cav":9999,"cahz":10000,"tpxw":10001,"fwb":10002,"fwh":10003,"ddca":10004,"cdg":10005,"cdfa":10006,"xxys":10007,"beh":10008,"bes":10009,"huq":10010,"wdg":10011,"cfce":10012,"cfcd":10013,"cfdo":10014,"urg":10015,"wxub":10016,"cccb":10017,"feaf":10018,"brq":10019,"fcff":10020,"fcbc":10021,"jng":10022,"Ġaj":10023,"]\"\">":10024,"webg":10025,"bcca":10026,"eafc":10027,"afec":10028,"afcf":10029,"xia":10030,"xie":10031,"zmk":10032,"Ġnewton":10033,"vck":10034,"pcs":10035,"znmsz":10036,"puto":10037,"nyab":10038,"nyzz":10039,"pypz":10040,"Ġ'.././":10041,"Ġxb":10042,"Ġxj":10043,"rqzh":10044,"Ġey":10045,"rcpv":10046,"rkq":10047,"Ġpb":10048,"Ġyf":10049,"Ġys":10050,"jyg":10051,"Ġcm":10052,"zrs":10053,"zru":10054,"qhg":10055,"Ġoo":10056,"zuo":10057,"footer":10058,"zfr":10059,"Ġuo":10060,"Ġuu":10061,"pru":10062,"Ġvl":10063,"ztk":10064,"qazw":10065,"Ġka":10066,"rgt":10067,"xuv":10068,"zav":10069,"zig":10070,"pfr":10071,"zjh":10072,"Ġns":10073,"payg":10074,"Ġtz":10075,"zvg":10076,"Ġbp":10077,"wfxwtext":10078,"rhv":10079,"bqb":10080,"xocb":10081,"rxec":10082,"jcp":10083,"googlechart":10084,"deece":10085,"jpm":10086,"bcef":10087,"efbc":10088,"efbff":10089,"edasyncresult":10090,"umerable":10091,"cmstop":10092,"ffffefbfff":10093,"cdab":10094,"cdad":10095,"visitcount":10096,"afba":10097,"bdad":10098,"/.\\./":10099,"eabf":10100,"cadb":10101,"cbae":10102,"hwduk":10103,"wrappedasyncresult":10104,"roadmessage":10105,"pbat":10106,"ashg":10107,"discuzx":10108,"]/*&":10109,"oqhr":10110,"zthc":10111,"relproject":10112,"laobiao":10113,"delimiter":10114,"zhongcaoy":10115,"ltechn":10116,"signee":10117,"odgc":10118,"cancelaccount":10119,"rotate":10120,"ienumerable":10121,"sslvpnuser":10122,"ouzhou":10123,"nagiosql":10124,"encrypt":10125,"extensions":10126,"\\./.\\./.\\./.\\./.\\./.\\./":10127,"Ġnewtonsoft":10128,"zhongcaoyao":10129,"/></":10130,"[]]></":10131,"atl":10132,"aecf":10133,"asgt":10134,"azrr":10135,"bcfd":10136,"ccdc":10137,"ddbc":10138,"dfdc":10139,"ege":10140,"edeb":10141,"eedf":10142,"fen":10143,"fdba":10144,"fpqz":10145,"goph":10146,"hei":10147,"ita":10148,"jon":10149,"jty":10150,"jpe":10151,"jho":10152,"jmb":10153,"jdy":10154,"jtx":10155,"jpx":10156,"jmn":10157,"kor":10158,"lso":10159,"lqk":10160,"npg":10161,"nree":10162,"obt":10163,"ppqv":10164,"qphs":10165,"qdag":10166,"sguh":10167,"tmui":10168,"wco":10169,"wyz":10170,"wlk":10171,"wrbz":10172,"xep":10173,"ybz":10174,"ytrv":10175,"zor":10176,"zba":10177,"zdc":10178,"Ġ\"\"}&":10179,"Ġgenera":10180,"nth":10181,"ntbq":10182,"noq":10183,"cev":10184,"ceda":10185,"cecc":10186,"dabe":10187,"dacf":10188,"lian":10189,"acaa":10190,"erq":10191,"datacalc":10192,"rog":10193,"role":10194,"apf":10195,"apv":10196,"reu":10197,"sel":10198,"apps":10199,"tyd":10200,"paa":10201,"lez":10202,"vaq":10203,"zeo":10204,"zeq":10205,"zeu":10206,"ork":10207,"orhi":10208,"sps":10209,"hok":10210,"hol":10211,"opc":10212,"opf":10213,"ifk":10214,"ecfc":10215,"ecrg":10216,"fadb":10217,"faaf":10218,"adbd":10219,"gig":10220,"gsr":10221,"auc":10222,"msb":10223,"msv":10224,"shr":10225,"shs":10226,"shan":10227,"fots":10228,"trs":10229,"fbac":10230,"fbeb":10231,"dbg":10232,"dbae":10233,"rcemp":10234,"rcety":10235,"rceop":10236,"rcena":10237,"rcenu":10238,"rceei":10239,"rcetx":10240,"rceip":10241,"rcesk":10242,"rcepv":10243,"ctk":10244,"ctzf":10245,"\"\")&[":10246,"dxps":10247,"suf":10248,"moj":10249,"scg":10250,"jsd":10251,"jsl":10252,"ebef":10253,"ebbc":10254,"kbo":10255,"cax":10256,"cabd":10257,"bbac":10258,"bbbd":10259,"bbbbef":10260,"ddfc":10261,"Ġsd":10262,"cdda":10263,"Ġia":10264,"Ġib":10265,"bada":10266,"cfca":10267,"Ġwe":10268,"Ġwn":10269,"Ġwy":10270,"wxi":10271,"txtn":10272,"ccff":10273,"ccad":10274,"ccqd":10275,"svy":10276,"cbp":10277,"juh":10278,"eeac":10279,"eeaf":10280,"]\"\"></":10281,"dobv":10282,"bck":10283,"bcu":10284,"bfdb":10285,"psf":10286,"dcff":10287,"dfed":10288,"dfca":10289,"afyr":10290,"checkout":10291,"ffffffcfb":10292,"qqr":10293,"bgrq":10294,"Ġxu":10295,"sqk":10296,"Ġhn":10297,"Ġhew":10298,"zgt":10299,"Ġpf":10300,"Ġyx":10301,"jjjg":10302,"jjcmt":10303,"gat":10304,"kux":10305,"kuai":10306,"hyk":10307,"zha":10308,"zhb":10309,"Ġcr":10310,"Ġcz":10311,"Ġrr":10312,"Ġgc":10313,"zcm":10314,"zcx":10315,"Ġuy":10316,"Ġvb":10317,"Ġvf":10318,"ztq":10319,"qak":10320,"qaq":10321,"qaqz":10322,"rgv":10323,"sfz":10324,"Ġjz":10325,"jkd":10326,"cgyz":10327,"qxbh":10328,"wpcf":10329,"dffa":10330,"dqzh":10331,"fxfa":10332,"decdb":10333,"cqcu":10334,"cysa":10335,"icker":10336,"wzti":10337,"wsdu":10338,"dfbc":10339,"aka":10340,"ffffeffdb":10341,"Ġ=\"\")&[":10342,"afbb":10343,"bebc":10344,"bdab":10345,"bdae":10346,"connec":10347,"inittool":10348,"bgsv":10349,"xdye":10350,"bgdjgcmt":10351,"ocdz":10352,"nfud":10353,"yadg":10354,"qbhq":10355,"=<!--#":10356,"fffffcbbbbef":10357,"uapws":10358,"zmtznmsz":10359,"shichangzixun":10360,"statistics":10361,"=.\\./.\\./.\\./.\\./.\\./.\\./":10362,"imbsb":10363,"ffffffddafca":10364,"ahwwpky":10365,"gopher":10366,"Ġgenerated":10367,"datacalcaudit":10368,"*\"\"":10369,"ated":10370,"bsm":10371,"becb":10372,"baui":10373,"cdbc":10374,"czq":10375,"cbus":10376,"ddaf":10377,"dsgq":10378,"dqhr":10379,"fte":10380,"fra":10381,"fdbe":10382,"fbdf":10383,"gan":10384,"hwebg":10385,"jid":10386,"jri":10387,"jmy":10388,"jsy":10389,"jmo":10390,"jby":10391,"jmu":10392,"jxy":10393,"jlu":10394,"mfw":10395,"mwy":10396,"mfg":10397,"nxm":10398,"npz":10399,"ndu":10400,"och":10401,"obf":10402,"pnk":10403,"qtc":10404,"qere":10405,"rid":10406,"rfi":10407,"rxg":10408,"rsas":10409,"vre":10410,"wra":10411,"wis":10412,"wef":10413,"wyd":10414,"wffc":10415,"waaf":10416,"xar":10417,"xbr":10418,"xck":10419,"xstb":10420,"yth":10421,"yby":10422,"zbf":10423,"ĠčĊ":10424,"Ġmore":10425,"Ġdescription":10426,"Ġdetails":10427,"Ġreg":10428,"Ġabout":10429,"Ġsessionkey":10430,"Ġlocation":10431,"Ġdecry":10432,"\"\"^\"\"\\":10433,"ffdb":10434,"ffed":10435,"ffqh":10436,"\"\":*":10437,"ido":10438,"annoy":10439,"ntit":10440,"nel":10441,"dest":10442,"dedd":10443,"debe":10444,"ffffdce":10445,"coh":10446,"stz":10447,"ceca":10448,"dacb":10449,"acl":10450,"mpk":10451,"rope":10452,"tie":10453,"aption":10454,"remove":10455,"sss":10456,"lebar":10457,"lau":10458,"rica":10459,"exgg":10460,"zed":10461,"pou":10462,"ecu":10463,"ecbd":10464,"ecdc":10465,"ecdf":10466,"ecaf":10467,"ecbede":10468,"fal":10469,"fada":10470,"bdt":10471,"adr":10472,"adtb":10473,"guang":10474,"gujun":10475,"mix":10476,"upg":10477,"upx":10478,"shen":10479,"fog":10480,"fow":10481,"fbad":10482,"fbab":10483,"fbef":10484,"dbi":10485,"dbt":10486,"dbaa":10487,"dblj":10488,"dblock":10489,"rceex":10490,"rcebu":10491,"rceal":10492,"rcemy":10493,"rceml":10494,"rceur":10495,"rcegk":10496,"rcexw":10497,"rcepx":10498,"ueq":10499,"\"\")))":10500,"abs":10501,"abac":10502,"abca":10503,"abba":10504,"alblock":10505,"dxi":10506,"dxfs":10507,"mbg":10508,"mbh":10509,"mbk":10510,"ptfq":10511,"ptbyae":10512,"moq":10513,"voi":10514,"void":10515,"actiontype":10516,"soi":10517,"cahe":10518,"lxw":10519,"bbfb":10520,"arding":10521,"getmysubject":10522,"setintit":10523,"ewidth":10524,"ddfa":10525,"ddqg":10526,"bocd":10527,"efed":10528,"Ġsx":10529,"]*-":10530,"cdr":10531,"Ġip":10532,"Ġibjo":10533,"cfk":10534,"urred":10535,"Ġwas":10536,"ltq":10537,"wxhc":10538,"imge":10539,"ccbc":10540,"\"\"])?":10541,"fcq":10542,"fcbd":10543,"jnh":10544,"eozq":10545,"cbh":10546,"finalblock":10547,"zzh":10548,"zzi":10549,"contentdisplay":10550,"eet":10551,"passwor":10552,"jwk":10553,"dom":10554,"hwldn":10555,"bfec":10556,"dcde":10557,"btq":10558,"dfef":10559,"dfcf":10560,"dfgb":10561,"afeb":10562,"afdd":10563,"pgd":10564,"babc":10565,"aeaa":10566,"zmh":10567,"zmur":10568,"znm":10569,"Ġ'/":10570,"ffffffcdb":10571,"yzpe":10572,"yybr":10573,"Ġxf":10574,"Ġxn":10575,"Ġdn":10576,"Ġdu":10577,"Ġdz":10578,"rfhh":10579,"Ġ<#":10580,"kistan":10581,"secrity":10582,"Ġplease":10583,"Ġyc":10584,"Ġ&('#_":10585,"rbsz":10586,"gator":10587,"qtk":10588,"pqsv":10589,"qhv":10590,"Ġgb":10591,"Ġov":10592,"Ġoz":10593,"Ġoffset":10594,"xyv":10595,"agzf":10596,"zwg":10597,"zwh":10598,"zfk":10599,"Ġbelow":10600,"qcy":10601,"qcz":10602,"Ġvu":10603,"Ġkv":10604,"Ġlz":10605,"rgg":10606,"rgx":10607,"zsf":10608,"zka":10609,"zik":10610,"titlebar":10611,"Ġjh":10612,"sdv":10613,"sdvh":10614,"Ġnp":10615,"sbq":10616,"payname":10617,"zxc":10618,"srtb":10619,"Ġblock":10620,"mgy":10621,"qek":10622,"qeq":10623,"jkv":10624,"showtab":10625,"Ġidentifi":10626,"xgpi":10627,"ccec":10628,"luk":10629,"talid":10630,"ocac":10631,"'/?":10632,"kol":10633,"mvu":10634,"oozv":10635,"Ġinputo":10636,"ubmit":10637,"teddata":10638,"otsd":10639,"dfad":10640,")--&":10641,"]')))--":10642,"eceb":10643,"Ġreview":10644,"febe":10645,"]\"\")))--":10646,"cfab":10647,"cabe":10648,"cable":10649,"asyncrefresh":10650,"transformfinalblock":10651,"sbytes":10652,"ffffffedbf":10653,"treetype":10654,"ptedby":10655,"chuang":10656,"crypteddata":10657,"collectfun":10658,"guestbook":10659,"Ġivbytes":10660,"Ġpaddingmode":10661,"xerc":10662,"Ġencrypteddata":10663,"ffffffedfdce":10664,"chanpin":10665,"espz":10666,"pssrfss":10667,"bxyb":10668,"mdypwd":10669,"super":10670,"depadblock":10671,"Ġoriginated":10672,"decryptbyae":10673,"Ġinputcount":10674,"Ġinputbuffer":10675,"Ġciphermode":10676,"treewidth":10677,"vvoermq":10678,"navigator":10679,"singlefolder":10680,"Ġkeybytes":10681,"idvewkn":10682,"Ġoccurred":10683,"cfdocs":10684,"txtnpwd":10685,"Ġhewvvoermq":10686,"Ġregarding":10687,"Ġdecryptedby":10688,"removesinglefolder":10689,"setintitlebar":10690,"contentdisplaymode":10691,"showtabsetintitlebar":10692,"Ġidentified":10693,"Ġinputoffset":10694,"pssrfssrf":10695,"decryptbyaesbytes":10696,"Ġhewvvoermqzmtznmsz":10697,"Ġdecryptedbytes":10698,")/":10699,"=?&":10700,"ami":10701,"adac":10702,"adec":10703,"aeea":10704,"bph":10705,"bffe":10706,"bcfc":10707,"cty":10708,"cxg":10709,"cdeb":10710,"did":10711,"don":10712,"dph":10713,"dong":10714,"efff":10715,"edec":10716,"fthu":10717,"header":10718,"imp":10719,"jti":10720,"jgi":10721,"jbb":10722,"jdc":10723,"jzq":10724,"jdv":10725,"lri":10726,"mge":10727,"mja":10728,"mkb":10729,"mny":10730,"mwo":10731,"nss":10732,"ofi":10733,"ofuq":10734,"pce":10735,"pdh":10736,"papb":10737,"picker":10738,"qin":10739,"qfbf":10740,"qecf":10741,"qshz":10742,"sdt":10743,"xlv":10744,"xrgq":10745,"yeb":10746,"yong":10747,"ythu":10748,"ypaz":10749,"Ġzd":10750,"Ġzb":10751,"ffi":10752,"dece":10753,"cog":10754,"ceeb":10755,"ceef":10756,"ceditor":10757,"dar":10758,"daab":10759,"dacd":10760,"dafe":10761,"daea":10762,"lik":10763,"vih":10764,"enable":10765,"acz":10766,"tof":10767,"robv":10768,"mew":10769,"sek":10770,"ssyq":10771,"lec":10772,"spg":10773,"spz":10774,"nah":10775,"tue":10776,"ecae":10777,"arqu":10778,"adq":10779,"adver":10780,"jai":10781,"miu":10782,"utk":10783,"upr":10784,"gsk":10785,"gso":10786,"auh":10787,"shark":10788,"keg":10789,"foh":10790,"foq":10791,"fot":10792,"fogv":10793,"fbo":10794,"fbbb":10795,"fbcc":10796,"buz":10797,"dbv":10798,"dbff":10799,"dbba":10800,"dbea":10801,"dbaf":10802,"xtx":10803,"rcene":10804,"rcesi":10805,"rcear":10806,"rceun":10807,"rceht":10808,"rcedb":10809,"rceso":10810,"rcefq":10811,"rcezy":10812,"rcetl":10813,"rcexk":10814,"rcenc":10815,"rcezx":10816,"rceqv":10817,"rcefv":10818,"rcedq":10819,"ctn":10820,"myo":10821,"dxh":10822,"dxl":10823,"lnw":10824,"sudo":10825,"moi":10826,"jspa":10827,"]=<":10828,"cnd":10829,"edcb":10830,"eddc":10831,"tpi":10832,"may":10833,"jgd":10834,"beu":10835,"flf":10836,"baad":10837,"baab":10838,"quy":10839,"wdq":10840,"uru":10841,"fdk":10842,"fdw":10843,"wah":10844,"wav":10845,"ccq":10846,"cccfba":10847,"feef":10848,"huaweiine":10849,"fcg":10850,"eot":10851,"eoge":10852,"zzcg":10853,"ucg":10854,"eeea":10855,"]\"\"=\"\"[":10856,"jwl":10857,"bcac":10858,"bczb":10859,"eace":10860,"eabd":10861,"pzk":10862,"afyq":10863,"pgf":10864,"cub":10865,"vyn":10866,"quotation":10867,"qyk":10868,"qytf":10869,"pdk":10870,"pdz":10871,"ffffffbdb":10872,"hik":10873,"hiy":10874,"Ġep":10875,"gku":10876,"Ġdp":10877,"rky":10878,"sqi":10879,"rfs":10880,"rdk":10881,"Ġyd":10882,"Ġyn":10883,"Ġyp":10884,"qdk":10885,";&('#_":10886,"jiw":10887,"zypu":10888,"jyk":10889,"Ġmj":10890,"gdg":10891,"jqi":10892,"Ġgp":10893,"Ġgy":10894,"Ġoner":10895,"zuw":10896,"sgbd":10897,"yrps":10898,"Ġuz":10899,"asf":10900,"smg":10901,"joy":10902,"Ġvz":10903,"bxg":10904,"piq":10905,"pix":10906,"ffffefefe":10907,"ffffefcfe":10908,"xuk":10909,"zsl":10910,"zlh":10911,"zlq":10912,"ziy":10913,"wrh":10914,"Ġjf":10915,"Ġjt":10916,"Ġqb":10917,"Ġqs":10918,"sdz":10919,"zjt":10920,"helper":10921,"zxq":10922,"sxur":10923,"jkh":10924,"ftq":10925,"Ġ}\",":10926,"yatai":10927,"ybpu":10928,"jhx":10929,"decfa":10930,"axn":10931,"axgu":10932,"mxh":10933,"mxp":10934,"nfsa":10935,"jtn":10936,"jtq":10937,"defeb":10938,"kvnjp":10939,"ticket":10940,"dbdc":10941,"bffu":10942,"wzgh":10943,"cpfs":10944,"efba":10945,"edae":10946,"ddad":10947,"'--&":10948,"eebb":10949,"bebe":10950,"bebf":10951,"cbbc":10952,"&&('#_":10953,"=`[":10954,"thinkphp":10955,"ffffffcfecfe":10956,"zfgjjjg":10957,"schoo":10958,"dosubmit":10959,"statlist":10960,"townid":10961,")/(":10962,"Ġonerror":10963,"-\\":10964,"=_":10965,"=\"\"\"\"":10966,"aqet":10967,"bth":10968,"bdef":10969,"bfdf":10970,"bpad":10971,"bqgq":10972,"bsrz":10973,"cadd":10974,"czhi":10975,"ccfd":10976,"cpzf":10977,"dmy":10978,"dccc":10979,"ebdf":10980,"fxk":10981,"hor":10982,"heb":10983,"ibh":10984,"jne":10985,"jfw":10986,"jlf":10987,"jox":10988,"lnt":10989,"ljy":10990,"mth":10991,"mxa":10992,"nzq":10993,"ohy":10994,"oyg":10995,"obtz":10996,"oaeg":10997,"ple":10998,"plati":10999,"psv":11000,"pxy":11001,"qex":11002,"qtx":11003,"qhw":11004,"rdaq":11005,"twh":11006,"vfw":11007,"wfo":11008,"wzn":11009,"wsg":11010,"xda":11011,"xgee":11012,"zif":11013,"zaa":11014,"|?":11015,"Ġtrue":11016,"Ġuntime":11017,"Ġroot":11018,"\"\")\",#":11019,"\"\"];":11020,"\"\"]):$_":11021,"ffq":11022,"tad":11023,"netix":11024,"deg":11025,"fffffde":11026,"noi":11027,"nox":11028,"coi":11029,"cece":11030,"cecf":11031,"dace":11032,"liq":11033,"vis":11034,"accc":11035,"toh":11036,"mpo":11037,"tig":11038,"tian":11039,"]-_":11040,"reo":11041,"pek":11042,"pak":11043,"padi":11044,"lemon":11045,"laq":11046,"vak":11047,"opy":11048,"pok":11049,"nart":11050,"ecac":11051,"ecrv":11052,"loh":11053,"fak":11054,"fafc":11055,"faea":11056,"bdg":11057,"bdp":11058,"bdqt":11059,"guj":11060,"miv":11061,"veg":11062,"utecore":11063,"unc":11064,"giu":11065,"upyun":11066,"hth":11067,"kej":11068,"trk":11069,"updatexml":11070,"fbca":11071,"fbzs":11072,"dbce":11073,"dbfd":11074,"xtk":11075,"rcegn":11076,"rcegi":11077,"rceim":11078,"rcewn":11079,"rcepq":11080,"rcebz":11081,"rcexy":11082,"rcewl":11083,"rcezo":11084,"rceqx":11085,"rcelu":11086,"rcefh":11087,"rcevk":11088,"consignee":11089,"\"\")</":11090,"isg":11091,"mymou":11092,"syzc":11093,"mbq":11094,"mbx":11095,"sayt":11096,"jsg":11097,"]=-":11098,"cnf":11099,"vot":11100,"mlg":11101,"caid":11102,"caee":11103,"lxhuw":11104,"bbce":11105,"bbfc":11106,"mah":11107,"mam":11108,"dison":11109,"fww":11110,"ddv":11111,"ddcf":11112,"ddfe":11113,"ddcef":11114,"jgg":11115,"jgh":11116,"cdcb":11117,"bek":11118,"bege":11119,"bayd":11120,"aade":11121,"cfda":11122,"biv":11123,"bitri":11124,"Ġwj":11125,"cit":11126,"wag":11127,"huaweistf":11128,"brd":11129,"brfr":11130,"jnv":11131,"xmk":11132,"clg":11133,"cbef":11134,"zzss":11135,"hwmla":11136,"bfk":11137,"btg":11138,"eaeb":11139,"rpr":11140,"dfda":11141,"dfdb":11142,"dfeb":11143,"ldg":11144,"xiv":11145,"vcg":11146,"rlu":11147,"ipin":11148,"zni":11149,"znv":11150,"fuh":11151,"wfv":11152,"gox":11153,"bgb":11154,"bgfv":11155,"Ġxc":11156,"hii":11157,"oxru":11158,"oxhs":11159,"uploadtoken":11160,"rqbv":11161,"Ġem":11162,"gkw":11163,"Ġhf":11164,"zgx":11165,"Ġpj":11166,"Ġyr":11167,"rbk":11168,"kul":11169,"jix":11170,"uestion":11171,"pwk":11172,"qtdt":11173,"jyl":11174,"gdr":11175,"sbdz":11176,"jqv":11177,"jqx":11178,"agrc":11179,"sgg":11180,"zdk":11181,"zwv":11182,"vhq":11183,"zfp":11184,"zfur":11185,"prhe":11186,"qcx":11187,"Ġvt":11188,"bxdg":11189,"ffffefcdf":11190,"ncut":11191,"ziw":11192,"qkh":11193,"ruk":11194,"Ġqz":11195,"Ġfj":11196,"pfk":11197,"xefi":11198,"xinxi":11199,"zxv":11200,"Ġbm":11201,"Ġbs":11202,"wvg":11203,"fgzcwj":11204,"yodr":11205,"ftv":11206,"fyqg":11207,"xcz":11208,"xoza":11209,"ycru":11210,"nsdu":11211,"ybce":11212,"jhv":11213,"axhh":11214,"shellname":11215,"cqpb":11216,"czpu":11217,"oytc":11218,"defce":11219,"jdn":11220,"jbm":11221,"deedb":11222,"ffffefafb":11223,"affa":11224,"eced":11225,"ffffefbde":11226,"oir":11227,")#&__":11228,"afad":11229,"ffffefedb":11230,"beba":11231,"tnn":11232,"aacc":11233,"aabe":11234,"anonmymou":11235,"|&('#_":11236,"]`=`[":11237,"hwdvc":11238,"../..//../..//../..//../..//../..//":11239,"czuv":11240,"rszi":11241,"sosz":11242,"acunetix":11243,"')\"\")&'\\\"\"`":11244,"bszt":11245,"ztyb":11246,"pbdi":11247,"schl":11248,"azhf":11249,"bujca":11250,"newsindex":11251,"Ġibjoimge":11252,"-\\..":11253,"platina":11254,"lxhuwbujca":11255,"bitrix":11256,"Ġibjoimgeaxgu":11257,">'\",":11258,"btb":11259,"bfff":11260,"bki":11261,"btbc":11262,"cis":11263,"cpcr":11264,"dml":11265,"dtb":11266,"dccb":11267,"eabc":11268,"eefd":11269,"equu":11270,"fri":11271,"fdbc":11272,"facb":11273,"fceb":11274,"gall":11275,"ground":11276,"jda":11277,"jhu":11278,"jjw":11279,"jdo":11280,"jzh":11281,"jfy":11282,"jsintegration":11283,"lsx":11284,"msi":11285,"mri":11286,"maw":11287,"mnk":11288,"mxk":11289,"ndc":11290,"nfs":11291,"nqqf":11292,"oer":11293,"ozy":11294,"odt":11295,"obee":11296,"oteu":11297,"psi":11298,"pio":11299,"pfui":11300,"qch":11301,"qzec":11302,"qsfr":11303,"rfu":11304,"sri":11305,"wtu":11306,"wok":11307,"wree":11308,"xva":11309,"xhn":11310,"xfcr":11311,"ywd":11312,"yqq":11313,"znt":11314,"zmy":11315,"zkb":11316,"Ġdoc":11317,"ffv":11318,"ffba":11319,"ffyb":11320,"ffah":11321,"deab":11322,"defe":11323,"nog":11324,"novo":11325,"nocg":11326,"sio":11327,"teh":11328,"daff":11329,"dafc":11330,"dasd":11331,"lig":11332,"lih":11333,"lias":11334,"vig":11335,"vik":11336,"vil":11337,"mpe":11338,"mpu":11339,"roi":11340,"rom":11341,"tia":11342,"tim":11343,"tiv":11344,"apy":11345,"rez":11346,"tyk":11347,"pat":11348,"ffffffffafdf":11349,"sscb":11350,"leo":11351,"leus":11352,"zeb":11353,"spr":11354,"hoh":11355,"lists":11356,"pox":11357,"ecfa":11358,"ecbb":11359,"ecdd":11360,"arm":11361,"arv":11362,"faff":11363,"fafe":11364,"fabf":11365,"bdi":11366,"bdk":11367,"bdq":11368,"adi":11369,"adyz":11370,"jao":11371,"gine":11372,"fbda":11373,"fbed":11374,"fbfc":11375,"bui":11376,"dbbd":11377,"dbfe":11378,"dbfc":11379,"private":11380,"rceid":11381,"rceco":11382,"rceth":11383,"rcefb":11384,"rceio":11385,"rcekb":11386,"rceuf":11387,"rcedf":11388,"rcecu":11389,"rceqh":11390,"rceqo":11391,"rcexg":11392,"rceiv":11393,"rceni":11394,"rcenl":11395,"rceek":11396,"cons":11397,"abg":11398,"abde":11399,"abqe":11400,"dxu":11401,"ptt":11402,"moon":11403,"sci":11404,"nuxt":11405,"jsq":11406,"]='))":11407,"searchmulti":11408,"ebda":11409,"ebac":11410,"ebba":11411,"plq":11412,"edfd":11413,"edfe":11414,"sok":11415,"cada":11416,"lxk":11417,"tpb":11418,"tpf":11419,"ddq":11420,"dddc":11421,"dddf":11422,"bok":11423,"efqf":11424,"Ġsr":11425,"bebd":11426,"baq":11427,"bat":11428,"bach":11429,"bagt":11430,"rtc":11431,"byrt":11432,"huk":11433,"huang":11434,"cfz":11435,"Ġwc":11436,"resurl":11437,"ltk":11438,"wxh":11439,"fedb":11440,"fezmur":11441,"brk":11442,"fcv":11443,"fcx":11444,"cmdshell":11445,"txg":11446,"cbec":11447,"cbfd":11448,"zzb":11449,"Ġam":11450,"ryk":11451,"pzh":11452,"pzt":11453,"pgbi":11454,"pgaf":11455,"szps":11456,"babb":11457,"vyf":11458,"aefb":11459,"xig":11460,"xik":11461,"xiw":11462,"wece":11463,"qyj":11464,"qyeh":11465,"znjs":11466,"=/../..//../..//../..//../..//../..//":11467,"nydt":11468,"cvg":11469,"ffffffefe":11470,"ffffffecf":11471,"hiq":11472,"rqi":11473,"sqtq":11474,"rfr":11475,"rft":11476,"Ġhd":11477,"Ġhr":11478,"kiq":11479,"kiu":11480,"tcw":11481,"Ġpr":11482,"Ġyt":11483,"zqg":11484,"zhs":11485,"pwy":11486,"jyq":11487,"yuyu":11488,"]';":11489,"drvin":11490,"xyfg":11491,"agcr":11492,"vhx":11493,"zfx":11494,"wlw":11495,"Ġvd":11496,"Ġvm":11497,"pig":11498,")||'&":11499,"fedc":11500,"ffffefbdff":11501,"Ġkm":11502,"Ġkr":11503,"Ġls":11504,"xub":11505,"zkl":11506,"zkv":11507,"zih":11508,"qkv":11509,"ruh":11510,"zbn":11511,"Ġjd":11512,"dtqd":11513,"Ġfp":11514,"Ġfx":11515,"Ġfz":11516,"ydz":11517,"ydpa":11518,"zoeb":11519,"srdh":11520,"srrg":11521,"zvw":11522,"jvk":11523,"qedb":11524,"jkxk":11525,"))--&__":11526,"ftg":11527,"mnh":11528,"mnv":11529,"fyed":11530,"bqsc":11531,"ccea":11532,"cced":11533,"shehu":11534,"bvq":11535,"ocbe":11536,"wkh":11537,"gcjsb":11538,"background":11539,"zpqt":11540,"eyee":11541,"jmf":11542,"carpai":11543,"dfab":11544,"'/></?":11545,"deeef":11546,"bceb":11547,"ffffefcde":11548,"bffd":11549,"efbb":11550,"cfae":11551,"eadb":11552,"cdbb":11553,"cbaa":11554,"xcyyjkxk":11555,"aeaq":11556,"sbyh":11557,"\\../\\../\\../":11558,"xbdt":11559,"zfxxgkzd":11560,"cwjgdajbc":11561,"bsyt":11562,"chanjian":11563,"zxuz":11564,"ffffefededfa":11565,"\\../\\../\\../\\../\\../\\../\\../":11566,"hpys":11567,"'>\"\"><":11568,"ffffdceefbff":11569,"sudoers":11570,"gallery":11571,"searchmultiids":11572,"gcjsbzgl":11573,"#.":11574,"%'))":11575,"'}":11576,"']\",":11577,".\\\"\"\",\"\"":11578,"/)":11579,"[]=[":11580,"axg":11581,"asia":11582,"ayet":11583,"baw":11584,"bew":11585,"bdee":11586,"bfee":11587,"capt":11588,"cpq":11589,"cdee":11590,"cded":11591,"dmo":11592,"dpcg":11593,"fcee":11594,"fecc":11595,"hware":11596,"haf":11597,"jac":11598,"jei":11599,"jmd":11600,"jcu":11601,"jfq":11602,"jhg":11603,"jxg":11604,"jbk":11605,"lck":11606,"mto":11607,"mna":11608,"mdx":11609,"mtx":11610,"mjw":11611,"mjj":11612,"njw":11613,"nlu":11614,"ndq":11615,"oqtf":11616,"obag":11617,"pan":11618,"pen":11619,"pph":11620,"qph":11621,"ranet":11622,"wck":11623,"wpv":11624,"xms":11625,"xfh":11626,"yed":11627,"ylk":11628,"zmd":11629,"zim":11630,"zgk":11631,"zxw":11632,"zxtc":11633,"Ġexec":11634,"Ġ../../../":11635,"\"\"[":11636,"ntk":11637,"neu":11638,"nex":11639,"dek":11640,"decf":11641,"nok":11642,"couu":11643,"cefc":11644,"cedf":11645,"tef":11646,"tems":11647,"dabf":11648,"tox":11649,"mpx":11650,"rop":11651,"apk":11652,"mea":11653,"getday":11654,"getwdinfo":11655,"inx":11656,"types":11657,"pagh":11658,"lenovo":11659,"lai":11660,"laz":11661,"exv":11662,"osv":11663,"zep":11664,"spf":11665,"sph":11666,"hoq":11667,"opd":11668,"=&(":11669,"nas":11670,"tuy":11671,"ecad":11672,"faba":11673,"fafd":11674,"veq":11675,"dio":11676,"diversion":11677,"uni":11678,"uph":11679,"gsn":11680,"gshi":11681,"htd":11682,"aug":11683,"auk":11684,"kei":11685,"keji":11686,"fok":11687,"found":11688,"trw":11689,"xtw":11690,"rcean":11691,"rcesp":11692,"rcetu":11693,"rceec":11694,"rcesu":11695,"rcert":11696,"rcemd":11697,"rceci":11698,"rcebc":11699,"rcedg":11700,"rcejv":11701,"rcepk":11702,"rceui":11703,"rcewh":11704,"rceoy":11705,"rceoa":11706,"ctd":11707,"concon":11708,"uev":11709,"abq":11710,"abfc":11711,"abai":11712,"xas":11713,"xay":11714,"xahg":11715,"myl":11716,"myu":11717,"dxcr":11718,"syqc":11719,"scy":11720,"scpt":11721,"scnot":11722,"nua":11723,"nuk":11724,"cnfd":11725,"voh":11726,"ebca":11727,"soo":11728,"caeb":11729,"lxg":11730,"lxv":11731,"bbg":11732,"bbq":11733,"bbff":11734,"mas":11735,"maz":11736,"dyzc":11737,"jgr":11738,"jgy":11739,"cdt":11740,"bafb":11741,"baaf":11742,"bygs":11743,"wds":11744,"wdsu":11745,"cfr":11746,"cfcf":11747,"='||":11748,"ltj":11749,"wxgd":11750,"fdqe":11751,"rmw":11752,"ccv":11753,"ccab":11754,"huaweipot":11755,"itv":11756,"ufg":11757,"ufk":11758,"jnc":11759,"jni":11760,"wiki":11761,"eocr":11762,"cbq":11763,"')}}":11764,"||&":11765,"zzr":11766,"zzu":11767,"Ġalias":11768,"=${${":11769,"hwc":11770,"hwu":11771,"hwv":11772,"hwvideo":11773,"hwvtr":11774,"hwars":11775,"dcda":11776,"btd":11777,"eafd":11778,"eaee":11779,"aozi":11780,"aohs":11781,"dfcc":11782,"dfru":11783,"pzpd":11784,"zmv":11785,"wey":11786,"wnl":11787,"wnv":11788,"rly":11789,"qyl":11790,"qyrq":11791,"egbu":11792,"zng":11793,"znh":11794,"znq":11795,"=/\\../\\../\\../\\../\\../\\../\\../":11796,"fuwu":11797,"wfq":11798,"wfr":11799,"wfha":11800,"Ġxd":11801,"oxsg":11802,"rqv":11803,"rcz":11804,"intranet":11805,"rbpu":11806,"hyg":11807,"muk":11808,"Ġmz":11809,"yug":11810,"zrqq":11811,"zcgf":11812,"yrh":11813,"hnw":11814,"lyw":11815,"Ġud":11816,"dgzr":11817,"qcq":11818,"pik":11819,"ffffefddb":11820,"Ġkl":11821,"Ġkt":11822,"Ġlb":11823,"zlr":11824,"zay":11825,"zix":11826,"ruu":11827,"Ġjp":11828,"xez":11829,"wvq":11830,"fttg":11831,"rhq":11832,"csau":11833,"xgbv":11834,"ccef":11835,"dffs":11836,"wcq":11837,"ypze":11838,"cxsj":11839,"whk":11840,"ybhu":11841,"wuh":11842,"axja":11843,"wtqs":11844,"fzgi":11845,"fkv":11846,"eqhu":11847,"zppb":11848,"vuln":11849,"jtk":11850,"nppv":11851,"otph":11852,"wsl":11853,"ffeef":11854,"jpn":11855,"ffffefafac":11856,"ffffefcdb":11857,"ffffeffdff":11858,"\",'<":11859,"cffd":11860,"afbe":11861,"bebb":11862,"ddba":11863,"twent":11864,"bcae":11865,"merlin":11866,"ccae":11867,"interfaces":11868,"dcdu":11869,"ffffffcdfdda":11870,"sfbu":11871,"ffffffefbceb":11872,"modelid":11873,"xerq":11874,"bpec":11875,"fzqh":11876,"ffffddbe":11877,"ffffffefadde":11878,"wbrz":11879,"Ġaopew":11880,"naojin":11881,"adverid":11882,"ffffffecfdbf":11883,"drvinvoke":11884,"getdaylist":11885,"scnotfound":11886,"hwvideoeditor":11887,"??":11888,"_=[":11889,"agaq":11890,"ben":11891,"bhu":11892,"bnp":11893,"cri":11894,"cgh":11895,"cgx":11896,"cdef":11897,"cbdf":11898,"dgo":11899,"dlu":11900,"dcfd":11901,"drtz":11902,"efbf":11903,"eefe":11904,"edaf":11905,"edbf":11906,"fss":11907,"fny":11908,"fccc":11909,"fced":11910,"fecd":11911,"fdbb":11912,"fpft":11913,"gpy":11914,"iba":11915,"jan":11916,"jut":11917,"jtp":11918,"jew":11919,"jqu":11920,"jeo":11921,"jzz":11922,"jbt":11923,"jfm":11924,"jck":11925,"jhn":11926,"jmt":11927,"jrv":11928,"ldh":11929,"lzx":11930,"mzo":11931,"mqv":11932,"nbc":11933,"npw":11934,"ndg":11935,"oty":11936,"omg":11937,"oxtc":11938,"ozah":11939,"pis":11940,"pfw":11941,"pmx":11942,"pbdf":11943,"pxtq":11944,"qun":11945,"qdh":11946,"rar":11947,"sla":11948,"sfw":11949,"sbo":11950,"tld":11951,"tjsj":11952,"wss":11953,"wal":11954,"wguu":11955,"xea":11956,"xcg":11957,"xsft":11958,"ypq":11959,"ycg":11960,"yptq":11961,"zss":11962,"zva":11963,"ffr":11964,"ffae":11965,"ntq":11966,"ntuc":11967,"dey":11968,"deba":11969,"ffffc":11970,"ffffed":11971,"ffffafb":11972,"nowifi":11973,"nous":11974,"sik":11975,"ceo":11976,"ceac":11977,"cebd":11978,"cebf":11979,"liv":11980,"viu":11981,"acg":11982,"acw":11983,"mpi":11984,"mpv":11985,"databackup":11986,"rodu":11987,"tih":11988,"repi":11989,"repor":11990,"meo":11991,"paw":11992,"park":11993,"pagv":11994,"ssqd":11995,"vax":11996,"zedg":11997,"opv":11998,"opw":11999,"nauc":12000,"ifq":12001,"arte":12002,"arqe":12003,"faec":12004,"faad":12005,"fatq":12006,"bds":12007,"bdv":12008,"adbe":12009,"jah":12010,"jam":12011,"gun":12012,"guid":12013,"mie":12014,"vey":12015,"utq":12016,"upv":12017,"upy":12018,"gsw":12019,"htr":12020,"htv":12021,"msq":12022,"msx":12023,"]/{$":12024,"tings":12025,"tinfo":12026,"ked":12027,"kep":12028,"fod":12029,"fou":12030,"dbp":12031,"dbr":12032,"rcete":12033,"rceed":12034,"rcexm":12035,"rcecl":12036,"rcepg":12037,"rcexi":12038,"rcevc":12039,"rceny":12040,"rcegh":12041,"rceag":12042,"rcevh":12043,"rcejo":12044,"rcebx":12045,"rcesj":12046,"rceai":12047,"raza":12048,"isadmin":12049,"ilk":12050,"abbc":12051,"alg":12052,"myh":12053,"myv":12054,"dxf":12055,"sytt":12056,"mbw":12057,"lnu":12058,"sua":12059,"say":12060,"cng":12061,"cnv":12062,"vol":12063,"ebde":12064,"ebad":12065,"ebfd":12066,"ebaf":12067,"mlq":12068,"kbw":12069,"edcc":12070,"soy":12071,"cace":12072,"caae":12073,"bbt":12074,"llv":12075,"ddcd":12076,"ddpz":12077,"efac":12078,"efdd":12079,"Ġsz":12080,"cdq":12081,"Ġim":12082,"bafa":12083,"byts":12084,"quk":12085,"aaae":12086,"mdg":12087,"mdr":12088,"())&":12089,"cfac":12090,"Ġwx":12091,"Ġwsjo":12092,"wxq":12093,"fdbd":12094,"fddb":12095,"fdcd":12096,"cik":12097,"wae":12098,"waq":12099,"waau":12100,"ccbd":12101,"ccdd":12102,"fey":12103,"fetg":12104,"fcra":12105,"fcsa":12106,"jnq":12107,"bjl":12108,"xmh":12109,"wia":12110,"wiv":12111,"clh":12112,"zzt":12113,"dou":12114,"bcg":12115,"bcab":12116,"ryyu":12117,"eada":12118,"eafa":12119,"eaad":12120,"dmt":12121,"aoah":12122,"rpqz":12123,"dfac":12124,"pzfa":12125,"cud":12126,"vyi":12127,"zmu":12128,"weh":12129,"vcw":12130,"=/.././.././.././.././":12131,"sky":12132,"queryxxb":12133,"pye":12134,"Ġxh":12135,"gkq":12136,"gkv":12137,"rkd":12138,"layer":12139,"rdp":12140,"zgb":12141,"gay":12142,"qdn":12143,"hyq":12144,"jik":12145,"muv":12146,"Ġmc":12147,"jspintegration":12148,"yeq":12149,"yeu":12150,"yezg":12151,"]');":12152,"dug":12153,"Ġgr":12154,"dru":12155,"dren":12156,"Ġod":12157,"hgv":12158,"compose":12159,"zdn":12160,"yrhr":12161,"lyk":12162,"qik":12163,"qiw":12164,"qov":12165,"qozg":12166,"Ġky":12167,"rgba":12168,"zsx":12169,"zkw":12170,"ziq":12171,"ruq":12172,"wrsq":12173,"pfn":12174,"zou":12175,"Ġnb":12176,"Ġnd":12177,"zvk":12178,"woa":12179,"qxv":12180,"mni":12181,"xghi":12182,"ytz":12183,"oeqq":12184,".././../":12185,"mkv":12186,"mkwe":12187,"wkg":12188,"yfst":12189,"'/_":12190,"whm":12191,"what":12192,"wtk":12193,"mxn":12194,"mxv":12195,"mxyy":12196,"cyj":12197,"}}&[":12198,"lvg":12199,"niu":12200,".././.././.././../":12201,"jrw":12202,"jlw":12203,"jcmt":12204,"xdpa":12205,"obsg":12206,"ffffeffda":12207,"europe":12208,"edfebe":12209,"meitu":12210,"ecer":12211,"cdba":12212,"dcaf":12213,"siluzhibo":12214,"silutouzi":12215,"fdae":12216,"cadf":12217,"dcec":12218,"nrdg":12219,"zfxxgkb":12220,"/./././././././././././././././././././././././././././././././././././././././././././././././././././././././././././././././././././././././././././././././././././././././././././././././././././././././././././././././././././././././././././././././././././././././././././././././././././././././././././././././././././././././././././././././././././././././././././././././././././././././././././././././././././././././././././././././././././././././././././././././././././././././././././././././././././././././././././././././././././././././././././././././././././././././././././././././././././././././././././././././././././././././././././././././././././././././././././././././././././././././././././././././././././././././././././././././././././././././././././././././././././././././././././././././././././././././././././././././././././././././././././././././././././././././././././././././././././././././././././././././././././././././././././././././././././././././././././././././././././././././././././././././././././././././././././././././././././././././././././././././././././././././././././././././././././././././././././././././././././././././././././././././././././././././././././././././././././././././././././././././././././././././././././././././././././././././././././././././././././././././././././././././././././././././././././././././././././././././././././././././././././././././././././././././././././././././././././././././././././././././././././././././.":12221,"flag":12222,"fffffbdb":12223,"children":12224,"asqs":12225,"')\"\")&(":12226,"')\"\")|(":12227,"dpee":12228,"sqqq":12229,"dzyh":12230,"cwjgdajbcc":12231,"ffffbeedfebe":12232,"huaweifrd":12233,"xosa":12234,"=../../../../../../../../../../../../../../../":12235,"ffffffedbecb":12236,"coolpad":12237,"qjbcnxm":12238,"approval":12239,"enabled":12240,"equuleus":12241,"ffffddbeffff":12242,"=/.././.././.././.././.././.././.././../":12243,"european":12244,"zfxxgkbg":12245,".*":12246,"/{$":12247,"/../../../../../../../../../../":12248,"]:/":12249,"`'":12250,"ayq":12251,"bteq":12252,"cto":12253,"cpbv":12254,"dbug":12255,"ddee":12256,"ddeb":12257,"dcef":12258,"dcea":12259,"eyu":12260,"eacb":12261,"fml":12262,"fqq":12263,"fng":12264,"fdaf":12265,"fdeb":12266,"fdea":12267,"fcdc":12268,"fzsb":12269,"her":12270,"iao":12271,"jge":12272,"jlo":12273,"jra":12274,"jed":12275,"jbi":12276,"jev":12277,"jyy":12278,"jbh":12279,"jpq":12280,"jdu":12281,"jmk":12282,"lby":12283,"lzy":12284,"mtype":12285,"mva":12286,"mwg":12287,"nra":12288,"nbr":12289,"nfcb":12290,"ozq":12291,"pmo":12292,"prai":12293,"pptv":12294,"qkb":12295,"qfez":12296,"rmy":12297,"sgh":12298,"sbz":12299,"wmg":12300,"wmk":12301,"xtr":12302,"xsv":12303,"xbg":12304,"xhy":12305,"yif":12306,"ypcg":12307,"ydaz":12308,"zid":12309,"zli":12310,"zon":12311,"zsv":12312,"zstu":12313,"Ġ\"\"\",\"\"":12314,"Ġ').":12315,"Ġlinks":12316,"ffbb":12317,"ffcd":12318,"ider":12319,"tay":12320,"ntu":12321,"nthu":12322,"neh":12323,"deac":12324,"debc":12325,"ffffcf":12326,"noa":12327,"stq":12328,"siv":12329,"chf":12330,"chs":12331,"ceec":12332,"ceae":12333,"tey":12334,"dax":12335,"daca":12336,"lii":12337,"acq":12338,"mpa":12339,"mpq":12340,"roh":12341,"rozb":12342,"apzu":12343,"reload":12344,"getsub":12345,"appid":12346,"invalid":12347,"pax":12348,"paye":12349,"ssra":12350,"lee":12351,"leh":12352,"rig":12353,"exange":12354,"vai":12355,"spd":12356,"hoo":12357,"=&('#_":12358,"poz":12359,"pola":12360,"nag":12361,"tun":12362,"ecbe":12363,"lob":12364,"ado":12365,"jag":12366,"guser":12367,"vet":12368,"dix":12369,"uth":12370,"utv":12371,"usertype":12372,"datepicker":12373,"giq":12374,"upn":12375,"upq":12376,"gsms":12377,"htg":12378,"fit":12379,"fiv":12380,"msk":12381,"fox":12382,"fbce":12383,"fbea":12384,"dbac":12385,"dbsb":12386,"xtl":12387,"rcece":12388,"rceer":12389,"rceva":12390,"rcepo":12391,"rcefi":12392,"rcetr":12393,"rceis":12394,"rcecf":12395,"rcefm":12396,"rceep":12397,"rcezq":12398,"rcebh":12399,"rcepi":12400,"rcegx":12401,"rcenx":12402,"rceog":12403,"rceyg":12404,"rcegt":12405,"rcegc":12406,"rceyv":12407,"rcevu":12408,"rcehq":12409,"rceey":12410,"rcesn":12411,"rade":12412,"awk":12413,"xak":12414,"xax":12415,"syi":12416,"mbe":12417,"lnq":12418,"sux":12419,"scv":12420,"satg":12421,"jsv":12422,"vou":12423,"ebfb":12424,"mly":12425,"kbg":12426,"cay":12427,"caaa":12428,"cafd":12429,"caaf":12430,"lxx":12431,"bbcc":12432,"maq":12433,"make":12434,"fwk":12435,"fwq":12436,"ddh":12437,"boqz":12438,"Ġsf":12439,"cdcc":12440,"best":12441,"baec":12442,"rtk":12443,"rtl":12444,"byrz":12445,"hug":12446,"huv":12447,"tory":12448,"quw":12449,"aahe":12450,"mdu":12451,"mdv":12452,"mdw":12453,"reqs":12454,"cfdc":12455,"big":12456,"biq":12457,"Ġwls":12458,"ltx":12459,"wxe":12460,"wxv":12461,"fdu":12462,"rmt":12463,"imsilkroad":12464,"cccf":12465,"cccc":12466,"ccgb":12467,"feab":12468,"usq":12469,"fcbe":12470,"]\",}?":12471,"wig":12472,"wiu":12473,"cbt":12474,"cbce":12475,"cbfc":12476,"jug":12477,"juo":12478,"zzc":12479,"eeaa":12480,"dov":12481,"hwq":12482,"hwlon":12483,"hwknt":12484,"hwpra":12485,"psz":12486,"dcfb":12487,"ryzf":12488,"ryhe":12489,"eaec":12490,"dmn":12491,"dmq":12492,"aota":12493,"dfz":12494,"dfbd":12495,"pzae":12496,"pga":12497,"lfh":12498,"ldv":12499,"xih":12500,"pcx":12501,"pckm":12502,"rlq":12503,"qym":12504,"qygd":12505,"goi":12506,"goq":12507,"pytb":12508,"pyrb":12509,"cvm":12510,"ffffffbfa":12511,"Ġxe":12512,"Ġxz":12513,"oxhb":12514,"rcdh":12515,"sqhv":12516,"fqv":12517,"fqhs":12518,"rbx":12519,"rbti":12520,"gax":12521,"gate":12522,"dacfa":12523,"kuv":12524,"hya":12525,"qfj":12526,"zhd":12527,"mug":12528,"zyu":12529,"jyh":12530,"blg":12531,"blh":12532,"gdj":12533,"]'];":12534,"]']):$_":12535,"Ġgt":12536,"ngt":12537,"sgc":12538,"sggb":12539,"cfbc":12540,"qgra":12541,"yrz":12542,"xkv":12543,"asdas":12544,"wlv":12545,"ztdz":12546,"zlu":12547,"ncdh":12548,"qkg":12549,"mhk":12550,"Ġjr":12551,"dtke":12552,"dtsr":12553,"ogcd":12554,"lpv":12555,"pfz":12556,"Ġtj":12557,"zvu":12558,"zvx":12559,"wope":12560,"qrrq":12561,"mgq":12562,"sxdt":12563,"wvk":12564,"jky":12565,"yoqq":12566,"mnw":12567,"njl":12568,"lum":12569,"shelp":12570,"shehui":12571,"ytqh":12572,"ypbr":12573,"zhixun":12574,"ybpi":12575,"rxh":12576,"wuk":12577,"axis":12578,"mql":12579,"hainan":12580,"zpfb":12581,"nia":12582,"nfcc":12583,"ubef":12584,"efab":12585,"jek":12586,"jemzk":12587,"ezrc":12588,"dfaf":12589,"iakow":12590,"ffeu":12591,"dbdd":12592,"cdfeb":12593,"ecef":12594,"effa":12595,"Ġremote":12596,"huaweis":12597,"cfaa":12598,"=<#":12599,"cffa":12600,"fcfc":12601,"cabf":12602,"iishelp":12603,"Ġwebsite":12604,"/.\\./.\\./":12605,"blackshark":12606,"cbes":12607,"somnus":12608,"xthf":12609,"jinrongqihuo":12610,"changyong":12611,"zthd":12612,"fpab":12613,"rbyh":12614,"zfbs":12615,"ffffefdffceb":12616,"wpes":12617,"/.\\./.\\./.\\./.\\./.\\./.\\./":12618,"jectinfo":12619,"qiyexin":12620,"ffffefbfbcde":12621,"ysci":12622,"zstg":12623,"ffffdfbcdfeb":12624,"qebh":12625,"oagz":12626,"ffffffadfefa":12627,"]))}\\&":12628,"cgyzut":12629,"fffffbdbefdb":12630,"getsubjectinfo":12631,"qiyexinxi":12632,"=/.\\./.\\./.\\./.\\./.\\./.\\./":12633,"`<%":12634,"aif":12635,"asa":12636,"adaa":12637,"axin":12638,"aedc":12639,"aecc":12640,"bpz":12641,"bphz":12642,"bfdc":12643,"bzgh":12644,"ddac":12645,"dded":12646,"dcdf":12647,"ezq":12648,"eadd":12649,"edee":12650,"ebdc":12651,"fpx":12652,"gree":12653,"hong":12654,"jco":12655,"jce":12656,"jle":12657,"jva":12658,"jfa":12659,"jad":12660,"jmi":12661,"jus":12662,"jit":12663,"jbc":12664,"jrq":12665,"jdr":12666,"jdk":12667,"jmh":12668,"jcg":12669,"krq":12670,"lty":12671,"lpu":12672,"lpy":12673,"lhy":12674,"mif":12675,"mad":12676,"mvo":12677,"mjg":12678,"mgk":12679,"mjy":12680,"mqx":12681,"mrx":12682,"nly":12683,"nmk":12684,"ntas":12685,"nacv":12686,"ofg":12687,"pid":12688,"pta":12689,"pco":12690,"pmh":12691,"rhy":12692,"racv":12693,"rrya":12694,"sony":12695,"sdc":12696,"sbg":12697,"wle":12698,"wki":12699,"wog":12700,"wyq":12701,"xfu":12702,"xqgz":12703,"yush":12704,"ying":12705,"zar":12706,"zjg":12707,"};":12708,"anj":12709,"anq":12710,"anjian":12711,"ntf":12712,"nev":12713,"deh":12714,"ffffdbd":12715,"ffffaff":12716,"ffffbeb":12717,"fffffef":12718,"nogq":12719,"cok":12720,"cou":12721,"cov":12722,"sih":12723,"sir":12724,"siu":12725,"cefa":12726,"cebb":12727,"ceee":12728,"tei":12729,"tection":12730,"dabb":12731,"vir":12732,"erz":12733,"tog":12734,"onc":12735,"onl":12736,"tiu":12737,"rey":12738,"mee":12739,"mel":12740,"getparameter":12741,"getbook":12742,"getparent":12743,"inu":12744,"iny":12745,"leu":12746,"serach":12747,"osda":12748,"ospi":12749,"zel":12750,"zey":12751,"spqq":12752,"hoy":12753,"opsr":12754,"pow":12755,"tul":12756,"eccc":12757,"fade":12758,"fabu":12759,"faae":12760,"adx":12761,"adus":12762,"jaw":12763,"mitems":12764,"settings":12765,"unv":12766,"giy":12767,"htw":12768,"htx":12769,"aub":12770,"fiu":12771,"styles":12772,"msw":12773,"shl":12774,"keo":12775,"fov":12776,"trr":12777,"fbcf":12778,"dbca":12779,"dbbb":12780,"rceap":12781,"rcegs":12782,"rceue":12783,"rceef":12784,"rceit":12785,"rcedc":12786,"rceea":12787,"rcebg":12788,"rcetc":12789,"rcezh":12790,"rcepw":12791,"rceow":12792,"rcezw":12793,"rceqk":12794,"rceyd":12795,"rceug":12796,"rcejk":12797,"rcebv":12798,"rcetv":12799,"rcegv":12800,"rcelv":12801,"rceav":12802,"rceyk":12803,"rceeu":12804,"\"\")=":12805,"awh":12806,"(\"\"*\"\"":12807,"xao":12808,"myg":12809,"dxv":12810,"dxy":12811,"classi":12812,"ptpd":12813,"ptgb":12814,"suy":12815,"nuf":12816,"nuo":12817,"jsgk":12818,"]===}}&":12819,"ebab":12820,"ebcc":12821,"plv":12822,"kbe":12823,"kbh":12824,"edyi":12825,"sog":12826,"soq":12827,"caac":12828,"caad":12829,"lxh":12830,"tpg":12831,"bbhs":12832,"protection":12833,"dbcb":12834,"dyn":12835,"dyu":12836,"lljh":12837,"ddr":12838,"ddfd":12839,"boyb":12840,"efea":12841,"jgx":12842,"cdn":12843,"xxg":12844,"flg":12845,"bav":12846,"rtd":12847,"subway":12848,"bik":12849,"urn":12850,"fdcb":12851,"imk":12852,"ccm":12853,"ccbe":12854,"feea":12855,"usv":12856,"fcab":12857,"fcba":12858,"redg":12859,"txn":12860,"bjf":12861,"xmv":12862,"wiy":12863,"cly":12864,"turkey":12865,"cbde":12866,"cbab":12867,"cbcd":12868,"jui":12869,"zzti":12870,"zzci":12871,"zztz":12872,"doh":12873,"doq":12874,"dox":12875,"bcpq":12876,"psbe":12877,"dcbb":12878,"dcdd":12879,"eaho":12880,"dmg":12881,"dmk":12882,"rpk":12883,"dfce":12884,"aftg":12885,"pgt":12886,"lfg":12887,"lfv":12888,"vyg":12889,"vyw":12890,"fmw":12891,"weu":12892,"wnh":12893,"pcp":12894,"rlh":12895,"rlj":12896,"wfy":12897,"gog":12898,"cvk":12899,"pdgg":12900,"pdrr":12901,"ffffffdde":12902,"qque":12903,"bggh":12904,"Ġxl":12905,"rqa":12906,"gkz":12907,"rki":12908,"rku":12909,"rdr":12910,"introdu":12911,"kir":12912,"fqte":12913,"xiaoyao":12914,"jjo":12915,"jjv":12916,"\"\"))\"\")&":12917,"gak":12918,"xwl":12919,"kuj":12920,"jiy":12921,"jiaz":12922,"qfs":12923,"zhc":12924,"cityid":12925,"zyfv":12926,"jyt":12927,"Ġcs":12928,"ghk":12929,"owner":12930,"zrcc":12931,"qhd":12932,"rsn":12933,"jqg":12934,"zcjd":12935,"hgl":12936,"xyde":12937,"zua":12938,"agch":12939,"sgr":12940,"zdbd":12941,"cfbb":12942,"qgw":12943,"zwk":12944,"vhd":12945,"zfgz":12946,"xkh":12947,"qih":12948,"qog":12949,"wlg":12950,"Ġvr":12951,"ztz":12952,"zkh":12953,"zko":12954,"zlw":12955,"ncy":12956,"ziv":12957,"mjk":12958,"pxh":12959,"Ġnf":12960,"Ġnm":12961,"zxo":12962,"jvg":12963,"woh":12964,"wov":12965,"woed":12966,"wyth":12967,"qey":12968,"jkw":12969,"yofq":12970,"fyv":12971,"csjs":12972,"xcab":12973,"ccee":12974,"bkw":12975,"mkq":12976,"qprc":12977,"fruf":12978,"whq":12979,"ybpb":12980,"jhc":12981,"wqbf":12982,"jxv":12983,"cddd":12984,"fzst":12985,"hfk":12986,"crtu":12987,"xqdh":12988,"plusk":12989,"odsc":12990,"dbdf":12991,"picture":12992,"dpge":12993,"febf":12994,"cdae":12995,"cfaf":12996,"bdddb":12997,"silulvyou":12998,"silumaoyi":12999,"eacf":13000,"fcaa":13001,"investor":13002,"fbafff":13003,"ccaf":13004,"cbee":13005,"aeet":13006,"bcfh":13007,"changereturn":13008,"jiaoyu":13009,"office":13010,"rszt":13011,"ffffffcdffce":13012,"ptyv":13013,"rbys":13014,"yspu":13015,"hacker":13016,"rzef":13017,"pointchangereturn":13018,"ffffefbdaecb":13019,"npye":13020,"wzyb":13021,"dpzu":13022,"\"\"?><!":13023,"=;(":13024,"wdei":13025,"czyjsgk":13026,"nphh":13027,"Ġwlve":13028,"xfya":13029,"ffffefadaeca":13030,"ffffefddafee":13031,"silushuju":13032,"ioeut":13033,"ffffeffdfecb":13034,"caidao":13035,"polaris":13036,"jemzko":13037,"getbooklivelist":13038,"getparentwdinfo":13039,"serachcheck":13040,"(\"\"*\"\"):":13041,"introduction":13042,"xiaoyaoyu":13043,"\"\"))\"\")&*=":13044,"pointchangereturnqq":13045,"']]></":13046,"=|(":13047,"`${":13048,"`<#":13049,"ajw":13050,"aznl":13051,"bop":13052,"bwy":13053,"bsud":13054,"cdaa":13055,"cdaf":13056,"djw":13057,"ddec":13058,"ddef":13059,"dced":13060,"dpgc":13061,"ety":13062,"epe":13063,"eos":13064,"eply":13065,"etb":13066,"eded":13067,"eefc":13068,"etha":13069,"feca":13070,"fccb":13071,"fzev":13072,"hby":13073,"jss":13074,"jth":13075,"jph":13076,"jic":13077,"jln":13078,"jbr":13079,"jvc":13080,"jqh":13081,"jzv":13082,"jpk":13083,"kcf":13084,"kao":13085,"kjy":13086,"lsf":13087,"lug":13088,"msp":13089,"mve":13090,"mln":13091,"mgx":13092,"ngi":13093,"nny":13094,"nqq":13095,"nrb":13096,"nfg":13097,"nrh":13098,"nrgz":13099,"ofb":13100,"oyq":13101,"odrh":13102,"pda":13103,"pjw":13104,"pvy":13105,"pbg":13106,"pxk":13107,"pmk":13108,"qep":13109,"qsqh":13110,"ran":13111,"rbuq":13112,"rapz":13113,"sdx":13114,"sfc":13115,"sns":13116,"une":13117,"vpq":13118,"wro":13119,"wth":13120,"wio":13121,"wpq":13122,"whg":13123,"whe":13124,"wzx":13125,"wdeb":13126,"wrdu":13127,"wyrg":13128,"wpdv":13129,"xur":13130,"xnv":13131,"xbtz":13132,"yger":13133,"ybg":13134,"ytuu":13135,"yquh":13136,"zxx":13137,"zsuz":13138,"Ġ})&":13139,"ffdc":13140,"fftf":13141,"anu":13142,"anye":13143,"tap":13144,"talk":13145,"nem":13146,"neclass":13147,"det":13148,"nod":13149,"notes":13150,"cop":13151,"cos":13152,"cox":13153,"stl":13154,"stn":13155,"stui":13156,"chex":13157,"cefd":13158,"ceev":13159,"geb":13160,"geh":13161,"gek":13162,"tee":13163,"daaa":13164,"dabv":13165,"liy":13166,"lief":13167,"enke":13168,"ertv":13169,"tob":13170,"mpw":13171,"ond":13172,"onz":13173,"roq":13174,"rov":13175,"robe":13176,"gnx":13177,"]-_[":13178,"aphh":13179,"pebf":13180,"Ġ[{\"\"":13181,"paj":13182,"paat":13183,"fffffffffece":13184,"laf":13185,"lax":13186,"newshtml":13187,"orpg":13188,"orzf":13189,"spb":13190,"hod":13191,"hog":13192,"hoi":13193,"poy":13194,"tux":13195,"ifr":13196,"ecba":13197,"fai":13198,"fabd":13199,"faab":13200,"adk":13201,"adhi":13202,"jal":13203,"miy":13204,"setcharacter":13205,"dimp":13206,"utr":13207,"unx":13208,"unle":13209,"agea":13210,"gis":13211,"ups":13212,"upw":13213,"fiq":13214,"shc":13215,"kew":13216,"tract":13217,"fbec":13218,"fbae":13219,"rceda":13220,"rcese":13221,"rceif":13222,"rceja":13223,"rcefo":13224,"rcext":13225,"rcecn":13226,"rcebj":13227,"rceps":13228,"rceao":13229,"rceqy":13230,"rcefu":13231,"rceyz":13232,"rcerh":13233,"rceat":13234,"rceko":13235,"rcejx":13236,"rcehk":13237,"rcenv":13238,"rcevx":13239,"rcenh":13240,"forfree":13241,"rat":13242,"abfe":13243,"xazi":13244,"codes":13245,"dxn":13246,"syyi":13247,"syui":13248,"lny":13249,"moh":13250,"scf":13251,"serverscripts":13252,"voq":13253,"ebcu":13254,"ebgr":13255,"kbi":13256,"edfc":13257,"sow":13258,"caea":13259,"lxc":13260,"bbr":13261,"bbv":13262,"fwt":13263,"llu":13264,"dddb":13265,"bozs":13266,"efdc":13267,"jgq":13268,"jgv":13269,"cdca":13270,"bem":13271,"behi":13272,"flu":13273,"baof":13274,"rtn":13275,"byid":13276,"bydq":13277,"prev":13278,"huod":13279,"\"\"}\",{\"\"":13280,"quwen":13281,"wdk":13282,"aavka":13283,"mdk":13284,"bih":13285,"bit":13286,"urs":13287,"wxg":13288,"fdcf":13289,"fdcc":13290,"cip":13291,"rmc":13292,"cccd":13293,"fesz":13294,");?":13295,"ufh":13296,"jnx":13297,"cbs":13298,"cbfa":13299,"cbqz":13300,"juu":13301,"||&('#_":13302,"zzo":13303,"eeq":13304,"eede":13305,"eeee":13306,"jwt":13307,"doa":13308,"hwk":13309,"hwcor":13310,"hwtny":13311,"hwwas":13312,"psb":13313,"psl":13314,"psdh":13315,"dcp":13316,"dmv":13317,"dfh":13318,"dfec":13319,"pzu":13320,"pzau":13321,"pgx":13322,"szo":13323,"lfu":13324,"vyu":13325,"ldr":13326,"zmf":13327,"zmq":13328,"wet":13329,"wnq":13330,"wnx":13331,"ipli":13332,"wfh":13333,"wfga":13334,"nyzs":13335,"())})&":13336,"ffffffafe":13337,"yzyu":13338,"qqhq":13339,"yyfd":13340,"Ġez":13341,"rkl":13342,"Ġhb":13343,"Ġhs":13344,"kix":13345,"Ġyj":13346,"zqo":13347,"fqi":13348,"Ġ&[":13349,"rbqd":13350,"xwz":13351,"qdl":13352,"hyw":13353,"jii":13354,"jiab":13355,"jijian":13356,"pwg":13357,"zyi":13358,"jyc":13359,"jyx":13360,"Ġmf":13361,"Ġmvj":13362,"formguide":13363,"mcq":13364,"mcy":13365,"ghe":13366,"zrn":13367,"Ġob":13368,"Ġoc":13369,"zud":13370,"ngf":13371,"zdts":13372,"yrzi":13373,"zwl":13374,"vhc":13375,"zfgs":13376,"qie":13377,"Ġ/><":13378,"wlh":13379,"jol":13380,"jom":13381,"jou":13382,"joiakow":13383,"qcs":13384,"qcw":13385,"Ġvs":13386,"qatr":13387,"Ġkc":13388,"Ġkn":13389,"rgf":13390,"rgte":13391,"zsn":13392,"zihao":13393,"zbk":13394,"sjl":13395,"wrcf":13396,"pxg":13397,"lpk":13398,"wbv":13399,"xeyc":13400,"pvu":13401,"jvm":13402,"woef":13403,"qrzi":13404,"qvt":13405,"qvx":13406,"ugon":13407,"qeacnxm":13408,"qxn":13409,"qxo":13410,"mns":13411,"fyt":13412,"fybh":13413,"bqbc":13414,"xcpg":13415,"xoha":13416,"xoua":13417,"shehua":13418,"oeq":13419,"bky":13420,"ndte":13421,"yfth":13422,"kov":13423,"rxzz":13424,"jhk":13425,"wqrb":13426,"areaid":13427,"mvk":13428,"mxd":13429,"etzq":13430,"czdc":13431,"ayfb":13432,"uueaho":13433,"hkzu":13434,"jdw":13435,"otcd":13436,"mmserverscripts":13437,"ecec":13438,"ddab":13439,"febc":13440,"fddd":13441,"interview":13442,"eadf":13443,"ffffefefb":13444,"aebe":13445,"silugushi":13446,"siluquwen":13447,"eacq":13448,"haikou":13449,"yshf":13450,"cwjgdajgcsz":13451,"wenhua":13452,"huanbao":13453,"blankintegration":13454,"yidaiyilutupian":13455,"shuhua":13456,"zixunfuwu":13457,"prsf":13458,"hwaka":13459,"Ġntlljh":13460,"junshi":13461,"ffffffbfffff":13462,"qiyeanli":13463,"ffffdefb":13464,"baike":13465,"ffffefaffcde":13466,"pbdm":13467,"xqhf":13468,"laozihao":13469,"ffffffddfcde":13470,"wopf":13471,"rcdg":13472,"rcdt":13473,"rzqt":13474,"xpya":13475,"czech":13476,"guojizhengzhi":13477,"isieforfree":13478,"culture":13479,"xdqb":13480,"lgxd":13481,"whhs":13482,"\",\"\"]\"\"/>&":13483,"uwyf":13484,"olivelite":13485,"rjrzk":13486,"asdasdasd":13487,"setcharacterencoding":13488,"tractvalue":13489,"uueahoayn":13490,"Ġntlljhcc":13491,"&<#":13492,"'}&":13493,"'>&":13494,"'`&('#_":13495,"/../":13496,";${":13497,";]>":13498,"]]-(":13499,"`$":13500,"bil":13501,"bic":13502,"cdbe":13503,"cyf":13504,"cabc":13505,"cbdd":13506,"cbea":13507,"dan":13508,"dgh":13509,"dceb":13510,"dcee":13511,"eth":13512,"eger":13513,"eaaa":13514,"edea":13515,"etud":13516,"eybs":13517,"fto":13518,"fue":13519,"fefe":13520,"fqyb":13521,"ief":13522,"jsi":13523,"jpa":13524,"jue":13525,"jml":13526,"jwx":13527,"jim":13528,"jea":13529,"jbg":13530,"jrf":13531,"jki":13532,"jfv":13533,"kyy":13534,"kxh":13535,"lwq":13536,"mfo":13537,"mtr":13538,"mdh":13539,"mhn":13540,"mvh":13541,"mqo":13542,"mqk":13543,"mwk":13544,"mfh":13545,"mfk":13546,"muidvewkm":13547,"nid":13548,"npt":13549,"naph":13550,"oex":13551,"ozqa":13552,"pny":13553,"ppcq":13554,"ppdg":13555,"qny":13556,"qjk":13557,"qmk":13558,"ren":13559,"rsq":13560,"rqye":13561,"rzrr":13562,"scode":13563,"smd":13564,"sny":13565,"srpq":13566,"tdk":13567,"wnt":13568,"wsj":13569,"xid":13570,"xcv":13571,"xng":13572,"xrds":13573,"xseq":13574,"xzdg":13575,"yrpd":13576,"zex":13577,"zct":13578,"zpv":13579,"zrpv":13580,"|${":13581,"Ġ95":13582,"Ġ82":13583,"Ġ41":13584,"Ġ76":13585,"Ġ97":13586,"Ġupdatexml":13587,"fft":13588,"ffaf":13589,"idvewkm":13590,"ani":13591,"ano":13592,"deaa":13593,"decb":13594,"dezt":13595,"ffffcff":13596,"come":13597,"copz":13598,"stc":13599,"six":13600,"cebc":13601,"cepz":13602,"ceaf":13603,"team":13604,"daef":13605,"lis":13606,"lish":13607,"libin":13608,"vif":13609,"vix":13610,"toq":13611,"mpd":13612,"roy":13613,"apw":13614,"apx":13615,"mey":13616,"][]=[":13617,"getkind":13618,"tyu":13619,"inv":13620,"pahu":13621,"paig":13622,"ssh":13623,"lal":13624,"rih":13625,"sereply":13626,"osq":13627,"osz":13628,"vay":13629,"spk":13630,"hob":13631,"pover":13632,"nax":13633,"nads":13634,"tuni":13635,"eccb":13636,"lok":13637,"arh":13638,"faee":13639,"fadf":13640,"jae":13641,"jav":13642,"gud":13643,"guob":13644,"vev":13645,"dic":13646,"dii":13647,"diq":13648,"utt":13649,"unb":13650,"gij":13651,"giv":13652,"fiw":13653,"msu":13654,"shd":13655,"kea":13656,"kef":13657,"keh":13658,"autoshell":13659,"fbba":13660,"fbci":13661,"dbab":13662,"dbbe":13663,"rcead":13664,"rceve":13665,"rcebr":13666,"rcesv":13667,"rceeo":13668,"rcedo":13669,"rcepu":13670,"rcego":13671,"rcehi":13672,"rceox":13673,"rceku":13674,"rcedu":13675,"rcerg":13676,"rcezk":13677,"rceyq":13678,"rcewv":13679,"rcecg":13680,"rceyf":13681,"rcedv":13682,"rceub":13683,"rcetq":13684,"rceah":13685,"rcelc":13686,"aby":13687,"abzc":13688,"alk":13689,"syf":13690,"mba":13691,"ptk":13692,"))))":13693,"moc":13694,"mom":13695,"mot":13696,"mow":13697,"scd":13698,"scdc":13699,"scsr":13700,"nug":13701,"sao":13702,"sate":13703,"ebed":13704,"ebfc":13705,"ebcb":13706,"kbt":13707,"edde":13708,"sov":13709,"soqg":13710,"cafa":13711,"lxu":13712,"bbi":13713,"bbpi":13714,"bbtz":13715,"mav":13716,"phpcms":13717,"logincut":13718,"dyeg":13719,"fwi":13720,"fwo":13721,"fwu":13722,"ddce":13723,"ddbd":13724,"bou":13725,"efzf":13726,"cdl":13727,"cdo":13728,"cdv":13729,"baz":13730,"byt":13731,"bysg":13732,"bycq":13733,"outflag":13734,"eint":13735,"wdc":13736,"aafa":13737,"cfbd":13738,"cfee":13739,"cfdf":13740,"cfgd":13741,"Ġws":13742,"wxd":13743,"wxgs":13744,"fds":13745,"fdfc":13746,"cig":13747,"wax":13748,"ccce":13749,"feec":13750,"brdi":13751,"brhd":13752,"fcbb":13753,"ufq":13754,"ufv":13755,"txy":13756,"cbbd":13757,"cbcf":13758,"')}?":13759,"juq":13760,"juw":13761,"juhua":13762,"||$":13763,"||${":13764,"zzfa":13765,"dodb":13766,"bcpa":13767,"psk":13768,"dcdb":13769,"dccd":13770,"dcbe":13771,"btpt":13772,"dmh":13773,"aotv":13774,"aowen":13775,"rpw":13776,"dfqz":13777,"pzqs":13778,"pgk":13779,"vyl":13780,"fmg":13781,"fmk":13782,"fmn":13783,"zmg":13784,"vcq":13785,"vcz":13786,"wng":13787,"pcy":13788,"pcab":13789,"znc":13790,"znw":13791,"fuu":13792,"wfg":13793,"wfk":13794,"wftype":13795,"goto":13796,"qqv":13797,"qqw":13798,"qqdq":13799,"yyk":13800,"yyut":13801,"viewstategenerato":13802,"bgyz":13803,"hih":13804,"rqsi":13805,"rqhb":13806,"gka":13807,"gkg":13808,"gkr":13809,"gkx":13810,"Ġds":13811,"rkx":13812,"rdw":13813,"kih":13814,"tcs":13815,"zqn":13816,"zqv":13817,"zqet":13818,"jjh":13819,"jji":13820,"jiq":13821,"mult":13822,"jyn":13823,"jyu":13824,"bls":13825,"gdk":13826,"gdl":13827,"gdw":13828,"mcg":13829,"mcz":13830,"zrw":13831,")?(#":13832,"rsg":13833,"jqn":13834,"drn":13835,"zcp":13836,"ngda":13837,"ngab":13838,"sgz":13839,"sggf":13840,"qgy":13841,"qgyz":13842,"zwu":13843,"zfy":13844,"lyb":13845,"honortel":13846,"joa":13847,"joq":13848,"prv":13849,"Ġvuidvewkm":13850,"piv":13851,"piw":13852,"qayi":13853,"Ġks":13854,"Ġlm":13855,"xuq":13856,"zlg":13857,"zak":13858,"qka":13859,"ywg":13860,"ruanjian":13861,"sfn":13862,"sfgv":13863,"mhr":13864,"mhv":13865,"mjt":13866,"mjv":13867,"mjx":13868,"mtd":13869,"wrv":13870,"dtph":13871,"pxv":13872,"Ġqp":13873,"sdsb":13874,"pfzt":13875,"zjl":13876,"zjv":13877,"sbk":13878,"sbfi":13879,"zxf":13880,"zxh":13881,"jvq":13882,"jvu":13883,"wyv":13884,"sxl":13885,"sxri":13886,"jka":13887,"jko":13888,"yoae":13889,"cgcdd":13890,"qxdf":13891,"ftd":13892,"ftdc":13893,"wwg":13894,"atqe":13895,"?--[":13896,"xoqc":13897,"oeicn":13898,"bkx":13899,"ycde":13900,"yaz":13901,"nqrg":13902,"ypct":13903,"frzs":13904,"ybci":13905,"gcmt":13906,"jha":13907,"jhf":13908,"jhl":13909,"aqaf":13910,"wuy":13911,"mvb":13912,"mvq":13913,"cqrq":13914,"lgw":13915,"rrch":13916,"lvq":13917,"zpcf":13918,"nix":13919,"nigeria":13920,"seasy":13921,"vul":13922,"wje":13923,"npbh":13924,"hkw":13925,"oaga":13926,"azad":13927,"jeu":13928,"wzrq":13929,"wsrf":13930,"jbn":13931,"dfaa":13932,"orderby":13933,"dfbb":13934,"cacd":13935,"atue":13936,"edab":13937,"effc":13938,"cfad":13939,"Ġmamuidvewkm":13940,"ffffefeff":13941,"$(${":13942,"$(<#":13943,"$(<%":13944,"ddbb":13945,"cbbr":13946,"aacv":13947,"sitemap":13948,"ihqoi":13949,"fdab":13950,"fdad":13951,"Ġoageeqhu":13952,"sdfg":13953,"\"\"/>&":13954,"=`(":13955,"ffffffedefde":13956,"license":13957,"'`${":13958,"zquf":13959,"drivers":13960,"ffffffefbbff":13961,"?{{":13962,"lequt":13963,"ffffefcdbdff":13964,"xxxcgcdd":13965,"chanye":13966,"wadi":13967,"dsqi":13968,"oged":13969,"fffffefbafff":13970,"cauq":13971,"fxya":13972,"dpyz":13973,"pczhuanti":13974,"sichouzhiluwenda":13975,"ncfcnfd":13976,"wtbg":13977,"ffffeffdfdce":13978,"meizhouzhiku":13979,"dinglei":13980,"formids":13981,"/./././././././././././././././././././././././././././././././././././././././././././././././././././././././././././././././././././././././././././././././././././././././././././././././././././././././././././././././././././././././././././././././././././././././././././././././././././././././././././././././././././././././././././././././././././././././././././././././././././././././././././././././././././././././././././././././././././././././././././././././././././././././././././././././././././././././././././././././././././././././././././././././././././././././././././././././././././././././././././././././././././././././././././././././././././././././././././././././././././././././././././././././././././././././././././././././././././././././././././././././././././././././././././././././././././././././././././././././././././././././././././././././././././././././././././././././././././././././././././././././././././././././././././././././././././././././././././././././././././././././././././././././././././././././././././././././././././././././././././././././././././././././././././././././././././././././././././././././././././././././././././././././././././././././././././././././././././././././././././././././././././././././././././././././././././././././././././././././././././././././././././././././././././././././././././././././././././././././././././././././././././././././././././././././././././././././././././././././././././././././././././././././././././././././././././././././././././././././././././././././././././././././././././././././././././././././././././././././././././././././././././././././././././././././././././././././././././././././././././././././././././././././././././././././././././././././././././././././././././././././././././././././././././././././././././././././././././././././././././././././././././././././././././././././././././././././././././././././././././././././././././././././././././././././././././././././././././././././././././././././././././././././././././././././././././././././././././././././././././././././././././././././././././././././././././././././././././././././././././././././././././././././././././././././././././././././././././././././././././././././././././././././././././././././././././././././././././././././././././././././././././././././././././././././././././././././././././././././././././././././././././././././././././././././././././././././././././././././././././././././././././././././././././././././././././././././././././././././././././././././././././././././././././././././././././././././././././././././././././././././././././././././././././././././././././././././././././././././././././././././././././././././././././././././././././././././././././././././././././././././././././././././././././././././././././././././././././././././././././././././././././././././././././././././././././././././././././././././././././././././././././././././././././././././././././././././././././././././././././././././././././././././././././././././././././././././././././././././././././././././././././././././././././././././././././././././././././././././././././././././././././././././././././././././././././././././././././././././././././././././././././././././././././././././././././././././././././././././././././././././././././././././././././././././././././././././././././././././././././././././././././././././././././././././././././././././././././././././.":13982,"tsdw":13983,"))//'>&":13984,"sjdjs":13985,"kuaiyu":13986,"\"\":*\",\"\"":13987,"reporting":13988,"Ġwsjoihqoi":13989,"praisereply":13990,"getkindlist":13991,"oeicnfa":13992,"Ġoageeqhuenke":13993,"xxxcgcddsjdjs":13994,"#=@":13995,"&{\"\"@":13996,"&${":13997,"&<%":13998,"'||":13999,".]":14000,";<#":14001,";<%":14002,"`)":14003,"ama":14004,"agaz":14005,"azuq":14006,"caw":14007,"creq":14008,"cdea":14009,"dcfe":14010,"dcfc":14011,"edbe":14012,"eaaf":14013,"fvi":14014,"fdac":14015,"fdaa":14016,"fpgg":14017,"iver":14018,"iseasy":14019,"jnt":14020,"jla":14021,"jup":14022,"jdb":14023,"jil":14024,"jtb":14025,"jxw":14026,"jbz":14027,"jbx":14028,"jzk":14029,"jzo":14030,"jrh":14031,"jtd":14032,"jeq":14033,"lve":14034,"lange":14035,"mta":14036,"mro":14037,"mss":14038,"mmi":14039,
[...]
